#version: 0.2 - Trained by `huggingface/tokenizers`
Ġ Ġ
- -
ĠĠ ĠĠ
ĠĠ Ġ
o r
-- --
s e
> <
o n
i n
a t
e r
ĠĠĠĠ ĠĠĠ
r e
s t
e n
m p
Ġ t
Ġ i
---- ----
r o
) <
d e
or t
Ġ =
Ġ a
mp ort
l e
" "
: <
a l
i on
a r
h e
Ġ c
i t
č Ċ
a n
ro m
f rom
l f
se lf
m e
i c
Ġi mport
a s
u t
Ġ p
Ġ f
) :<
c t
-------- --------
e st
Ġ re
g e
en t
in g
Ġ s
u r
l o
# #
de f
e s
Ġ "
, <
ĠĠĠĠ ĠĠĠĠĠĠĠ
" <
Ġt he
> #
e d
Ġ in
Ġ o
Ġ n
se r
u n
i g
. <
Ġ self
Ġ d
Ġ b
_ _
i l
i mport
a c
e x
Ġ m
p e
Ġ w
c o
at ion
as s
l i
Ġ C
r a
Ġa s
Ġ def
o t
"" "<
a me
i s
Ġ (
c e
a d
Ġ S
c h
o de
h t
at e
Ġ T
Ġf or
Ġ '
p t
Ġ A
## ##
u l
l ass
i d
Ġ L
o l
i le
p y
ur n
u e
t urn
v er
at a
Ġa n
st r
t h
ĠĠĠĠ ĠĠĠĠ
ge t
Ġi s
Ġt o
a ge
---------------- ----------------
e l
u m
a b
q u
ser t
c on
Ġ M
Ġre turn
Ġ #
o d
e ct
on e
t r
u p
se t
at h
y pe
t er
Ġ N
c lass
en se
k e
v al
t est
ic ense
( )<
" ,
it h
Ġ [
Ġ h
ac k
Ġi f
Ġo f
Ġ l
a p
Ġ P
an d
i z
u re
] <
( "
o c
Ġ 1
f ig
= =
f or
ul t
Ġan d
n ame
Ġ -
ex t
"" "
Ġt est
g s
i st
ig ht
e t
a se
' ,
s ion
Ġc on
Ġ 2
v e
in t
i m
Ġ D
a m
p er
i f
Ġ de
Ġ r
Ġ g
Ġ F
r or
pt ion
u b
j ect
Ġt h
al l
re s
i r
d er
t o
Ġ .
Ġ *
or e
en er
( '
Ġas sert
Ġ I
p ath
Ġ """<
" )<
Ġ lo
i me
for m
en d
ab le
0 0
o m
Ġ """
#### ####
p l
ode l
Ġb e
p ar
r i
( )
a y
ct ion
Ġ _
p ro
. _
ĠN one
u s
i al
t p
Ġ st
Ġ {
d ata
ar gs
Ġ __
ĠL icense
n c
m ent
Ġ ex
Ġ= =
R e
( <
mp le
Ġw ith
Ġ 0
s o
Ġp y
p ut
u se
Ġ un
Ġn ot
o w
o o
in e
f ile
ut il
" :
o py
t ype
re d
E r
Ġ G
Er ror
t a
) )<
ic t
i b
at ed
in it
Ġf ile
y p
e m
' )<
iz e
li ent
s c
h a
ht tp
Ġp ro
c k
s s
ĠĠĠĠ ĠĠĠĠĠĠĠĠĠĠĠ
g g
c es
Ġ str
O N
an t
li b
0 1
r ight
Ġ O
f t
Ġ E
at or
I T
l l
I N
m a
r ue
o ut
at ch
n t
Ġ e
y nc
p o
ke y
. """<
/ /
ver sion
Ġo s
opy right
ar t
Ġ B
E R
Ġre s
co m
ĠS e
t ext
er s
" ,<
it y
or k
Ġ :
Ġb y
val ue
__ (
: //
Ġ +
== ==
an ge
ation s
i es
th on
i x
i p
Ġ from
o me
ra y
Ġ --------------------------------
= "
Ġd ata
o ur
li st
ĠC opyright
Ġ v
u le
oc k
a g
qu est
o b
Ġ y
T est
) ,
ct or
ur l
ic e
Ġ get
i se
Ġ x
as sert
con fig
Ġn p
C on
Ġ-------------------------------- --------------------------------
ac e
util s
Ġ se
Ġ---------------------------------------------------------------- --------
t ime
Ġ me
lo w
c ore
i v
Ġ )<
Ġ R
an s
en v
Ġ or
or ch
o p
Ġi t
k w
" ]
} <
f f
ad d
Ġ H
ces s
' <
il l
ĠĠĠĠĠĠĠĠ ĠĠĠĠĠĠĠĠ
al se
Ġn ame
e w
a ult
ap p
r it
t e
r y
( ):<
= '
E N
u ser
[ "
Ġa r
Ġ 3
Ġ on
m odel
A T
kw args
Ġ @
u il
or d
an g
Ġ ro
od ule
Ġ set
w a
he ck
v i
a mple
y s
Ġc o
ib ut
ser v
qu al
Ġ- >
Ġ U
ener ated
r int
l y
I n
d ir
> """<
h is
p ort
i ve
co de
p ack
in d
an ce
http s
p on
######## ########
Ġth is
E S
Ġ W
ĠSe e
u mp
co l
so ft
># <
Ġth at
) .
u g
en s
re ad
un ction
ic ro
i re
ut f
0 2
u st
f o
. .
Ġ use
icro soft
um ent
ĠM IT
Ġw h
th od
) ,<
ra p
Ġt yp
-- <
Ġc ode
Ġ V
oo k
o s
lo ad
our ce
' :
at tr
un d
x t
Ġun der
Ġp ar
ra ise
z ure
i el
O R
co mp
as k
- <
ĠM icrosoft
iel d
c l
pon se
ac he
Ġ j
de x
o ol
v ent
] )<
Ġ* *
pe ct
ut h
] ,
l ine
a st
T rue
N one
ce ption
h o
Ġl icense
> @
Ġt orch
ist ant
gg ing
ar y
n s
ing s
ĠC ode
Ġt ype
s on
Ġres ult
b ack
Ġ `
er ror
e p
re ate
i o
ĠT he
Ġw ill
Ġ------------------------------------------------------------------------ --<
S E
Ġ( <
Ġtyp ing
re e
pe c
ent ial
ĠC on
uil d
n um
val id
sc ri
I C
> )<
s ize
Ġt ime
a x
a f
Ġh ome
e c
lo t
Ġc od
d d
Ġcod ing
if i
ump y
A R
ĠG ener
Ġcon fig
ar n
p re
t y
Ġs c
Ġ version
' ,<
ut o
ra in
Ġ Re
v ice
k en
ur ation
m l
c ur
E x
c lient
Ġs up
un t
b ase
s p
ight s
ĠT his
ig n
red ential
Ġro ot
Ġo ut
S T
Ġa p
Ġ2 01
Ġc ol
d ate
ar d
ĠA n
Ġ <
m o
st ance
th er
Ġ k
i str
ap i
gg er
ĠT rue
ĠT est
b in
Ġa re
T ype
Ġ %
ow n
S t
Ġo b
Ġc h
Ġs ys
Ġp rint
n ot
par am
u es
he l
c or
ctor y
* *
w ork
r un
Ġm odel
el se
( [
a il
C H
ĠA ll
t xt
R E
as ync
p end
b o
Ġ- *
E qual
m at
Ġ raise
Ġpy test
form ation
p en
ob ject
m and
M A
ass istant
Ġc lass
serv ed
ang o
o in
a in
I ON
Ġ value
v el
ar ray
j ango
at es
s h
Ġ list
==== ====
mp l
or g
Ġlo gging
Ġin t
ce pt
n ect
Ġre g
rit e
d ent
w ith
Ġ 4
. __
Ġp ass
ens or
ro up
it test
Ġn umpy
M E
ss age
m s
ut ure
re nt
ta in
d ict
Ġhome assistant
> >
form at
lo g
Ġs ub
a use
Ġa l
ĠD e
per s
Ġ en
Ġ. .
m on
b ook
assert Equal
Ġpro ject
IN G
de d
Ġl en
and om
Ġ else
P E
Ġin formation
he ad
P I
ra me
d a
Ġw ork
se s
P ro
en ce
re am
Ġc an
Ġ key
it ion
Ġre served
Ġr ights
o und
tr y
ĠF alse
C lient
Ġp ath
Ġp l
I G
Ġas ync
p i
L E
1 0
ic ation
Ġpy thon
par se
or p
Ġi m
ĠP ro
ar k
C K
a ke
a ve
Ġw e
ption al
l in
Ġ[ "
ut e
model s
D E
f ix
s he
Ġo ther
Con fig
f uture
L o
ĠĠĠĠ Ġ
iz er
le vel
in fo
scri ption
Ġn o
lo at
val ues
C ase
f er
b er
ab el
p lot
d f
c al
o u
ar i
ĠLicense d
n d
Ġco mp
Ġm ay
ar g
n et
lo b
" ]<
Ġ 5
ifi er
ha pe
j oin
ack age
or ation
Ġ url
w w
2 5
ta il
lo ck
l en
f il
ĠC orp
ar ch
F alse
w ord
ent s
ĠCorp oration
Ġre quest
or m
Ġn um
R es
d b
A N
Ġ{ <
ĠC h
Ġ{ "
pro cess
r ans
st at
wa it
rap h
Ġa zure
ĠE x
ame ter
ĠI n
ent ry
" )
re ct
2 02
re g
Ġg enerated
O P
Ġr un
u ct
d oc
w e
so ur
co unt
Ġde pend
res s
[ '
Ġdef ault
er e
H T
as h
re quest
l er
pect ed
p r
E n
Ġ[ <
l ic
ke t
ul d
6 4
le ction
D ata
ar get
or y
ĠP y
m in
n el
tail s
ON F
a w
me thod
qu i
ug in
m an
l s
Ġ /
Ġc om
re n
it em
Ġs ource
Ġd is
s ub
Ġt e
un c
per ations
B ase
yp es
er y
1 2
Ġp re
A p
Ġd ate
Ġsup er
b uild
Ġde tails
at ure
Ġd jango
wa re
ĠAn y
Ġa b
Ġ https
c he
Ġ user
A L
ĠGener ator
in put
ser ver
Ġf unction
up le
d ing
istr ibut
le d
c all
ange s
Ġm odule
t ent
st art
c heck
ire ctory
Y PE
us r
in dex
ig r
ĠO ptional
P D
Ġs h
ption s
Ġa ll
a ct
ith ub
al ue
def ault
D e
Ġc heck
i de
m ap
L icense
ser ial
ve lo
Ġun ittest
w rite
on g
Ġbe ha
] ,<
Ġ* <
3 2
ic s
in stance
en ame
# !
e g
Ġ X
sour ce
tr ans
I dent
Ġd oc
o st
Ġt ext
ic k
U T
Ġout put
app end
ac h
po int
m ark
u d
out put
g ithub
ht ml
Ġar g
ol ic
vi or
Ġ at
m odule
ĠA uto
py test
op en
ot e
attr ibut
#! /
f oo
ho uld
Ġa dd
mple ment
Ġ z
Ġm ock
S er
202 2
cor rect
she et
Ġob ject
res ult
l a
st ate
pl it
f unction
in ter
Ġto p
or s
Ġbeha vior
CH E
ic h
c s
Ġuse d
Ġa wait
Ġ K
U R
C o
ag er
Ġin put
Ġex pected
b y
Ġc ause
I D
> __
} ,<
q ue
M odel
y st
it e
str ing
Ġme thod
ir on
Ident ifier
) :
---- -<
R est
if y
im age
U L
ĠL ist
} )<
Ġ up
Test Case
m y
u al
to ol
################ ################
Ġin correct
a uth
PD X
ĠS PDX
Ġ201 3
Ġ utf
Ġlo st
g ra
a v
ĠCh anges
and as
py thon
t ypes
Ġreg enerated
L O
ĠAuto Rest
t ings
um n
u c
en sion
ma x
i ver
T R
Ġt ry
at form
me t
m ock
e y
P ar
per ty
Ġc lient
Ġ[ ]<
` `
f low
Ġs o
iz ation
c reate
Ġs pack
IG HT
ĠCon fig
on ents
Ġb ase
and ler
Ġj son
d is
Ġd o
() )<
ĠPro ject
ro w
Ġd ict
it er
Ġo pen
Ġ }<
ub lic
ra w
pe line
g roup
l ay
n o
N A
Ġ. _
' ]
mpl ate
Ġs pec
m t
A S
yst em
en c
e ature
ĠĠĠĠĠĠĠĠ ĠĠĠĠĠĠĠĠĠĠĠ
n p
ool s
EN SE
Ġdate time
con st
p atch
1 1
Ġn ew
O T
j son
Ġc all
d i
ic es
ation al
ra ct
n n
u ff
IC ENSE
cur ity
e qual
Ġs hould
ĠI nc
ul l
T o
Ġdepend s
p rint
t rain
nect ion
Ġc opy
n er
Ġ J
velo pers
k ip
a k
ĠU n
ver t
ĠO R
q l
F ile
t es
Ġcon text
Ġl ine
D O
Ġwh en
OP Y
Ġr ange
Ġ------------------------------------------------------------------------ -----<
m is
Ġst ate
ib le
st er
me ssage
ft ware
g th
it le
Ġ-* -
lo se
se nt
Ġres ponse
s hape
() .
ĠS t
Ġs ha
b ar
a le
ĠC OPY
v ar
Ġst at
p age
Ġ-* -<
env iron
ER S
m b
ex ception
Ġ ext
ust om
Ġc reate
ac lass
Ġlo g
co der
M an
Ġm at
t he
ma in
et a
P ackage
Ġ error
Ġh ass
( __
Ġ. ..
R IGHT
Ġ us
g n
Ġap p
t orch
Ġex cept
Ġ ]<
Ġa c
ĠS pack
res ponse
all y
Ġin st
m ore
s pec
e vent
CHE CK
L C
C O
rit er
Ġ ray
ĠSe curity
ult i
Ġp art
con text
T he
Ġim age
ter n
G E
ind ow
is ion
c re
po s
Ex ception
Ġh as
Ġ >
Ġ1 0
Ġd irectory
m it
Ap ache
Ġc ur
a re
Ġ[ '
ec ut
t s
Ġp er
ren ce
ĠT YPE
q a
ĠS im
Ġar gs
T his
ĠD ict
sp ace
25 6
Ġ le
ĠN ational
ĠCOPY RIGHT
U p
s plit
alue Error
m d
ĠL LC
ĠDe velopers
qu ery
ĠL aw
: `
g r
MA IN
EN T
iver more
ĠL ivermore
ĠLaw rence
I L
N U
f rame
' )
an nel
Ġ` `
CHECK ING
Ġ Q
Ġy ou
co ding
ĠD ata
o g
P y
Ġp andas
con d
tool s
T P
' ]<
le ct
Ġ >>
Ġtest s
Ġ http
Ġm s
l int
Ġwh ich
ari able
t ure
Ġfile s
Ġno qa
A B
Ġme ssage
Ġis instance
h ass
s ing
Ġre ad
ä ¸
c redential
= {
l at
f unc
er t
pl ay
head ers
Ġs p
l abel
re f
b e
C T
Ġf ound
Ġn e
ate g
a ir
Ġd type
p s
am b
to col
Ġ lib
R O
ameter s
E D
par ser
bo x
A D
ist er
g ener
Ġf il
Ġst art
x y
Ġcol lection
() ,
ĠL ICENSE
d im
and le
" .
Ġit s
Ġ end
ment s
s ync
Ġ>> >
Ġstr ing
to ken
comp onents
com mand
Ġlo ad
age ment
oc ket
ĠĠĠĠ ĠĠ
Ġm ax
S et
( {
Ġ+ =
pro perty
ĠGener al
Ġcon tain
L ist
NA ME
o pt
Ġfor mat
r andom
or age
i mple
o ke
in al
ir st
id th
com mon
data set
olic y
t tp
as ses
Ġh ave
ot h
M P
' s
( (
00 0
S tr
d own
ĠP ublic
[ :
re turn
Ġ( "
test ing
Ġt rans
ww w
c p
f a
ĠPy thon
ĠA r
Ġs ize
) )
Ġt w
de vice
f loat
pro ject
lo c
m age
cl u
F A
y n
Ġ 6
A PI
Ġin dex
es s
ent ity
Ġ |
ĠI f
H O
it ies
amb da
qui red
S e
fil ename
] .
s ol
s um
Ġpy lint
lo gger
ERS ION
Ġdoc ument
"] )<
Ġa x
Ġc re
id er
Ġr andom
arn ing
Ġb uild
A r
UL T
1 6
up date
if ic
Ġo pt
le ase
n g
r ange
Ġ values
Ġm an
t ro
pl ace
iz ed
serv ice
Ġi d
ample s
o k
Co mp
al s
F ield
r an
istribut ed
file s
pl ication
n ew
se d
ob j
Ġon ly
w ard
ĠB ase
igr ations
Ġp atch
ĠC ONF
Ġdis able
c lose
vi ew
Ġmodel s
r ary
M L
ri x
end s
i ew
r c
i e
Ġ li
Ġsup port
( _
up port
Ġ hel
Config uration
i a
iv en
in x
exception s
Ġf loat
pl ugin
c ache
======== ========
C h
Ġm ust
sc he
t ask
Ġt rain
s d
n ode
C ONF
raise s
Ġit em
Lo gger
U N
Ġt arget
set up
Ġus ing
Ġin ter
Ġcollection s
1 3
__ )<
Ġin stance
Ġ attribut
Ġd f
ion s
Ġb ool
Ġp o
Re quest
se ns
ri es
ic al
l d
ĠH T
Ġf ield
Ġ valid
00 00
ho st
ĠS er
Ġp d
ist ed
9 9
on t
s ign
ad ata
U n
Ġ u
ĠA p
fil ter
mo ve
it s
Ġ --
ĠA PI
D ict
2 0
ĠI mport
met aclass
fix ture
Ġg ener
le an
ad er
I O
ES T
2 01
Ġ Y
Ġ one
' ))<
ag ster
u py
AT E
E nt
Ġm atch
param s
ent ries
co py
A ss
Ġ \
t in
it ive
orm al
Ġan y
Ġ 8
' t
( *
tr ibut
c ord
cl s
O b
U S
ol d
c a
col or
a rent
F or
stat us
Ġan not
Res ponse
od y
D I
tr ic
f ield
f g
arg ument
re st
Ġ !
ro ot
Ġc redential
Ġ{ }<
' '
s l
Ġnum ber
Ġi ter
oke h
Ġn ode
Ġm od
pack age
Ġi mplement
3 4
Ġde vice
ol der
t arget
item s
d type
istr y
t ing
Ġwork sheet
] )
= [
Ġte mp
config uration
Ġe vent
Ġm ore
lo cal
h inx
Ġcur rent
s ys
pi peline
Ġpar ser
mis sion
ex cept
1 5
om ain
g raph
ĠV alueError
ire ct
plot lib
Ġm ake
f ace
Ġst ream
Ġin it
N ot
z er
> _
ĠRe turn
L I
C E
Ġre d
ĠĠĠĠĠĠĠĠĠĠĠĠĠĠĠĠ ĠĠĠĠĠĠĠĠ
le ment
ĠP ath
N ame
Ġdata set
A uth
To ken
mp ty
lin k
res sion
K ey
F I
0 4
S D
Ġ ""
t able
P O
Ġt r
gra m
se q
ser ies
st ract
o ptions
Ġn n
m ote
n ing
ES S
red ict
he s
id get
le t
ver y
b lock
len gth
to p
ĠH ome
c li
c i
Ġset up
ic ode
fer ence
li f
(" /
Ġm in
Ġ! =
le arn
Ġb ack
ce l
Ġt er
hel pers
] :<
ls x
ist s
i py
un k
0 3
Ġ kwargs
C redential
Ġcom mand
o ver
Ġannot ations
O perations
st ream
Ġ( '
qui res
am l
Ġex p
b ot
in es
in k
qu ence
W riter
a z
() .__
Py thon
p ass
. ,
t ect
con tent
Ġpl t
a ction
Ġa ff
sol ute
con f
get Logger
er r
Ġp ackage
ç ļ
FA ULT
çļ Ħ
ĠO pen
~ ~
o us
ab s
un ittest
ifi ed
" :<
Ġ{ '
Ġl abel
de l
Ġ2 02
o x
t itle
Ġt f
arn ings
we b
ĠUn ion
Ġg r
> """
g mt
y le
Ġt ree
. ")<
5 6
ĠF ace
or der
man ager
ant s
Ġar ray
vi de
ĠG NU
en code
error s
pre sent
Ob ject
ri pt
AN T
se arch
il d
E num
u pt
Ġc v
ch o
1 9
ab c
Ass istant
il i
il ity
Ġth read
ĠR es
at ing
Ġa ct
id d
ail able
er sion
sd k
ĠM ock
ĠFace book
m atch
Ġb ut
ĠD O
" ),<
Ġo ver
{ }
ay load
if ication
b atch
um my
Ġd istributed
igr ation
m ode
ï ¼
de v
g z
M ock
Ġg iven
Ġde scription
Ġex ample
ĠC o
ĠSim Type
1 4
5 0
C all
er nel
F F
Ġy our
Ġ server
om mand
K E
n e
a mp
a zure
clu de
a ctor
Ġ2 00
u id
" ))<
T ensor
t ar
ĠP ar
e b
C lass
st ep
f ul
F rame
w rap
Ġ entry
M eta
ix in
name s
ĠHome Assistant
ĠS o
Ġsub scription
a uto
Par ser
). __
b ug
in st
Ġaff ili
Ġaffili ates
ang u
Ġso ftware
ax is
De f
angu age
t mp
ĠImport Error
ĠE num
Ġc l
ĠH ttp
col umn
o ff
test s
A n
En try
tain er
M odule
po st
set tings
Ġi o
scri pt
** **
w h
b ed
st ack
uff er
Ġab solute
) ):<
use d
en e
ĠN ot
t f
ay er
o f
al led
ension s
et work
s kip
5 5
d uct
: :
ch annel
str uct
ex p
Ġpar se
v c
Ġms g
lob al
our ces
te mp
b l
ro p
le te
M e
lin es
reg ister
w idth
un ct
Re turn
Ent ity
C ol
im g
A GE
In fo
r and
at ive
Ġs ome
trans form
IT Y
) .<
Ġi gn
pre fix
P l
par t
cur rent
Ġarg parse
Ġhome page
ex ample
T e
i an
Ġy ield
P L
Ġset tings
m od
is on
f l
Ġarg ument
U ser
ms g
c c
Ġor der
Ġlo cal
Ġt ask
Ġa g
Ġmat plotlib
2 3
T rans
Ġ em
d o
object s
1 8
1 00
it or
eature s
R un
Ġro w
ses sion
Ġ he
tr ics
as ic
Ġto ken
AT A
ĠReturn s
M O
back ends
7 8
Ġd iv
ĠI mage
Test s
o perations
st d
g ine
pl atform
head er
ar ison
key s
ĠC all
Ġa uth
H andler
i k
E X
Ġwork book
DO MAIN
id s
on ent
on ly
t en
ig h
m gmt
ry pt
Ġd if
Ġm ain
b u
Man agement
ĠHT TP
che s
Ġv ol
gener ator
Ġt ensor
0 5
s ave
0 8
ĠT ype
Ġdo es
n umpy
Ġin te
Ġlicense d
ĠA dd
s ample
app ing
u i
del ta
i que
2 8
ĠT uple
ch ar
Ġs ample
ĠSo ftware
Ġcre ated
" ):<
ex pect
L S
Ġ{ }
Ġm igrations
enc ies
V ERSION
Ġ )
Ġ q
A l
Ġ env
Ġsub process
h ook
Ġm ath
re q
t ensor
Ġf ind
credential s
Ġf irst
im al
I nt
con nect
P AT
pl y
auth or
Ġs ign
E vent
Ġ 7
stat ic
Ġa v
Ġap i
id x
Ġte mplate
Ġo ptions
] [
ĠA zure
Ġset Up
Ġrequest s
uil der
ĠS et
Ġcon tent
i peline
c v
Ġh ere
air seq
ord in
ess age
Ġpro cess
F a
ri v
yp ot
t ed
Ġe ach
Ġc or
E T
l icense
I mplement
I P
5 01
n own
so le
Ġob j
Ġen coding
ĠA sync
d at
Ġw rite
ot al
ub li
I S
ĠS tr
V iew
Ġinst all
environ ment
A CK
ol low
el l
for e
ma ke
ound ation
Ġw arnings
Ġd agster
Str ing
a ise
Ġtw isted
ro und
hes is
Ġre source
Ġpar am
Ġcol or
me m
Ġin to
res h
ĠF or
Ġlo gger
ĠW ork
Ġb atch
g le
E xt
ac es
p ng
Management Client
by tes
= (
r on
ĠDO MAIN
Ġresult s
um ns
Ġf low
sh ow
Ġf l
ĠF ree
Ġw rap
oth er
lsx Writer
2 1
s ha
Ġc ls
de code
I t
Ġp os
KE Y
ypot hesis
p at
ĠB SD
e ad
c an
en ces
te mplate
ĠX lsxWriter
> ]<
comp at
Ġattribut e
m ask
un ter
IN T
Ser vice
il er
Ġwh ile
ort ed
li p
Ġpl atform
Ġhel p
an k
doc s
2 4
St at
ariable s
enc y
P ath
Ġt m
ect or
ra ctor
n ow
g er
ator s
unct ools
N ode
C ON
Ġfil ename
å ı
tern al
c le
Ġe lif
ile d
3 3
indow s
d ist
i as
I d
Ġm ode
w ay
AR T
g it
ial izer
ĠC ol
ĠU R
M ixin
Ġ 9
ult ip
res ource
P olicy
Ġs k
Ġ" <
t tribut
ĠConfig uration
in ed
init ion
Ġter ms
w it
T YPE
b lob
Ġ" /
Ġwith out
sens itive
Ġne ed
Ġ1 00
po p
" ),
ĠI t
Ġd ist
Ġg re
que ue
x x
k ens
ic on
ent er
0 6
St ate
Ġim g
Ġg roup
\ \
Ġa uto
Ġw as
Ġen um
z e
ar a
In dex
S I
dir name
st amp
1 7
v ider
le ctor
Ġd im
PAT H
lo ss
t on
Ġ serial
T ime
u x
g or
' ):<
P re
Ġin fo
s co
G et
Ġre quires
co mple
" },<
Ġfunction s
# <
8 6
Ġb okeh
u me
v en
OR T
Ġal low
gor ith
IC E
st ore
Man ager
Ġsc he
Ġ query
UR L
f e
ĠS T
= ('
) ]<
l ambda
ch ange
ĠAr gs
or ld
p k
iv ed
ĠU ser
Ġ val
T O
f ind
var s
in s
s ystem
able d
pl ic
c at
Ġpar ameters
own load
C opyright
ust er
int eg
par ame
in ary
' .
Ġun icode
Ġsc ipy
s upport
Ġa ction
p ol
Ġre quired
ĠA N
ĠI ter
ĠT o
Ġlib rary
Ġ qu
S A
Ġasync io
ec ute
Ġdiv ision
Ġf unctools
Ġfil ter
pass word
per t
ER V
call back
ion ary
Ġa d
ĠK ey
re place
Data set
le ep
G ener
Ġg raph
Ġo per
Ġch art
ing le
Res ult
Ġ ver
Ġi mp
Ġc ache
c ustom
ul ar
b ody
p ed
0 7
li ed
pert ies
p ha
Ġs hape
p arent
u ction
Ġf ollow
f s
se nd
S S
T ext
Ġ service
r l
c fg
tr ize
In sensitive
ar r
Ġf unc
Ġup date
; <
Ġ utils
uc cess
Ġo p
as on
plugin s
j ob
( -
p h
y aml
F OR
ex it
olic ies
li d
parame trize
Ġ headers
al y
Ġwe b
AT ION
` <
sche ma
s ocket
C l
che d
Ġgr r
v ision
Ġa ut
t uple
æ ķ
ff ect
Ġstat s
ecut ion
Ġd at
r der
reg istry
Ġtrans form
0 9
ultip le
st orage
Enum Meta
C ode
Ġs ix
Insensitive EnumMeta
' ),<
2 7
re mote
am ara
Ġse e
Ġf ig
ĠCall able
Ġp r
DE FAULT
Ġre ce
Ġin d
qu ire
val u
Ġse nd
ĠD E
={ "
å Ī
Ġp at
ick le
u ch
Ġ attr
Ġsh ow
y mb
" ).
Ġex ception
"] ,
he et
l ast
ow er
Ġ err
f n
Ġtest ing
T h
v id
} ,
pre c
tro l
Ġs ame
Ġt uple
and ard
Ġof f
c ase
or n
la gs
tro ll
ï¼ Į
Ġch ar
DI R
Ġs imple
St ream
ut put
ac y
f older
V al
Ġp ort
Ġpo int
ex ists
Ġt able
Ġb lock
A dd
T H
ĠA uth
add ress
ĠG enerated
ition al
fer ent
re l
################################ ################################
Ġ' '
R aise
> }<
lo gging
u ite
Ġc ase
str ip
h andler
l ight
bo ard
ri de
a mpl
con nection
Ġp age
Call back
ĠĠĠĠĠĠĠĠĠĠĠĠĠĠĠĠ ĠĠĠĠĠĠĠĠĠĠĠĠĠĠĠĠ
riv ate
li ke
Ġs um
Ġor ig
D ATA
AS S
t w
A G
b le
Ġh ash
g en
y m
lo ud
Ġpath lib
Ġm y
Ġcon vert
un used
y per
---- <
Ġsc ript
Ġpre fix
LO G
Implement ed
u da
ur i
num ber
D B
b ut
T EST
Ġign ore
Ġn on
ĠP l
me an
pl t
user name
H el
P P
g o
f ter
Ġconfig uration
Ġz er
: :<
Ġh ost
) ))<
Ġby tes
ĠUR L
V alue
ä »
de bug
3 6
set s
Ġst ep
Ġdepend encies
Ġl ambda
Ġf ull
"] ,<
Ġcon nection
oo gle
2 00
Ġtyp es
2 6
Ġt itle
Ġw ord
date time
Ġlo c
Ġf ree
Ġcon st
opt im
l ing
wit ch
E L
Ġ ):<
C ommand
æķ °
Ġc ustom
C heck
ĠM odel
expect ations
d ump
g ument
module s
ĠStr ing
Ġc upy
th read
n der
v is
w er
Ġp lot
Ġ3 2
work sheet
Ġ" .
Ġco unt
Ġf rame
ge x
lo y
down load
Ġcom mon
Ġcon ans
cl asses
G roup
Ġlen gth
Ġi dent
Ġs ocket
ĠV ERSION
es c
Re g
4 4
ĠW AR
Ġ> =
h as
p ing
process ing
ta g
r t
ent ities
po ch
af e
Ġin s
le ft
re al
tr ib
ĠD jango
us h
c md
Ġp ubli
Q U
doc ument
l iter
Q u
Ġurl lib
Ġtemp file
Con text
Case InsensitiveEnumMeta
o se
ordin ator
Ġ ed
st yle
Ġstat us
ent ication
Ġ util
A Y
h ash
n one
__ ()<
h andle
Ġf a
il ter
w in
she d
ut ion
#### ##
' :<
Ġx p
b a
re pr
res ources
ug h
Ġerror s
( ?
A M
3 7
Ġ html
Ġstr uct
m ath
word s
2 9
FI LE
ri ver
Ġtw o
Ġthread ing
l ong
Pro tocol
ĠN ote
Ġpl ugin
cs v
Ġsh util
met adata
ĠF ile
ĠN ame
I mage
me di
v ed
Ġan s
It em
Implemented Error
ĠDe f
oc ument
ĠT O
iv y
x ml
OR D
ment al
) [
C C
gorith m
field s
Ġre present
Ġ" __
Res ource
result s
w ise
ST R
upt ools
Ġs ystem
Ġcall back
or ed
R ES
Ġax is
Ġli ke
Ġt mp
sc ale
ateg or
a de
al le
Y ou
ma il
serial ization
d s
p c
Ġd b
ĠS p
license s
C R
s rc
Ġre t
Raise s
L ine
Ġmod ify
z ip
de scription
'' '<
d omain
en coding
Ġac cess
Ġh andle
Ġ2 0
li mit
d irectory
ver se
ĠEx ception
inst all
u ce
Ġ å
[: ,
n ormal
h er
o int
ĠA R
Ġ --------
ĠĠĠĠĠĠĠĠ ĠĠĠĠĠĠĠĠĠĠĠĠĠĠĠ
ĠI D
Ġname s
Ġal so
Ġmethod s
Ġse nt
8 8
` .<
HT TP
Ġcomp at
Ġco mple
Ġm ulti
Ġf ast
d if
vi ded
open api
con v
Token Credential
e mpty
Ser ver
a a
Ġms rest
Ġb et
fa ctory
ĠW e
la i
ro ss
abs path
c n
comp ile
Ġto ol
__ (<
Ġw rit
US ER
a it
ĠAN Y
Ġ ),<
cond s
cre t
ĠN o
Ġs ql
i od
Ġfor m
ĠConfig Entry
Ġre f
" {
T I
W S
3 0
E CT
pro xy
( **
s ql
[ -
Ġ Z
ial ize
act ive
> )
e ded
stract method
Pl ugin
liter als
re move
assert True
assert Raises
Ġuse ful
b b
ĠT h
Ġc ore
uil tin
Ġn ext
Ġdif ferent
Ġopt im
Trans form
er ge
Ġse s
Ġgener ate
H ttp
I s
con trib
G ER
M S
Ġw idth
mat rix
EN D
t ree
Ġiter tools
. "<
Ġ'' '<
Ġses sion
r id
ĠC heck
2 2
Ġ &
class method
__ <
ari ant
lat ive
/ <
read y
gra d
Ġa fter
ure d
Ġattribut es
S ON
6 6
lo op
Ġst d
ran k
g ment
th ing
Ġlo ss
Ġme t
path s
U RE
ma ster
ch art
d m
Ġh and
7 5
O L
C A
Ġex ist
we en
Ar ray
Fa ctory
import s
Ġav ailable
] ]
n on
f ail
ĠR un
de pend
in sert
Ġo perations
lay ers
V alueError
label s
Ġs l
Ġ' .
ke ep
ĠEx cel
em ail
ay out
Ġfield s
A c
f irst
mission s
Ġ1 2
Ġargument s
3 5
f d
loc ation
ĠNot ImplementedError
Ġth en
Ġimplement ation
Con nection
idd le
ud io
at er
Ġm ask
ol ution
ttribut e
Ġpubli shed
Cl ause
Ġdocument ation
ĠV ersion
æ ľ
ed Dict
F low
ymb ol
se e
m igrations
sp hinx
et ch
en ch
lay out
s g
ac cess
Ġinte gr
Ġf airseq
mp t
le ss
= ["
Ġparam s
R ANT
l p
Ġme m
c uda
ĠT ext
Ġd ir
Ġpro vided
man agement
attribut e
m ary
Ġch ange
inter n
ĠĠĠĠĠĠĠĠ Ġ
a ut
n ext
st op
Ġb ot
M essage
S p
Ġ entity
ĠAn d
Ġobject s
Ġcon nect
Ġe ven
V ersion
S heet
ĠT rans
pos it
lay er
Q t
} "<
T ION
s v
################################################################ ########
ition s
Ġt a
ĠWork book
m ulti
dataset s
ter s
Ġcode cs
ĠWAR RANT
({ '
s m
IT HO
ITHO UT
Ġs kip
ag ic
Ġpass word
Lo g
ix ed
Ġcol umn
Ġbase d
7 7
pt h
point s
ss ible
start s
Stat us
an ces
En v
AB LE
L e
h ome
Ġbe fore
add r
z one
ĉ ĉ
Ġ ge
co very
ĠA T
Ġpro vide
AT TR
ĠEx ample
Ġ level
istribut ion
" }<
b ool
' ])<
Ġp add
V AL
Ġimp lied
c d
w d
Ġg it
ab ility
posit ory
p df
e e
he ll
p ayload
Ġl ast
g b
k it
Ġt ri
Ġde tect
low er
A zure
tr ue
em bed
ateg ory
g ress
hel lo
ĠF oundation
Ġcon tin
de lete
idd en
g re
ĠL o
Ġcontain s
T E
re ak
Ġp ip
Ġp redict
Ġd vc
ul ate
ĠO rder
Ġreg ister
M ake
ç Ķ
ser ve
f eatures
Q L
.. /
S U
ĠCo mp
Ġpro gram
istribut e
P RO
S ource
c ent
ĠT ime
Ġl anguage
S pec
t x
Ġm o
~~ ~~
\ .
arg v
D F
3 9
con vert
Ġwh ere
a ded
Ġag ain
S ub
f it
le x
ĠI nt
Ġse arch
p redict
F unction
es sion
ex pected
ĠM A
} ")<
ta x
In ter
Ġtime delta
Ġs ingle
ĠY ou
ĠM at
> ):<
ta gs
Comp arison
r ation
Ġ environment
oc ab
En coder
s pe
Ġ1 6
Ġkey s
stat s
o h
ac count
ra py
Ġs m
ith er
M igration
3 8
i ent
sens or
le s
Ġ< =
( ["
Ġh ow
pro file
Ġp arent
ĠE n
({ "
ar ange
Ġpar lai
b ers
f c
ch ild
pro duct
uff ix
attribut es
s leep
SE T
starts with
se lect
ra di
im um
ap plication
t il
Ġw ant
B U
o pe
en um
ĠAp ache
valid ation
bu f
hel per
Ġ raw
me trics
we ight
Ġch annel
ren der
Ġpar ameter
u ally
A pi
c r
b uffer
yn am
5 4
s n
intern al
ub er
Comparison Test
py plot
Par ameter
Ġde l
ĠAT TR
Ġfollow ing
re po
P er
Ġ $
For mat
Ġ\ <
re lease
ol ve
ĠM y
Ġv iew
po ol
alle l
iv es
V ar
Ġc alled
Ġcl asses
ĠDef ault
c ast
Ġm m
event s
ĠB okeh
Ġk ernel
] ))<
å ħ
: ',
b it
Ġh andler
ub le
package s
re cord
che ma
trans l
' ),
Ġd omain
ĠN OT
Ġrece ived
uc ket
load er
Lo ader
is s
ĠT e
gr id
Ġred istribute
Pro cess
A SE
e lement
p g
ĠM e
ĠHttp Request
} }
Ġf oo
ach ine
ĠData Frame
ver age
ĠM igration
der r
ĠE vent
cur s
cal led
Ġv ar
serial izer
con tainer
S O
CONF IG
Ġ es
Ext ractor
Ġre l
q dm
ri or
ide o
7 6
al c
Ġgre at
V E
Ġn ormal
log in
e ar
n a
p b
() ,<
N OT
Python Package
s im
ic ally
to m
Ġget attr
r ule
u ous
time out
ĠU se
Ġf ail
IN E
H E
ar m
In put
group ed
static method
Ġ"" <
F O
r ate
Ġvalid ate
se ed
P R
p u
Ġmodule s
Ġintegr ation
so me
nd array
net es
uber netes
S h
Ġreturn s
back end
Ap p
7 9
so lid
Ġ202 0
Ġg lob
Ġd ownload
Ġm ark
pro tocol
.. .
__( **
Ġcon f
iv ar
**** ****
en der
n orm
Ġl ines
ĠTest s
Ġs ave
pro to
4 8
è ¯
Ġcomp onents
Ġse lect
5 9
ist ory
Ġspec ific
in valid
Ġtrain ing
Ġbet ween
F ilter
ĠA l
av ailable
off set
Ġm on
S H
frame work
###### #<
W arning
p es
Ġde v
Ġdis play
V ER
Ġd irect
ench mark
æ ĺ
Ġre nder
Ġcontext lib
Ġmet adata
ĠM ulti
Ġc ert
Ġ------------------------------------------------------------------------ -<
è ¿
å Ĳ
Ġin clude
ĠIter able
C L
f r
ĠE xt
M ER
i er
std out
Ġth an
W idget
mem ory
D is
Ġn etwork
mo st
Ġcontin ue
o ption
ĠC lient
ĠW ITHOUT
image s
' })<
Z E
m ar
p loy
Ġen code
Ġmat rix
ens ure
d ot
or ig
Ġo ption
ĠHT ML
a pt
s ort
po se
Ġp op
Ġb l
un grouped
Ġthe se
av ed
' ],
A sync
-- -<
l u
ä ½
con troll
sche d
en gine
on es
W ith
Ġb ox
Ġse ns
B ack
c b
ĠTO DO
Ġfor ward
s ig
MO DE
le g
ã Ģ
col umns
p red
all en
ĠĠĠĠĠĠĠĠĠĠĠĠĠĠĠĠ ĠĠĠĠĠĠĠĠĠĠĠ
Ġg lobal
Ġhe ight
Ġ-------- --<
ĠF OR
Ġz ip
iddle ware
> `
un a
UT H
Ġre st
Ġstats models
Ġ1 5
ir t
Ġid x
Ġlabel s
is h
um ber
zer os
er ate
ace back
4 2
s k
me tric
sign al
G I
str uction
a i
iz ers
re port
Ġp ayload
Ġd t
Ġname d
comp onent
sub scription
re c
n an
user s
ĠDE FAULT
Ġl ink
Ġt rue
co gn
N et
Ġinit ial
D esc
d uc
Ġe mpty
Ġv is
ä º
Ġrun ning
serv ices
ran ch
Ġl ong
channel s
W ORD
or es
d ay
Ġimport s
tr ial
Ġt ag
Ġfig ure
N ESS
ĠPar ameters
Ġr ight
"] ["
ĠOpen API
G B
N o
T ree
ul er
Ġe ither
OR S
ci pe
z y
ob s
4 9
Ġs orted
g ent
Ġg o
net work
Ġ },<
Ġre move
æ ĸ
ĠĠĠĠĠĠĠĠ ĠĠ
In it
ĠAp p
B y
Ġc lean
as set
ra g
Ġtime out
Ġ201 2
ĠRes ource
ab stractmethod
D ummy
re mental
ĠP er
Ġde c
N O
oh n
s ide
ip pe
Def inition
e f
lo or
if t
is sing
allen ge
S c
C reate
f eature
irt ual
/ "<
Ġp ickle
valid ate
Ġext ensions
op s
Ġs im
L ICENSE
ex ecut
Ġun ique
Ġsche ma
ul ation
ud y
t ents
st ates
Ġbe en
5 8
s uccess
Ġspec ified
Ġend point
o id
s imple
Ġs plit
ĠC reate
HO ST
b ind
ut er
Ġre cord
to kens
v as
te ch
Ġb ar
O utput
v es
w indow
ate way
he d
ĠQ t
O UT
ro ugh
Ġadd ress
task s
Ġ ~
Ġdef ined
4 01
ter min
Ch ar
f u
const ants
Ġsk learn
l r
m un
g ot
tr ie
Ġv ariables
c ed
Ġthe m
ĠR E
lic k
F ound
Ġres p
yn tax
T ask
ĠT ensor
ĠP ART
ĠG et
IL ITY
A s
Ġ' =
PO SE
est im
T ER
Ġf in
node s
time stamp
bo und
Val id
Ġc ap
Ġn ow
Ġl ayer
Ġ201 7
W ork
d one
al low
an y
ĠHttp Response
Ġorig inal
Ġp ost
w rit
tribut ors
agic Mock
li m
MP L
######################################################################## #######<
P Y
che my
all close
ial og
ĠTo ken
Ġth ere
TI ME
in v
he ther
Ġre lease
Ġ" _
Ġsupport ed
Ġ" --
ue ue
Ġsc ale
sour ces
ampl er
d ig
f lags
ĠIn valid
Ġagain st
g enerated
L ayer
ĠM odule
Ġm ap
k er
ĠC ommand
py torch
AB ILITY
T able
arch ive
row s
Ġlo ok
{} ".
Type Error
ĠCol umn
] ]<
t ra
ac ket
Ġk ivy
hel p
Ġpath s
Ġ header
le ments
un ique
Ġb ody
ce ll
Ġr df
Ġo ptional
ian cho
è ®
mp ro
DE V
UL AR
St orage
ateg y
ĠAnd res
m ac
ĠR iancho
Ġre port
Re ader
Ġ et
il y
Ar gument
d jango
Ġm ultiple
Ġb inary
ĠA s
cp an
FOR M
t z
sha red
d c
Ġh igh
Hel lo
ĠWARRANT Y
C P
prec ated
> ================
Ġt otal
4 5
G R
j s
Ġcon d
Ġc fg
Ġc md
Ġh ope
Ġ keep
Ġext ra
e val
t yp
UR POSE
dis able
sco pes
M ode
p olicy
Ġ .<
M ap
c lean
o le
å ¤
Ġb reak
ĠF IT
Ser ializer
Ġitem s
GE T
Se e
Ġem ail
ĠS ub
par ameters
az y
Ġpro tocol
Ġap plication
H andle
ure s
oo lean
S chema
an not
ĠD is
ĠRe quest
Ġcontain er
L oc
de cor
Ġw arr
Ġst yle
ill a
mpl ates
Up date
Ġwarr ant
P RE
h ub
Ġp k
Ġst ore
4 6
8 0
e poch
re quired
Data Frame
Ser ies
ĠPART IC
> ..
url s
c ard
Ġwarrant y
CH ANT
bo se
un e
ĠP URPOSE
! $
Ġc lose
as sed
e ch
am er
sc ore
p ip
ĠFIT NESS
CHANT ABILITY
In valid
Ġne eded
k ernel
al ys
Ġu uid
k nown
ç »
bin ary
act er
ĠPARTIC ULAR
b asic
ar ge
De vice
t ty
CO L
ĠOrder edDict
ex amples
tain s
Ġta gs
æ į
Ġre ason
ĠI N
co unter
] +
per im
act iv
U M
UR CE
ĠString IO
b c
im er
__ ":<
j a
Ġle ft
alys is
P ORT
est ed
O S
Ġs pe
: $
ĠSe quence
ib ility
Ġli mit
. *
U E
ĠD ocument
Ġdict ionary
LOG GER
çĶ ¨
g t
se ction
Ġal pha
ĠJ ohn
fa ctor
Ġenum erate
Ġe lement
Ġ202 1
Ġpat tern
G NU
e ffect
he ight
Ġpo ssible
f ull
s up
dis play
cp u
A d
in ce
Ġo ld
De coder
d ated
Ġf eature
Ġac count
o ot
ch unk
ol ver
I nc
data base
Ġt qdm
Ġde code
IT E
D ep
f ill
ĠSer ies
e book
å Ľ
/ {
n b
ĠM c
= <
Ġf ix
O n
m ut
se c
C S
L ong
u uid
process or
Ġc ast
cl ick
ĠAR M
Ġdefault dict
velo p
ĠC ON
Ġob tain
"] .
Ġimage s
trans port
a int
w idget
Ġj ust
ci i
pk g
rl lib
Ġme an
i mp
z en
9 8
Ġoper ator
Ġd on
cond ition
Ġy aml
A ction
Ġinst ead
en coder
MA X
Ġsign al
ERV ICE
Ġf inal
el y
æ Ī
Ġf eatures
ul ated
Ġch unk
Ġevent s
B O
c y
ro ute
Ġre lative
ut es
Ġlo op
ign ment
gener ate
Ġaut om
i pe
m k
tr ack
end point
an file
ast er
4 0
Ġ" \
__ ,
fer ences
Ġact ual
b eta
re set
ex ecute
ĠQ u
Ġcor rect
s amples
in f
B ox
m cn
Ġcol umns
Ġab c
mcn amara
a ex
t otal
ra d
uil t
con sole
Ġa w
ag ing
t ick
Ġs rc
Ġto kens
3 1
Ġinter face
Ġs aved
O K
id ual
Ġex c
Ġab out
AL L
Ġw ait
ant ic
MER CHANTABILITY
C ore
parser s
Ġins pect
al ong
ex c
b s
Ġoff set
ynam ic
C RE
n ess
ĠB y
ĠAuth or
function al
Ġthe y
ang le
ĠMc N
b stract
ar ies
to o
SI ZE
Ġst orage
Auth or
ĠMcN amara
g round
Ġ" -
Ġ5 1
ex pr
S upport
TR A
ĠST ATE
Ġ[ (
ĠD o
p olicies
Ġj mcnamara
config ure
_ {
t t
} )
d ings
g u
st age
I M
d rop
D S
assert Is
ct x
co ok
Ġsc rapy
work book
s a
ax es
f p
Ġr ule
C om
P UT
Ġp olicies
ĠD ep
h ow
Ġhas attr
me ta
Ġas s
ign ore
_ (
Lo gging
Ġcomp onent
mis sing
N S
ock er
T uple
ble m
P ool
G raph
c ause
ed ia
Ġpart ial
W rap
Ġdata base
9 6
L ib
e ed
Ġin clu
pro perties
Qu ery
A P
s q
me d
Ġre place
Ġst ack
Ġe very
ak es
Ġ queue
Ġp h
load s
N etwork
T rain
__ .
Ġback end
g lobal
S uite
Ġname space
ap ache
K EN
d types
comp arison
var type
og raph
b uilder
ig ger
Ġv ariable
([ [
zer o
ac l
argument s
("/ ")<
row ser
token izer
ĠT w
da pt
Ġprovide s
ro zen
request s
ca pe
Ġuser s
F oundation
u int
Ġ" %
d it
I R
Ġc alc
Ġf n
ĠA c
per ation
Ġde ep
run ner
A ut
---------------- --------
Ġo w
Ġreturn ed
tw o
H e
set default
02 4
B atch
ost on
sco pe
il ar
Ġme tric
sub plot
ManagementClient Configuration
P U
Me thod
5 7
Transform er
i ed
ĠF rank
Ġmem ory
Ġar ch
21 10
S ize
ER R
at al
if th
r st
co ver
an el
la zy
iron ment
dif f
ĠD ate
col lection
io http
Dummy Object
un ch
â ĸ
amer a
in ja
Ġtr ack
ĠU SA
Ġcre ation
13 01
Th read
at ter
sc al
ss l
Ġsp hinx
Ġ' -
ĠM essage
ific ate
d river
ĠF loor
ĠF ifth
Ġst op
ver ter
ter m
() )
the me
Ġ0 2110
ĠFrank lin
ĠB oston
Ġ-------------------------------- ----<
ent ic
Ġem bed
resh old
U P
re quires
Ġse quence
Ġans ible
" }
\ <
b az
EX T
Ġ //
An y
t od
Ġs n
ind ices
Ġb ound
Ġ' <
aw s
> '''<
de tect
fig ure
ĠW eb
Ġtext wrap
group s
mis c
ACK AGE
A C
Re ad
b rain
p are
è ¡
Ġre q
dump s
Ġs ure
def ined
> -
al pha
Ġj oin
j it
Ġal ready
c ss
Gener ator
al ert
E P
Ġd ire
ac ade
res hape
ĠEx pr
view s
ĠSer vice
Ġ2 55
ĠType Error
Ġ# <
ke yp
Ġg en
Ġper form
in clude
b f
Ġpy pi
Str uct
de c
ĠA B
Ġc tx
'] .
de ploy
as cii
c upy
Ġtensor flow
h and
project s
ĠSp hinx
Ġth rough
Ġbe cause
d t
Ġ ensure
iz es
Ġwe ight
4 7
ĠC ustom
s afe
z illa
Ġ æ
sh ort
serial ize
ategor ical
Def ault
medi a
code cs
res pon
Ġch ild
f ake
ag ent
Ġwrap per
S ystem
ĠJ SON
ãĢ Ĥ
line ar
V ENT
Me tric
c ert
} .
Ġstr ings
e try
ex port
:` ~
6 8
ĠI S
patch er
File s
Ġrow s
d iv
l anguage
ĠIn dex
Ġwrit ing
Ġco ver
ĠMat rix
se conds
Ġb uiltin
ix el
ĠM an
ĠV al
re en
Ġpoint s
ĠIn ter
LO W
Auth entication
ff ic
Ġuse s
Ġzer ver
s ite
Ġ ur
B ASE
O ptions
ĠA ns
Not Found
9 0
Ġre al
ä¸ Ģ
Ġp assed
ath er
Ġar r
p rivate
ttribute Error
D ate
Ġv ariant
sing le
ĠC O
ra int
f ont
en ded
Ġ' /
time Error
SS L
ĠN ode
ĠF ast
tmp dir
un it
oo st
app s
Ġdoes n
å Ń
Ġ201 9
S CHE
a e
vid ers
M em
age d
æį ®
or ator
Ġmessage s
RO OT
Ġf ont
w arn
par ameter
" \
) ])<
Ġe valu
g ments
Ġre mo
ur ing
pe at
Ġ5 0
sum er
Ġset uptools
ĠW h
ĠIn put
EN S
Ġext ension
Ġi p
ext ra
ĠRe g
perim ent
Ġcontain ing
En gine
M y
l ers
an o
ext ensions
Ex cel
sh ot
Ġext ract
D et
v ol
Ġ201 8
12 3
ä¸ ª
S C
Code c
I F
p ad
ad min
Ġal gorithm
Ġf ill
Ġc types
Ġw indow
cl uster
s i
(' /
Re f
Ġcon s
ach er
FI X
f mt
Ġw ay
âĸ Ī
D IT
R Package
ĠL ine
w arning
id ent
Ġ3 0
integ ration
I ES
c ap
in a
Ġex ists
Ġ" {
base d
Ġnum bers
S ession
ĠĠĠĠĠĠĠĠ ĠĠĠĠĠ
Ġv ideo
message s
B uild
O r
se cret
co pe
Ġ' --
ast ype
k b
Ġp ool
Ġp ipeline
pt im
Ġuser name
Ġsens or
R ed
---- ---<
ac on
Ġg over
Con v
i ag
Ġ series
st derr
ue print
for ward
Ġex ecut
Ġpro b
N ING
Ġex ecute
Ġ_ ,
Pro perty
Ġrun ner
inter net
Ġopt una
D ES
c f
å ĩ
pl an
Ġj ob
C LI
å ®
a py
IN FO
St ore
col ors
T ypes
Back end
N N
P ASS
Ġre ference
Ġw idget
Ġ[ [
pro vider
LE D
T r
Ġnode s
i ke
al chemy
Ġp print
ur al
Con tainer
vide o
it al
ĠSt ream
p andas
Ġdataset s
) ),
Ġ1 1
par k
f aces
ĠD ec
O pen
input s
Ġ1 000
ĠE X
Con st
action s
p d
train ed
he x
ĠF orm
sc ipy
k a
x lsx
Ġst andard
rand n
et adata
f in
g l
IG N
Col or
acl asses
ĠC om
ĠL og
Ġsh ort
c loud
al ity
the docs
Ġs hell
ot ools
w orld
en abled
pro p
34 56
change d
Ġp ol
re t
Ġs ig
ist ics
Ġse cond
she ll
yn ch
name space
im it
Ġde st
Ġsk time
] ):<
Ġf actor
Ġthe ir
Ġ' ''
qu are
H ub
r b
Ġm ost
Ġk ind
Ġman ager
d ash
set uptools
Ġover ride
Ġf p
ĠP IL
CR IP
Ġc rypt
ex cel
C re
F orm
Int eg
I E
at io
p ress
sc ar
6 0
n ed
or ary
Ġm erge
ĠAp plication
VAL ID
I ter
D A
I f
i um
r f
Ġre mote
Ġs ort
serv ation
Ġ' __
ĠTest Case
Ġloc ation
D o
ĠL O
ter ns
typ ing
d raw
Ġcon v
vi ous
b ucket
di ag
Ġo ur
Wrap per
ext end
ON E
Ġge vent
ed ge
ĠM o
AN D
ĠRes ponse
9 5
A gent
al ice
ograph y
ut or
Ġb in
way s
= -
s ymbol
Ġs uch
Ġinst alled
Ġfl ask
ap ply
com mit
Lo ss
s age
un icode
Ġcon sole
Ġact iv
pat tern
) ),<
Ġ.. .<
over ride
Ġcl uster
Ġhash lib
E nd
ro id
ĠM agicMock
pos ition
Ġb oth
str ict
er ic
Ġt ra
ist ic
read er
Ġimport lib
Run ner
g an
Ġc lick
ĠM apping
Ġst age
ug ment
ynch ron
Ġde cor
mpro xy
Ġ Error
Ġin valid
ION S
Format ter
Pro vider
ĠPl ugin
BU G
N orm
Ġb asic
(" \
Fa iled
Ġed it
Inc remental
E lement
Ġap ply
L P
tes IO
B lock
Ġw hether
ĠM O
em on
Se arch
Ġtr aceback
W N
Z URE
ro ad
Ġv ia
ctor ies
æķ° æį®
Ġun it
Ġformat ted
top ic
ĠTw isted
Ġn orm
Ġv aex
command s
ex ist
Ent ities
T Y
en o
lib s
C ache
Ġ" ,
af ter
Line ar
ĠL ab
ĠM eta
z z
Ġ head
ĠL oc
Ġ202 2
> ##
S ign
v ari
ext ension
ĠG raph
ĠO b
utor ial
> *
M sg
b n
Ġc el
Ġreg istry
ä¸ Ń
ĠO utput
lat ten
S ensor
gn u
Ġper missions
b ad
l ang
Ġ' '<
comp iler
step s
Ġp ad
Ġper mission
in c
f ast
f req
w indows
R ule
child ren
i form
Ġ ],<
oo p
tent ion
al most
Ġd ash
Ġ. ._
e q
Ġdoc s
comp ute
fer red
t k
ms rest
Le vel
Ġpadd ing
ĠS imple
(? :
Ġs am
Ġautom at
Ġinput s
Entities Callback
ĠS ource
work er
ĠAdd EntitiesCallback
L L
W eb
t ion
æ ł
de t
sign ed
orn ia
s parse
ĠP re
ome try
Ġad ded
M ulti
R A
S P
Ġre quire
lo gs
ve c
d u
at t
Ġc ell
f etch
å º
cli p
v ocab
Ġsha red
Ġ200 6
' ],<
F eature
L abel
l ab
ro ll
Ġign ored
1 01
inter face
rag ma
` ,
Ġre sources
Ġdirect ly
æĺ ¯
+ +
an ic
SCHE MA
ĠĠĠĠĠĠĠĠĠĠĠĠĠĠĠĠ ĠĠ
RE AD
q t
th is
comple te
c enter
v ing
for ce
init ial
a us
al g
Ġf older
key word
.. ..
`` .<
exp ression
Ġpos ition
Aut otools
4 3
D own
HE AD
io us
d ummy
de sc
s in
ha in
ĠR ed
Ġle g
1 000
W AR
w riter
man y
g pu
Ġ Ð
en u
li ve
Ġstat ic
Ġauth or
Ġstd out
Autotools Package
co ut
Con tent
8 9
u f
se lector
Config Entry
AB C
d ates
s Operations
ap er
g oogle
par ts
attr s
ad o
oc i
Ġinte ger
Ġzer o
Ġb uffer
ĠSer ializer
Ġgr id
aly t
Ġtool s
F rom
U B
S im
n ull
Ġm it
Ġcall s
Ġdist utils
s lot
Ġpro mpt
Ġis s
ase s
Ġx ml
Ġurl parse
call s
ENT ITY
5 3
E M
Ġin cre
de st
ir cle
Ġlo ck
cre te
" })<
Col umn
Ġrel ated
Ġde bug
enum s
aint ain
' ).
M IN
ĠTrans form
Ġpk g
ĠAns ible
Ġan other
gg reg
Logging Policy
Ġcert bot
function s
f b
r df
Ġn et
dat aclass
A UTH
Ġp olicy
ex ec
ĠĠĠĠĠĠĠĠ ĠĠĠĠ
pro viders
assert False
Ġf d
6 7
in ux
ap shot
Ex ecution
check point
Te mplate
ategor ies
ERR OR
S QL
U til
] ])<
h ip
ut c
ĠC redential
Ġex it
/ .
Ġis ort
Ex ample
LS X
in ner
Ġre verse
Ġh ypothesis
ĠPl atform
d agster
Ġ })<
iv idual
([ '
eg ative
name d
ĠĠĠĠĠĠĠĠ ĠĠĠĠĠĠ
Ġde lete
dim s
part ition
A x
â Ģ
re ce
ĠH ypothesis
Client Configuration
controll ers
se n
re gex
Comp are
ĠIter ator
rior ity
n l
Ġoutput s
Ġcredential s
se mb
ge d
am s
Ġex amples
Re quired
ĠCon an
Ġdat aclasses
: %
D R
ra m
Ġpy learn
Ġ' %
pr ice
part ial
on ce
Ġbe ing
B uilder
Ġd s
202 1
å Ĭ
ĠF unction
Ġpro perties
Http LoggingPolicy
ĠARM HttpLoggingPolicy
ch ain
Ġver bose
Ġmit mproxy
Ġb lob
reg ion
Ġus age
DEV ICE
ĠAr gument
ik i
writ ten
Ġ 64
Ġme trics
ĠExcel ComparisonTest
Ġpackage s
sched ule
S ER
æ Ĺ
ĠN O
Ġg ot
inter val
f ree
s witch
ext ract
C ustom
j pg
r type
ĠF ield
pl ate
Ġword s
Ġre pr
g ui
n ost
up lic
ttribut es
TO KEN
ĠKey Error
d istributed
f ft
h i
Ġin v
Ġd raw
Ġpro duct
p air
s w
Ġc ook
(' .
In stance
Ġdocument s
upt uous
velop ment
Ġ[ -
Ġap plic
Ġk ornia
ĠVal id
it es
Ġs uffix
ĠU p
ĠRe f
L M
Ġde precated
ĠMock ConfigEntry
p ower
Ġm x
Ġvol uptuous
ĠFast API
c rypt
str ings
alyt ics
yp h
Ġtarget s
Ġtask s
Ġdeep copy
PASS WORD
! <
m m
m ul
å ľ
ĠCon tainer
F L
r u
Ġsp ace
Ġpop ulated
MODE L
p net
lo aded
read only
or b
se quence
and id
Ġcopy ing
Ġneed s
col s
upport ed
9 7
j ust
im ation
Ex pr
dist ance
Ġcomple te
A uto
w arnings
ver s
CO M
f h
ĠF l
ri ption
ĠDe serializer
Ġserial izer
but ton
Ġpadd le
ut ton
ĠL e
ĠL ib
Ġen coder
Ġper iod
I ST
P r
A t
S V
Ġs ide
Ġm issing
sub process
u gg
sc an
Ġoper ation
O FF
] ),
w s
ar row
Ġse par
dir s
Ġmulti processing
N ECT
c ar
ĠO n
Ġp air
Ġn ull
Te acher
F T
Ġcomp ute
comple x
at s
ĠIn fo
cle ar
Protocol Entity
å ¯
ĠIn st
Ġed ge
S o
Ġc ho
Ġe ffect
ipeline Client
I VE
(" .
per ator
lat est
Add ress
duc er
- %
B L
get item
assert In
cur acy
Ġcor respon
mun ication
Ġd rop
pro b
a ff
X LSX
Ġf req
ĠS c
Ap plication
by te
Ġpro xy
ĠTest Compare
Excel ComparisonTest
XLSX Files
ĠTestCompare XLSXFiles
ME T
exp and
Ġnamed tuple
Ġt yper
ance l
ĠM ake
if act
ĠĠĠĠĠĠĠĠĠĠĠĠĠĠĠĠ Ġ
Ġex port
PO INT
u ctor
v ector
Ġthe me
lin alg
ĠLab orator
ro py
co ordinator
Ġl at
DE BUG
NU M
ĠEn v
r gb
lib rary
Ġhel per
Ġconst ants
b box
---- --<
Ġaw x
ĠA d
Ġstr ide
ĠType Var
T F
Ġ -------<
Ġc le
Ġm aintain
ST AT
transl ation
Ġow n
8 5
M ENT
ã ģ
Ġre po
Ġset ting
201 7
ĠF inal
25 5
Ac cess
? <
ic le
Ġ4 2
output s
Return s
Ġes pnet
NOT E
R andom
ro uter
train ing
h igh
k ind
se lection
ĠData set
ĠLaborator ies
F loat
j or
é Ģ
Ġwork s
Init ialize
C an
c wd
Ġf s
Ġcheck point
Ġman y
cout Suite
h istory
s uffix
t ill
Ġ estim
he el
L AT
Ġc sv
Ġs amples
ation Error
D ec
L ock
a red
å į
Ġd ask
ĠC lass
in ation
re quire
Ġ' _
ĠO S
Ġautomat ically
C Make
ä ¹
Ġp red
Ġexception s
m ult
Ġb ranch
Ġ[ ("
V A
e valu
av a
ale t
Ġ' \
end or
unk nown
J SON
l ap
is ode
ord s
Ġgener ator
plic it
L ayout
re qu
Ġd ig
I Z
Ġw in
ro t
Ġme di
ĠTest Client
Ġpre sent
4 1
ut down
Ġw orld
Ġe as
ĠW indows
({ <
local host
iss ues
7 0
= ""
g on
} /
AR Y
ĠRe served
[ [
å °
Ġs ince
Ġsub ject
è¡ Į
Q A
Ġm ult
li as
Ġe lements
support ed
Ġdat aclass
b uiltin
Ġdef inition
ĠI P
Ġex pect
é ĩ
red is
mb ed
) ]
t le
>< /
al th
ĠS coutSuite
init ions
") ]<
Ġax es
6 9
Ġd one
Ch allenge
ro le
A ll
P AR
Ġex ecution
b r
g lob
s or
ac c
4 00
Ġw o
Ex p
troll er
m erge
{ "
Ġf it
12 7
12 8
Ġexp ression
now led
d l
p ublic
co s
ys ql
web hook
d vc
Ġc lip
Ġp ublic
ĠB o
H ead
v ariable
Ġen able
Ġde velopers
Ġse conds
Ġk ubernetes
A F
R ange
p us
cal c
Ġs uccess
() [
Ġv ector
Ġcom ment
LI B
ĠRun timeError
Ġd own
co co
Ġan gr
we ights
ĠĠĠĠĠĠĠĠĠĠĠĠĠĠĠĠ ĠĠĠĠ
Ġallow ed
Ġind ices
S imple
v ariables
LO C
Un ion
W indow
Ġb box
Ġsent ence
M etadata
m ot
ver ify
con trol
=' @
act ers
cp p
lu on
ç Ľ
mp i
Ġp ragma
us age
Ġstream link
d uce
Ġwith in
Ġgraph ene
A nd
Ġd ump
ĠA ttributeError
Ġh ook
ty le
ĠRe ad
Ġcommand s
' \
w ar
Ġb uilt
ĠR ights
E VENT
å Į
al k
Ġ* ,
Ġwork er
k o
ĠI Python
Ġwe ights
MP LE
3456 78
ces ses
en able
es cape
Ġsc apy
Ġpart s
Te mp
O ptional
it u
form s
Ġpl ay
R GB
Ġ el
ias m
re nc
ĠA ss
Ġwork ing
sq rt
P C
Ġf lags
Ġre set
RE QU
ĠToken Credential
Ġversion s
sum mary
her it
8 7
A A
L ink
qu ote
================ ================
xx xx
Ġdec imal
keyp atch
nowled ge
Ġ1 4
ir m
UL L
e a
Ġse ction
Ġreg ion
ĠAB C
D U
Ġg oogle
Ġver ify
ra ction
out er
eg in
< /
> [
F IL
ar Down
(" -
ĠD ummy
ĠI O
Ġfa ctory
a udio
te mplates
ST ART
Ġch anges
sh ap
Ġm k
Ġpro perty
Ġpar sed
mb ers
X X
â ķ
run ning
A CT
ist o
ĠAr ray
str uctor
Ġcon tributors
Ġse ed
Ġcom mit
Ġsl t
f alse
Ġg l
Ġ6 0
filter s
ĠĠĠĠĠĠĠĠĠĠĠĠĠĠĠĠĠĠĠĠĠĠĠĠ ĠĠ
Ġremo ved
âĸĪ âĸĪ
Ġcrypt ography
D ocument
Ġm apping
ĠT EST
get value
0000 0000
P ass
Ġo scar
pi pe
TRA IN
h ot
Ġa iohttp
Ġd uring
Ġby te
can vas
Ġfa iled
ex ecution
Re ference
ari ate
: ]<
P art
P ER
on itor
Ġc li
code s
Ġkey word
CO UN
ref resh
Lib rary
CRIP TION
e cho
g ame
h older
Ġact ive
F oo
ĠR andom
ifi ers
ĠSer ver
Ġthe ano
ul ator
ĠN umber
ref s
nost ics
T orch
s hould
ĠPro tocol
Ġcomp ut
p p
pl us
v endor
Ġp ower
Ġme ta
iv ariate
Ġac cept
an lp
as ure
Ġ" ..
not ebook
`` <
Ġw arning
Ġdef ines
LI ST
aus s
t ol
Ġt z
Ġ# :
Ġex ec
Se quence
iler plate
6 5
to ur
pro x
rule s
8 4
L U
c m
c er
g mail
t v
Ð ¾
Ġt s
transform er
CMake Package
Ġm iasm
Ġline ar
ĠSt ate
ĠAsync TokenCredential
Ġs cope
Ġcan not
TR Y
Ġfast api
( \
] ],
ĠC re
ĠN etwork
if est
sp ider
Ġ ).
am ma
Ġpro file
be fore
optim izer
Ġet c
un try
id entity
qu ential
Ġ{ })<
IN D
Ġwh at
ĠCode c
riter ion
Ġre actor
Ġoptim izer
Ġ ser
LO CK
Inter face
" /
W h
æ ī
ĠS ystem
ĠT rain
run time
Ġsend ing
R ender
s ock
y ml
CON NECT
Ġind ic
Ġcel ery
frame s
Ġter min
" .<
m apping
p ickle
ĠT able
Con trol
In st
Ġopen api
Ġallow s
U rl
ĠP R
Ġbe low
ns upported
Q ueue
STR ING
Ġsql alchemy
Argument Parser
) ?
i mpl
Ġf uture
Ġar t
ĠDec imal
> $
P oint
ĠA pi
par er
Ġadd itional
spec ific
ampl ing
G L
p id
w iki
ind s
Ġwo uld
quest ion
Con nect
Ġspec ify
y an
ĠF low
ä¸ º
gener ic
DI S
fl ag
SO URCE
Ġdire ctories
Ġs sl
orn ado
c ategory
st udy
Ġd ot
Ġ1 024
integ er
r al
de let
ĠS ql
om ial
202 0
wrap per
A ct
d uration
p add
de pth
Ġ1 3
.. .,
LE CT
_ ,
b us
ing er
up per
Ġdis covery
HO ME
ends with
custom ize
Ġf etch
am ily
00 1
O rder
S Y
re lative
Ġl ayout
Ġplugin s
9 2
st rap
Ġsche d
I AL
Ġs witch
======== ====
Ġmat ches
Ð °
Ġc atal
ce ler
Ġcon tents
Ġpy brain
~~~~ ~~~~
b d
Ġs ymbol
Ġlocal stack
ĠLo ad
road cast
U SE
ex ternal
ĠP Y
ant i
Con d
OR E
struct ure
Ġfl ag
Ġgroup s
ay ment
ippe t
= ['
U ID
ir s
PI PE
Ġre pository
pro c
ĠCon v
sp aces
Ġab sl
r ing
s ix
Ġmm cv
Ð µ
Ġcon trol
Ġen abled
O ption
P ES
ĠO r
de ep
de ps
ch a
async io
Co ordinator
sol ver
ï¼ ļ
r ong
Ġ1 28
ir d
Ġ% (
decor ator
I B
ĠB inary
Con vert
wh ere
Ġexist ing
re ference
de mo
ex e
ire ction
execut able
Ġlo w
CC ESS
ĠHttpResponse Error
scal ar
Ġc ow
() ))<
Ġcall able
ĠQ ueue
copy right
as sets
ac ing
ect ors
Ġde sc
ĠĠĠĠĠĠĠĠĠĠĠĠĠĠĠĠĠĠĠĠĠĠĠĠ Ġ
ĠCol or
V ault
Ġab s
acon da
Ġs core
li ance
ign ed
lin space
ĠSt at
cre ated
Ġhand written
con n
Ġg ym
list s
rand int
******** ********
b ias
y gon
Ġ entities
ĠB uild
scri be
que e
W e
ĠDe vice
ecut or
Ġdist ance
Ġfin ally
CLI ENT
B uffer
ĠĠĠĠĠĠĠĠĠĠĠĠĠĠĠĠ ĠĠĠĠĠ
Ġal ways
Ġapp s
Ġpo etry
graph ql
Ġbut ton
åħ ¥
3 00
or iz
se cond
re vision
== =<
__( *
Ġother wise
- >
F ix
Ġd istribution
Ġ2 56
Ġ` ._
CL ASS
M icrosoft
g iven
Ġf ake
ide v
S ec
m il
de coder
set ter
Ġe qual
plot ting
depend ency
se gment
ĠS h
"] :<
ĠName d
ENS OR
/ {}".
t ab
Ġb uilder
Ġrepresent ation
Ġcow idev
N D
c ut
get env
ĠIn it
ĠPy Qt
} .<
Ġdef ine
ĠSe arch
wa gger
Lo ad
ĠK ubernetes
sl ug
ĠOb ject
Ġc y
St art
ĠInt eg
ippe ts
hand lers
an e
Ġb it
tr ace
F ore
I mport
L D
red dit
Name d
Ġc hain
istribut ions
ĠR o
Ġat t
TH ON
quee ze
ir ror
Pl atform
mem ber
curs or
NotFound Error
Execution Engine
5 1
M at
ĠT r
ĠG roup
target s
Ġcase s
fu ck
g pl
i mplement
ĠM od
pro gress
Ġle arning
Async TokenCredential
) ).
Ġp g
------------------------ ----<
M iddleware
USER NAME
com ment
ĠH el
] ).
a io
ĠD ATA
ers on
ag ents
Ġco unter
Ġtime s
Ġtime stamp
Ġvalid ation
dev ices
ĠS E
list ener
iv ely
ĠAn aconda
RO M
L INE
] ["
Ġre trie
um mary
ma g
B e
B ot
ub e
url lib
itu de
h idden
on sh
mon str
Ġlog ic
ific ations
201 8
) "<
V ariable
r pc
v s
in ator
ĠS ERVICE
ri ve
Ġv irtual
ubli sh
controll er
Ġd river
Ġfor ms
Ex port
Ġse q
Ġur h
p ace
r upt
Ġs leep
table s
present ation
A CE
N umber
c ategories
f inal
m er
Ġ" [
Ġd iag
ta ct
ĠImport s
fe ed
Sp ace
Ġpip env
4 04
S ampler
T arget
c make
g res
ab il
con tains
file path
do uble
ĠWh en
Ġf mt
is hed
', '
Ġsupport s
L azy
er ies
Ġ( (
oo se
Ġaut os
Reg istry
apt ure
ç ±
ĠB atch
iv ity
Process or
P ACKAGE
a o
} ".
¨ ¡
Ġa st
set Up
== <
af ka
DE F
play er
I X
N E
b os
Ġn d
mo ves
method s
ĠSim CC
S L
per iod
ĠThe se
ĠOpen M
Ġdif f
r ont
le arning
Ġde monstr
Ġr ate
Ġe poch
fo und
Ġsc an
sp an
uff le
Ġload er
ĠBy tesIO
) (
5 2
W indows
ĠGener ic
Pro file
Ġcomp iler
Ġpre vious
Ġcompat ibility
home assistant
radi us
curs ive
Co unt
Ġ... .
Ġfix ture
/ ")<
g i
Ġ ent
ud it
rc nn
term ine
C ur
i kip
Ġb uf
ĠN um
Ġl arge
per missions
sche me
bl ack
Ġdim ensions
PRO C
GI STR
slot s
A ML
I MA
Ġ mp
ĠA ct
ML ab
auss ian
S K
b ranch
h ypothesis
lo ok
Ġfor ce
PO ST
U sage
Ġpro blem
version s
RE D
Ġman ually
AG S
: \
å Ģ
re ed
mat plotlib
= _
re ason
Re cord
TIME OUT
renc y
P age
æ ŀ
def s
Ġr and
Env ironment
ĠOpenM MLab
. ",<
Ġs ync
con cat
Ġde pth
HT ML
Ġsh own
Col lection
Ġerr no
e k
v ices
Ġc ategory
iver s
orig inal
PRE FIX
5 00
B lob
Ġp e
Ġs afe
ĠI nd
Ġnot e
Ġj upy
Ġ{} ".
åľ ¨
å ¼
ct est
Ġin ternal
ĠS O
Ġco uld
Ġnormal ize
: ')<
_ <
it ools
Ġ---------------------------------------------------------------- ----------------------------<
tool kit
Token izer
Ġtri al
Ġdev ices
ä½ ¿
ĠInfo Extractor
B SD
val s
Ġtrans l
' {
L en
t une
x f
co me
count s
Service Client
T ag
Ġw ell
Ġdefault s
TY PES
å ½
Ġ vert
Ġre gex
Ġpl ace
`` ,
ĠLine ar
ikip edia
B ACK
N ew
h ing
n ist
ad ded
sert ion
ĠCon tributors
bo ot
S ched
\ '
re pository
(' --
TION S
lo s
pro mpt
Ġvar ious
Mem ory
P T
ĠS pec
red irect
Pro ject
Ġcontext manager
Comp ute
Pre parer
COL OR
T EXT
æ Ŀ
end ing
Ġsign ature
Desc ription
r ng
Pro xy
ĠCOPY ING
Ġchar acter
H ook
Ġp ack
ap itools
if f
Ġpro vider
ST ATE
A bstract
B asic
Ġp ut
for med
Ġcon struct
Ġle t
Ġag ent
Ġmaintain ers
Ġ[ ],
ĠO ptions
Ġen gine
const ant
to list
Ġj ina
open apitools
ĠOpen api
radi ent
Ġbox es
C UR
S ERVICE
Ġ serve
ĠA ttributes
ver ters
per ly
res olve
gra de
+ )
7 2
r aries
Ġb ias
Ġl ater
Re ce
ĠG H
Ġe ps
mo id
raw ler
l m
get attr
tr ies
ĠU N
vent ory
Ġtime zone
real m
Ġsm all
A ttribute
M o
o auth
Ġt ake
mo unt
dis patcher
Ġwrit ten
Ġchannel s
B ER
ç ½
è ¾
ãĢĤ <
Ġmedi a
com m
MP ipelineClient
ĠSimType Long
J ECT
s orted
se p
Ġex ternal
with out
Time out
Authentication Policy
' re
> (
H ost
M IT
al ias
Ġf ace
is o
pro tect
host name
l t
Ġn b
Ġcorrespon ding
] ),<
k ed
s queeze
al t
Ġ" #
Ġb orb
Ġres olve
ip her
Ġv ari
LO AD
Ġav oid
Ġinclu ded
ĠAc cess
å¯ ¹
__ ))<
ĠR ES
Challenge AuthenticationPolicy
7 4
} }<
ç º
Ġb ig
OR Y
Ġ201 5
[: -
alet te
COUN T
A PP
] :
er o
ĠB e
Ġte arDown
IL D
ĠAsync AR
aut om
D P
d irect
} :
(" %
Ġex pr
ĠIt em
b egin
m iddleware
Ġ entries
-------------------------------- --------------------------------
Ġ_ <
char map
sql map
imit ives
ynchron ous
ĠBo ilerplate
J ob
ac cept
Ġ[ ])<
Ġinst ances
T ING
St ack
Ġraise d
Ġle ast
Ġread thedocs
wh en
' }<
ac ed
Ġst derr
Ġcatal yst
ä½¿ çĶ¨
de lay
ĠA bstract
ĠD agster
ĠF airseq
ĠSt andard
Widget s
Ġcond ition
B ar
] *
Ġr ich
"] [
iter al
Ġread er
Ġ"" )<
gan ization
M od
R el
s ame
v ariant
{ {
al f
Ġd ay
th reshold
end ency
Ġimplement s
ik er
le m
Ġl b
ay ers
ces sed
Ġfunction ality
Ġred uce
Ġdetect ron
Ġsam cli
] (
mon iker
9 3
I V
k learn
w atch
Ġ= >
ic ip
ed u
iz ing
valid ator
Ġcomp liance
GISTR Y
ĠP ipeline
Data base
Ġmod ified
Ġcore ml
Char Field
( ""
) ."""<
ä ¼
al con
ar s
__ ':<
AT ED
Ġimplement ed
ĠCo unter
/ )<
d ns
f name
n lp
Ñ Ĥ
ĠS QL
ust ers
MA P
h s
m ultiple
Ġs olution
li der
ĠA UTH
ĠP o
Ġ""" \<
01 2
ĠConfig Type
cache d
depend encies
O ptim
Ġw arn
um an
ĠF ake
ha re
uc ce
FF FF
Ġsim ilar
W IT
con tents
ĠB ack
8 3
W E
ho od
ec ast
Ġcomp are
Ġconst ant
Ġl ight
Ġcol ors
fail ure
oriz ont
Ġt akes
im ary
DE D
Loc al
Ġmx net
T ool
un iform
Ġsc al
! ")<
as ource
ĠCon text
pre ter
") ;<
Ġhel pers
Ġqu ote
Ġins ide
M apping
Ġd ummy
ik o
tw isted
rid ge
Ġto o
i ence
par allel
Class ifier
gorith ms
Ġattr s
Ġchar acters
. ')<
o ugh
Ġ uri
os ite
Res ources
Ġhand ling
Ġcoreml tools
A WS
E mbed
U PD
W IN
ise d
cor ded
array s
UN D
Ġauth entication
ort ran
ler t
åı ¯
æľ ī
shap ed
Ġp ipe
Ġex plicit
Ġpar sing
L EN
å Ĩ
Ġw ere
sp am
Par se
sent ence
script or
ĠTransform er
al o
CH AR
Ġwe ak
ber t
sl ice
Ac count
TE MPL
execut or
T w
æ ³
ĠB AS
nd im
check out
gre en
ĠQu ery
re peat
Re cipe
Ġconfig ure
not ify
ail ure
Base Model
Ġup dated
ca pt
Ġmm f
åĽ ¾
Ġdecor ator
al loc
decor ators
Ġinclu ding
isto gram
A ME
R R
b rowser
e ys
s pack
an aly
Ġd st
ip ping
Ġcom bin
spec ial
E d
O ff
it ect
con anfile
Ġcon n
Ġst udy
ĠCon nection
bo ke
201 9
Ġident ifier
Ġgover ned
D irectory
x iv
ĠH e
mon itor
ĠEx amples
Ġrun time
Ġmax imum
pat terns
sup er
ge ometry
Ġ1 7
ĠV alue
Ġli ve
igh b
Ġmon keypatch
dapt er
ĠConan File
B Y
Ġa round
def ine
oin ter
Set tings
Ġcurrent ly
: -
L ike
wh ich
Ġcache d
P ipeline
s mo
ĠA t
ĠP lease
Ġco ordinator
see k
= %
S ome
er ature
pl ain
ateg ies
ĠĠĠĠĠĠĠĠĠĠĠĠĠĠĠĠĠĠĠĠĠĠĠĠ ĠĠĠĠ
cho ice
ç± »
G ui
ar xiv
ĠV ariables
Ġdim ension
o ise
re v
str ategy
and roid
(' %
Ġlo wer
Ġk b
pat ched
Ġstruct ure
F C
Ġb ind
Ġst ates
ick s
Ġhe x
åı ĸ
rel ated
CRE T
W rite
st ock
Re port
sc ene
dig est
boke h
9 4
ed it
ed itor
Ġon ce
H ER
L Y
Ġb eta
Ġh idden
Ġ- =
us ing
data frame
ĠThe y
Ġ201 6
201 6
proto buf
ffic ient
I I
b one
v m
Ġa i
Ġ2 5
cess ary
col lect
Gener ic
ä» ¥
requ ency
__ .__
Ġg rad
(' -
Ġass oci
Ġapplic able
, )<
v ault
} \
un its
con t
Ġpro p
pect ation
ud o
ak er
Al gorithm
* .
S ocket
y ear
ĠG o
ĠO perations
ĠB lob
sh utdown
aw n
Ġlog in
ERV AL
embed ding
Ġspe ech
d ocker
u lip
æ ¨¡
ĠP andas
abil ities
T ri
V is
Ð ¸
Ġt ar
me th
Ġs uite
Ġm achine
ĠG PL
Ġse gment
lin ux
Ġman im
ward s
bot tom
Ġwrap ped
Ġmo ve
Dep rec
e ver
(" --
OR AGE
6 3
8 2
h u
Ġpro to
ugg est
9 1
M gmt
Ġt ab
Ġf eed
opt s
close d
inv oke
A ZURE
R ITE
g y
r atio
od oc
up dated
Ġexp ress
ĠExpr Int
ort oise
Ġc enter
as ket
Ġsql map
Ġass ume
> \
p m
re cogn
__ ),
if ies
pl ine
Ġpre v
Hel per
tick s
N ormal
m ysql
æ µ
ch or
AT CH
doc string
={ '
pol ation
6 1
Ġm ac
Ġan gle
rel u
Update Coordinator
Ġbuiltin s
345678 9
B u
P lot
r m
Ġ' ,
ist ent
ry ption
os ition
Ġ201 4
sg i
bound s
G S
M atch
Ġthe fuck
res net
Sc ript
ĠS ome
Ġh anlp
ĠP rivate
###### <
deploy ment
åĢ ¼
orizont al
D ialog
at ches
li hood
con s
Ġ1 9
Ġlo aded
ip s
RE GISTRY
0000 00
S ENSOR
n ested
p an
Ġre pl
Ġd er
ĠS ensor
Ġlist ed
ĠCh ar
ress or
Ġter m
Ext ension
Ġpr ice
g ers
Ġre fer
ĠP ackage
all back
res sed
ON G
Ġpar allel
ST EM
ful ly
Val ues
Make file
H AS
S ERV
è ½
Ġs ite
qu ences
ma jor
CO DE
ĠĠĠĠĠĠĠĠĠĠĠĠĠĠĠĠĠĠĠĠĠĠĠĠ ĠĠĠĠĠ
INT ERVAL
dash board
Integ er
7 3
A ns
ĠĠĠĠĠĠĠĠĠĠĠĠĠĠĠĠ ĠĠĠĠĠĠ
12 34
Ġcre ating
Ġpage s
VA IL
p ub
il ing
im show
mark down
bl ue
ĠFor mat
ĠEnv ironment
/ %
s uite
w b
Ex ecutor
check s
ĠSt orage
Not ification
cook ie
Ġcle ar
a unch
Ġc ross
ay stack
Ġab stractmethod
Ġspec ial
Ġframe work
Ġbot o
å Ŀ
ĠA WS
time s
n ative
w t
ut able
Ġg c
Ġv ocab
Un it
ĠExt ractor
S top
f ire
r s
se curity
Ġs w
Ġx onsh
time zone
ĠV ariable
Ġcol lect
Ġwrap s
../ ../
On ly
æĹ ¶
h yper
å ¾
Ġ environ
Ġt k
Ġb est
con verters
Base d
sched uler
TEMPL ATE
K ernel
ol ved
AR D
Ġap pend
Ġred irect
link s
vis ible
ç Ń
è ´
(' \
Ġlo gs
wa ve
abc def
ank cs
FOR MS
He ader
o om
ex clude
co v
Com mon
M ES
n x
Ġc op
me mbers
Ġas sign
red uce
Ġget text
---------------------------------------------------------------- --------
c ross
k ivy
Ġs a
el low
Ġpy qt
ĠCon vert
sertion Error
y ou
al ign
ot o
Ġ' {
res ses
bo ve
sh ift
Data Source
page s
look up
6 2
F ixed
} {
Ġd a
co ords
sc ores
Con tains
Ġro bot
cor der
11 11
ced ure
ç ī
Ġ kw
st e
Ġin dent
Ġin struction
ĠA ir
ĠP lot
per cent
ĠB l
Ġv im
mb ic
={ <
ph p
ĠLoc al
ĠNO QA
M ax
O peration
ç ®
le v
Ġf alse
Test er
trans pose
raw l
Ar gs
Ch annel
skip if
document s
G rid
k s
o ptional
u v
Ġ1 8
sc atter
ĠR O
Ġro le
UR ES
PL AT
ordin ates
T A
ä ¿
Ġp ixel
return s
script s
> :
C V
N on
S n
m u
Ġf rozen
ĠD B
Ġr ng
right ness
ĠV is
und le
dict ionary
ĠCh ange
sent ences
Ġgre en
) }<
^ ^
ĠB ox
default s
do es
Train er
DIT IONS
ugment ation
d ense
Ġ ra
ss h
ĠO F
out ine
delet ion
s park
Ġ very
ic orn
ĠS ession
Ġcon anfile
mo zilla
([ <
Ġab stract
connect ed
er as
de precated
co st
ĠC ase
Ġpos itive
ymb olic
fr ont
Ġs imp
Ġl ayers
ĠP ol
æĸ ĩ
A I
Ġa bove
ack er
ĠP olicy
per mission
ĠR ay
Ġtop ic
struct s
ĠMe thod
, ),
2 000
G ateway
V AR
d rive
t utorial
é Ĺ
em o
ä¸ į
ĠTh read
ĠLO G
B utton
D ER
Ġ :<
ch at
SE LECT
transform s
]+ )
zz able
D ownload
p ush
Ġt ornado
as array
work ers
Ġmock er
sign ature
sha re
callback s
Ġsig ma
/ .<
P N
ĠN on
data path
Re gex
Ġpy text
ma ked
Ġon es
Ġk nown
Ġraise s
Ġaction s
render er
M in
end ar
ĠX ML
iter ator
Ġarray s
Ad min
subplot s
f acade
ç İ
Ġm is
qu ant
load ing
cl ause
AD DR
Ġtransform s
æĸ ¹
B E
c red
w all
ĠC ategorical
ĠD ownload
allow ed
H A
M ark
q s
} '.
Ġ é
Ġo c
Ġb ad
set attr
ĠG en
ache d
SE CRET
orp us
Ġdepend ency
Ġcheck s
ĠInc remental
bl ueprint
åĪ Ĩ
semb le
b ig
Ġf ixed
([ ])<
PP ORT
medi ate
F E
am ent
Ġun til
vide s
ĠMo zilla
maked irs
U DE
b ine
Ġp ur
Ġin ner
is file
ĠP ACKAGE
termin al
Ġ ##
Ġde termine
sc m
ĠO ne
Ġ-------------------------------- ----------------
normal ize
D type
k y
in ess
ro y
ĠC LI
str ide
Ġl aw
Ġ< <
([ -
Ġbot tom
some thing
N ET
re cipe
Ġt urn
li o
config s
ep s
Ġ4 0
ĠK IND
Co mple
box es
Ġmin imal
ĠTe mplate
ĠCON DITIONS
b al
EN V
ĠCon sole
base name
Ġpre pare
Ident ity
VAIL ABLE
R DF
å ¸
ac ity
all ery
ĠW rite
Ġvis it
Ġcorrect ly
padd ing
B inary
Ġw av
", )<
Ġr ank
Ġme ans
Call able
Incremental Decoder
b enchmark
p ixel
r is
on s
Ġin sert
ĠT ask
Ġpro gress
ob ile
Ġdoc string
d ialog
Ĵ Į
Ġc opyright
Ġan alysis
ĠM ark
IN PUT
Ġsub class
SU B
P S
b re
l st
in struction
it ter
Ġf f
Ġf u
Ġnot ebook
IC ES
Ġte mplates
ABLE D
R UN
s y
__ __
ĠCh annel
Ġcomple x
Ex it
Name space
Ġag reed
ĠWARRANT IES
DES CRIPTION
d antic
ent ence
ĠM em
(" _
ir c
ho u
ou ch
pr imitives
sm all
ĠComp ute
cr im
Ġvis ual
O ver
R C
Ġs ources
ĠE nt
Ġse ver
te p
AR CH
Str ategy
Ġad min
Ġfa ust
sn apshot
Ġgover ning
ĠBAS IS
% (
S PE
e lements
è ¦
ot es
ĠL abel
() ]<
fa iled
wh ite
Al ter
O ut
b i
v o
â Ķ
ex periment
ra ft
ĠM PL
ĠCon st
ign Key
ĠPro cess
ĠAuth ors
Ġorig in
Ġgo od
[ ^
g in
ation Warning
cl ar
AN G
ä¸ ĭ
ĠPar se
Ġtable s
optim ize
Desc ript
Ġiss ue
O ne
Ġp i
Ġl r
ĠV er
clean up
bos ity
S ample
Ġs b
Ġl in
Ġr tol
AB u
'' '
job s
ĠTh ere
def inition
work flow
len ium
Ġcur sor
H ypothesis
Ã ©
me try
Ġde scri
ĠF ilter
Ġst ill
ĠRe quired
arg in
serial izers
mark er
ä¸Ģ ä¸ª
Ax es
è¦ ģ
w ikipedia
Ġat temp
Par ams
fixture s
Ġserial izers
pol y
M D
ert ificate
Ġinit ialize
P ol
U I
h our
comp are
log y
av ing
d uction
v an
Ð ½
istr ation
Ġadd r
Get s
Ġp lease
Ġh yper
Ġse cret
Pro to
Ġutil ities
END POINT
embed dings
tod o
C U
i ally
Ġm ade
ha z
Ġse lection
back ground
foo bar
Ġtrans port
' .<
W ait
ĠC an
Ġg pytorch
Ġst ored
Ġex act
cur rency
Ġrun s
Ġman ual
Incremental Encoder
ĠUp date
># :
ĠS ign
ĠT F
ĠH ead
Ġro t
are a
oth ing
Ġinter val
O f
a u
Ġro und
fo lio
Ġpredict ions
7 1
P lease
u ix
v t
on ic
Ġ" {}
Ġreg ular
Ġhel lo
Ġ-- -<
Class ification
Ġrepresent s
VAL UE
Ġt d
Ġc loud
Ġm ight
ĠA ction
Ġth ree
pro ps
wa v
ST ORAGE
files ystem
Ġweb socket
Ġselect ed
mk dir
Ġtermin al
O p
m achine
ro s
ge ther
li de
la unch
ĠĠĠĠĠĠĠĠĠĠĠĠĠĠĠĠĠĠĠĠĠĠĠĠĠĠĠĠĠĠĠĠ ĠĠĠĠĠ
day s
ĠOS Error
en g
Ġa ctor
test utils
ĠData base
bl ank
Ġdemonstr ates
ĠAUTH ORS
N LP
s r
ab stract
ĠP h
ep isode
block s
ze ug
Ġrepresent ing
inger print
) ")<
B IN
b old
in el
ĠA S
ĠD oc
iss ue
Ġcons ider
f latten
k zeug
Ġ' #
Ġde mo
() ):<
ĠB lock
Ġso lid
Sign al
: ]
set ting
open source
ĠNOT E
cook ies
u it
Ġs parse
Ġs heet
Ġde velopment
inter faces
Sh ort
ro om
Ġl l
time delta
Ġident ity
chunk s
si red
æ İ
Ġ ,
ĠT ri
tr igger
Ġg ame
Ġth ose
res ize
ĠO ptim
Ġe val
ĠR aise
match er
ĠExt ension
>` _
Work s
m ix
p anel
y al
Ġc al
Ġr v
ĠF oo
ĠV ector
IC ATION
yn omial
UN K
Ġtransform ers
D ir
N um
S kip
m ixin
} ')<
Ġg u
ĠO ver
Ġsome thing
/ ",
> {
a h
f un
st andard
me g
Ġp rivate
Ġsc ene
Ġwork flow
03 3
Ġincre mental
t d
Ġm aster
ĠKey Vault
Ġfail ure
! !
m as
se g
ic ate
Ġm d
fig size
ĠG oogle
ans ible
wait able
widget s
IZ ER
g ray
i red
å ¹
ar io
Ġf alcon
est ion
Ġans wer
celer y
Ġassoci ated
' ^
A v
t imer
Ġas set
ĠN ew
Ġh atch
Ġ2 1
Ch ild
top ics
Ġtmp dir
orig in
Ġspe ed
H as
S ingle
ĠC loud
ect ion
MA C
graph ene
web socket
std in
Ġtuple s
d p
p riority
t ic
li sh
is f
Ġback ground
uplic ate
` .
c ancel
d ynamic
mp eg
Ġs anic
Ġin f
__ ).
Un known
Ġmatch ing
Ġsum mary
Ġstep s
Ġlink s
Ġcond itions
L R
er n
Un less
Do uble
8 1
Ġ" '
un der
li er
ĠC l
Ġnot hing
Pro duct
Ġu i
Result s
spe ed
½ æķ°
de dent
ig uous
pt r
ow sup
av g
Ġsha re
CO VER
Ġpart ition
context manager
Ġchange d
i ecut
ft ime
Ġy ear
ns ure
log ical
Ġopen age
Se lector
Cre ated
B l
E C
s qu
Ġs y
ĠM ax
tr i
ĠW orld
ĠSt art
exist ing
andid ates
B us
U se
t l
Ġre pro
ul a
Ġexp and
fl ush
Trans port
Ġdel ta
v d
an is
Ġde ploy
AS K
ESS AGE
lif y
itect ure
> "<
s izes
ans wer
format ter
Ġiter able
sql ite
gu ide
ĠFl ask
de tail
le mbic
Ġh istory
ĠP LAT
and box
ĠG PU
init e
IC S
Ġconfig ured
Ġlist s
Ġgener al
Ġauth entic
hook s
PY THON
DU LE
Lazy Tensor
o v
v irtual
å ĴĮ
or er
Ġa lias
ra gment
ind ent
Par allel
ĠĠĠĠĠĠĠĠĠĠĠĠĠĠĠĠĠĠĠĠĠĠĠĠ ĠĠĠĠĠĠ
auto grad
a vi
o peration
p ause
or ing
Ġin herit
Ġal ong
net s
act ual
cre ts
Ġhost name
H ash
a res
ro ken
class ification
ĠP O
am il
Ġno se
Ġdoc utils
encode d
Work er
ĠOn ly
C F
M ask
d istribution
x p
UN CT
post gres
ĠAsync Mock
thread s
Temp orary
> ``
? ://
b its
d st
v est
Ġf name
Ġset s
vi e
") [
String IO
Ġlb ry
K ER
m i
} "
ĠA x
ĠA ZURE
ver bose
ĠP ool
sc reen
trial s
End point
TING S
I ME
N e
¦ Ĥ
Ġf e
Ġdef er
Ġ2 8
log o
ik it
F l
Ĥ ¹
Ġt ortoise
Ġm u
Ġan aly
Ġth reshold
Ġpro c
Con verter
fl ict
Http Response
Tree Node
NO WN
rdf values
crim inator
iecut ter
B ool
[ ...,
Ġa udio
ĠF rom
Ġe p
Ġsup press
own er
dict s
Ġdo uble
Ġread ing
inc ip
Inst all
Descript or
$ {
> ################################
L ER
m ing
Ġy et
comp ress
mat ches
dis abled
are st
cp us
ĠLib rary
Pass word
C or
c ircle
Ġ" )<
Ġw riter
Ġw indows
um bn
ha red
num bers
St d
AN CE
dis covery
Ġne cessary
Det ail
umbn ail
er kzeug
im ize
Ġsp ider
sl t
Ġutil ity
ĠInd ividual
M agicMock
N ull
R ob
an ity
ens im
cord ing
Ġblock s
Sp ider
bit rary
åĩ º
ĠEnt ity
at ial
Ġb s
co verage
Ġsc ores
99 9
D iv
on y
ro sa
ut ation
lo pen
ab ly
Ġ[ ]
oo ey
ĠE N
Ġv ul
St age
CA CHE
Ġperform ance
Const ants
Ñ Ģ
de p
le metry
Ġ( -
use s
oo oo
ĠĠĠĠĠĠĠĠĠĠĠĠĠĠĠĠ ĠĠĠĠĠĠĠĠĠĠĠĠĠĠĠ
([ ^
sec ure
G TH
I A
i q
ct ic
urn ament
ĠM es
Ġde coder
Ġx range
read thedocs
UR N
Ch ange
Ġred ash
inst ances
Ġpat terns
haz mat
C LO
T er
ac er
annot ations
æĪ Ĳ
collection s
: ",
F acade
M T
U nsupported
r r
} '<
Ġs q
Ġb us
Ġh aystack
iz able
IN ST
Ġco st
vent ions
RE CT
Pro perties
Ġtr igger
expect ation
åĪ °
è¿ Ľ
asset te
Loc ation
l as
x s
Ġc r
pro files
ook ie
En ter
ak ing
Ġprocess ing
Ġchunk s
Ġembed ding
CONNECT ION
boot strap
b et
è §
Ġp df
ĠS ample
Ġcode c
ĠPy Torch
Ġ"" ,
char s
Ġdev tools
ĠApp le
- {
b oost
Ġ( )<
for ge
ĠF loat
valid ators
cor pus
dim ension
Se quential
lim iter
raint s
Ġeas y
Hypothesis Works
F in
b est
g ree
m object
w sgi
en ario
Ġob servation
Ġ8 0
Ġauth ors
åĮ ĸ
Ġ".. ",
Fix ture
> =
L AY
n eg
Ġb rowser
ri end
ag ne
da emon
Ġopt s
ĠCo mple
vis or
.... ....
------------------------------------------------------------------------ -----<
V ector
k v
m ust
Ġ }
Ġt utorial
(" #
Ġ2 3
CH AN
Ġ5 00
AM D
ker as
Ġdire ction
m q
m art
r ich
æ Ķ
in cre
Ġs yntax
co dings
ab solute
Ġstr ip
ho ice
dis patch
TER N
ĠArgument s
andid ate
STAT US
> ):
C lip
me ans
ot onic
is son
ul k
ol ation
py pi
Ġy owsup
back ward
Ġiter ator
rel ation
Ġll nl
L IN
h ere
p ow
æ Į
AT OR
reg ular
response s
Ġstart ing
Ġsche me
Ġqu ant
Ġsql ite
Ġencode d
Ġcap log
Ġjupy text
re verse
st im
li es
ad apt
ext ractor
not ification
reg ression
OP EN
Ġac curacy
ĠAPI s
asure ment
se par
de tails
Ġn egative
un load
ĠL ayout
oc ial
Ġ{ {
Ġun its
ĠH ash
run c
ĠLo gger
åĩ ½æķ°
FL AGS
" ><
B B
c nt
Ġ er
de prec
tr ins
Ġde que
Ġit self
Ġk now
LE V
mt ree
lat ex
Set s
sample data
BU ILD
ier arch
\' "]
Optim izer
ç ¬
Ġs ock
op per
Ġset attr
man ual
Ġte am
'] ['
Ġsens ors
FORM AT
gu ard
Cond ition
ĠE DIT
ĠR ule
ĠPro duct
") ])<
S eg
T S
W OR
ĠC li
Ġex periment
ĠG lobal
Ġreg ression
sub class
account s
transl ator
D istribution
V er
Ġf ront
ĠS U
gg le
Ġcall ing
Ġresponse s
compat ible
Ġbl ank
5 12
g ateway
re p
al i
Ġc ar
Ġimport ed
Ġs mo
et c
Ġ5 12
Ġid s
Implement ation
Per mission
ç½ ®
1 024
H ome
u k
Ġre try
Ġb ucket
ast ic
RE AM
ĠDe v
ĠJ ob
Ġformat ter
ĠTe am
leg end
. )<
M ULT
å ·
Ġbe gin
ĠB ar
ag raph
ĠCon nect
Ġpr ime
ym metric
Ġident ify
Ġes cape
activ ate
drop out
ĠExtractor Error
R ow
d ag
s ampler
st mt
id y
up load
unt il
order ed
Ġparameter ized
ĠSub scription
Render er
Ġautos klearn
? )
M ult
Ã ¤
al gorithm
lo ur
pt s
Ġde lay
res p
Ġ: ,
sub ject
real path
ĠTime stamp
Ġrule s
i os
ĠA waitable
pro val
Ġpre c
place holder
record s
vol ume
Ġp ick
Ġd uration
Ġh ard
app ed
Ġsc reen
Ġstream alert
epoch s
Ġcalc ulate
require ments
è¾ ĵ
) *
L ight
ç Ĥ¹
ap s
Ġcon cat
Ġ2 4
ĠK E
no ise
integ ers
Ġind ividual
Ġpredict ion
yml ink
d irection
o vid
Ġt re
al og
ic ular
Ġn ested
Ġw erkzeug
con struct
oc lient
SERV ER
c amera
m iko
s quare
Ġa mount
tr ip
ĠH as
Ġup per
Ġorder ed
RES ULT
R ole
ç Ĳ
Ġc map
Ġcon version
Ġ< /
OT O
MO CK
anti ate
, ))<
F ailure
al ignment
is co
ations hip
Ġco s
ues s
Ġinter faces
Key Credential
Ġover write
Al low
Ġconvert ed
Ġwant ed
Ġactiv ation
p x
Ġs low
Ġm akes
Ġ( )
Ġde sired
train er
Ġtrain er
ĠWork sheet
Ġfilter s
Len gth
F S
J S
c df
é ¢
ĠS tyle
ĠG it
Ġse lenium
ens ity
pre view
sk learn
Ġcook ie
012 3456789
P redict
P ipe
S end
V ID
d r
d ask
f m
Ġc amera
ig ure
if ul
ĠUn ivers
ED URES
Ass ign
åĪ Ĺ
aut iful
Ġclose d
PROC EDURES
ĠSO URCE
incip al
M M
M Y
} '
Ġp a
Ġp aper
po sed
Ġk eras
domain s
Ġsl ice
Ġdetect ion
Ġzip file
diag nostics
DEF INE
Ġweak ref
set Level
Ġ2 2
Ġr gb
init y
ĠRe move
pi e
man ifest
Info Extractor
Ġsent ences
æŀ ľ
Ġre ct
Ġb enchmark
Ġr m
art s
P ointer
on d
as ing
Ġp id
Ġs ur
ĠN e
Ġse lector
Ġ4 00
Stream Reader
assertIs Instance
çº ¿
ĠHead ers
1 0000
D ING
S plit
v oid
Ġl azy
Ġare a
spec s
Se lect
ĠY AML
evalu ate
F ast
O F
R AN
T C
w heel
Ġd ynamic
Con an
serv ations
ME DI
Ġz one
Stream Writer
ĠTe mp
Ġlook up
Embed ding
ç® Ĺ
S tyle
t ract
Ġc b
il ation
par sing
us ic
ook up
Ġap pe
Ġact ually
loy ment
M ESSAGE
v ul
ĥ ı
Ġs quare
ĠS orted
ĠA L
fil er
Ġload ing
Ġclean up
UPD ATE
Makefile Package
B LE
K eys
f lat
j o
m ay
m enu
} ",
Ġc ran
Ġre dis
Ġm a
ĠN a
and s
EN TRY
not pip
ipy nb
ĠCall back
Ġdir name
Valid ator
E mpty
h at
Ġt i
ĠL ock
ol ume
ĠD NS
Ġr atio
gra ms
Ġloc ale
P ort
ĠC or
ĠM in
Ġg luon
ĠO ther
åĽ ŀ
Ax is
REQU EST
ĠBinary Sensor
Ġcop ied
O M
V IS
m irror
ç §
at tern
Ġpro perly
igr ate
åı Ĥ
mag ic
I OR
N ote
T ra
x l
out ube
Ġj inja
group by
pos ix
Ġlib raries
Comp onent
Ġthread s
Expr Id
MET HO
N C
a gs
p ayment
un ix
Ġl it
Ġcon troller
ĠD ense
Ġex clude
ĠB asic
assert Not
ĠDict ionary
Ġ$ {
Device Class
ADDR ESS
A lert
E mail
l arge
å ĥı
Ġm ime
ĠS ci
ĠD et
(' _
'] :<
Al chemy
Stat s
Ġhandle s
æł ĩ
æµ ĭ
F ont
L ONG
ä ¾
Ġre ward
ot ion
ĠL anguage
Ġto do
im itive
Ġimplement ations
stream s
Ġcompat ible
depend ent
Ġbin ascii
A CCESS
D omain
] ]:<
j i
Ġc er
am o
Re move
list dir
ise ct
Con f
man age
Ġdo ctest
loc ale
> ============
C lean
I FI
M onitor
U D
b oolean
ig ital
Ġh ub
auth ors
Ġsp acy
Ġmin imum
Ġquery set
ĠColumn DataSource
Ġleg end
. '<
L oop
ĠS kip
ab ort
ĠP age
Ġg radient
IT UDE
call able
wrap ped
pat ches
Ġ"/ ".
Ġnd array
D at
V ideo
at isf
ct ypes
ĠM onitor
ho le
De lete
let ed
temp dir
vis ual
Ġoptim ization
Ġevalu ate
Ġspeech brain
M issing
d istributions
f rozen
r at
in p
Ġre comm
pe g
ĠC ur
ĠA gent
am a
ĠR GB
qui val
Ġinclude s
OUT PUT
> "
D oc
ass ign
() ).
Ġob s
ĠUR I
atter y
Ġ è
and it
pro gram
ĠB ot
ail ability
pi red
Ġat ol
Reg ression
Ġfail s
åº ¦
ublish er
ĠKE Y
M edia
p od
Ñ ģ
al m
ur ity
is dir
ĠU TF
Ser ial
NA MES
Ġac ross
Ġformat ting
Ġ\ \
ĠRes ult
Ġ{} ,
Ġshow s
QU E
ĠMe trics
Ġmk dir
E valu
c um
p ull
rom e
es ser
Ġ" {}".
set item
St andard
RE G
Ġdis k
LO B
Ġle ss
US AGE
INT ER
Ġfilename s
Ġrece ive
Ġblock ing
ĠQt Core
ĠMO CK
B ody
f an
Ġ ),
on ical
ex og
one y
ĠB enchmark
Ġj obs
Ġtorch vision
Ġpart icular
Ġsepar ate
6 00
D ist
R AY
ĥ ½
def initions
Ġd en
ĠS IM
con tain
00 01
yp oint
format s
Ġal gorithms
Ġac cording
Ġfl ake
ĠMulti Index
activ ity
ĠValid ationError
ites pace
ĠGPL v
S hell
b g
d cc
y y
ĠP RO
the ta
sim ilar
>================ ================
fp n
ĠNamed Tuple
çĲ Ĩ
B oolean
R out
å ŀ
se nder
om ent
op le
ĠW S
index es
ĠAs set
HEAD ER
Bot tom
) /
G EN
S IG
o perator
q on
de s
ĠD istributed
Ġpy dantic
mon th
Ġshape ly
SS H
Ġcert ificate
LEN GTH
capt ure
æ Ń
ç ł
Ġ' {}
con ventions
ĠW indow
Ġinte gers
A dapter
F unc
Dict ionary
inst alled
utc now
Ġoc cur
/ ',
O B
å ī
ç ¤
Ġb oolean
form data
Ġfile path
ĠW RITE
mo ize
Ġk it
upy ter
SU PPORT
ĠColumn Map
antic ore
Ġedge s
ĠSql map
ĠRES ULT
Ans wer
u ed
ro ker
Ġa ggreg
Ġ" (
Ġd ns
ame l
id ers
ĠM achine
ĠRe mote
Ġcomp ile
En able
Gener ate
style s
Ġbet ter
mar izer
Ġsched ule
a wait
d ll
t ex
un squeeze
Ġh c
ĠO Auth
ĠE ach
Ġres pon
mat mul
fix ed
Ġcheck out
UT F
201 3
Sc ale
alo ader
ĠCli Runner
ĠUnivers ity
m ime
Ġp s
Ġre cogn
Ġself drive
Ġd ocker
il on
ĠL ight
th at
con sumer
ĠP AT
im read
Ġth ings
gra di
Ġapp lied
201 2
Ġtoken izer
äº ¤
åŃ Ĳ
LOC ATION
ighb ors
X T
b p
o per
ĠS witch
ĠL ink
get cwd
ĠP oint
Ġcon flict
Re mote
ĠG u
ĠO ption
pre trained
Ġformat s
Ġhe ap
Add Field
Ġconnect ed
Batch Norm
Integ ration
æ³ ķ
åŀ ĭ
: ")<
B enchmark
P os
V T
ĠP art
ĠF ROM
run er
leg acy
ident ifier
A X
F ake
S um
s uch
æ ¯
il ine
ĠC over
Ġcode s
cl us
ĠEx p
enc rypt
Ġle x
Trans l
platform s
sv g
release s
ĠMe tric
REQU I
ĠVis ual
( ("
/ *
R outer
h int
w al
Ġre main
ĠI dent
future s
Ġload s
quire ment
ĠGraph ene
inds db
S ync
S yntax
Ġ }}
Ġc apture
iz ations
Ġst ar
Ġ: :
ang les
Ġ% %
local s
ĠMan agement
WAR NING
ĠCre ated
P A
st able
tr as
Re pository
ly ing
Ġsc m
Ġbeha ve
Ġgener ic
CE P
let on
Red irect
Ġexecut ed
vari ance
lev ant
ĠMes on
> '<
M ultiple
S can
T OP
re try
ĠT ree
class ifier
ĠP ower
Ġde serializer
ĠF eature
list en
Ġor g
row n
pol l
Ġlook ing
Ġdrop out
ĠFlow Result
h y
n ers
z h
he ap
con struction
back up
ail y
OP TIONS
auth entic
Ġman age
tuple s
vis it
æľ ¬
dig its
Ġhigh light
ĠArgument Parser
/ '<
h r
v im
Ġ services
an imation
Ġun known
yp edDict
sc a
sh ipping
Ġen c
Par ameters
detect ion
" ^
I PE
m nist
Ġ ut
ĠS top
lib x
Ġchild ren
edge s
du ces
LEV EL
Seg ment
b roadcast
i python
k u
r ic
v iz
re trie
en ate
Ġpro cesses
port s
read line
pre pare
eg acy
ĠPar ameter
PP ING
AC COUNT
Sched uler
" },
k es
l ice
Ġ ])<
ar win
me sh
str ategies
Ġh app
Ġl az
for ecast
ĠD esc
ri se
ri ate
ob servation
ĠW hether
work space
log its
call ing
ne ed
wrap s
prop riate
ifact s
d om
l ens
p aper
de coding
Ġ" $
ĠL iteral
init ialize
ĠEx ternal
integ r
Ġpair s
k t
n egative
an alytics
ent ropy
res olver
ta ke
ĠR UN
ĠData Loader
host s
ĠCol lection
ĠTime delta
arm up
sig ma
äº İ
åŃ Ĺ
ABC Meta
Ġai oclient
avi er
m icrosoft
p n
t ility
Ġa verage
un pack
id ence
ver sed
Ġde termin
Ġpy torch
sc rapy
In s
pi res
CO MP
connect or
S M
T op
o lo
v env
Ġ ]
at ype
Ġb ug
ĠC ore
ĠS n
oc us
Ġde tail
ĠF ore
comp ose
pre v
ST ER
ĠEx pectation
leg ate
IB UT
amo unt
) ],<
F airseq
N ULL
b t
e ff
i loc
s yntax
on al
Ġa io
Ġc make
Ġs r
Ġ" *
Ġx y
Ġse ss
lob als
AL LOW
graph ics
let te
Def ine
Te X
Ġfollow s
COM MA
C loud
D rop
Ġt ol
ul ly
et ree
com bin
quest ions
ho use
ĠSimType Int
PL AY
Ġglob als
Ð¾ Ð
SY STEM
V im
[ <
c lock
j ava
u ation
ĠA b
con tin
Ġg t
sc r
Ġpro duce
Ġcol s
Ġref resh
Ġregister ed
spe ech
By tesIO
plan es
Alter Field
) ],
^ {
s am
å ¿
or a
ut ing
pe ech
str ument
od b
Re ferences
Con troller
ĠPro xy
Ġannot ation
zer ver
case s
ä» ¶
LOC AL
Ġcy cle
WIN DO
D raw
P open
p a
t i
Ġc s
an it
Ġre c
Ġs sh
Ġb its
Ġh it
Re LU
ĠH ow
org an
we et
ts a
Ġlib rosa
Ar g
Ġscript s
So up
s ur
z ones
Ġde scriptor
Ġ+ <
ĠU SER
ind b
Ġz i
ĠBase Model
Ġcupy x
ĠAl so
track er
Ġaw s
ĠCom munication
xxxx xxxx
quival ent
' }
T URN
a ug
b all
n i
s uggest
an alysis
urn al
ĠD ist
ans hou
=' +
ĠCon tent
Ġ201 0
bin s
MA PPING
be e
PO S
vision ing
handle s
Ġbl ue
As set
Ġperiod s
Sec urity
ĠPo ssible
Ġtk inter
ç¤ º
L anguage
T ENT
h params
Ġa dapt
ur able
ur ther
ST M
Ġal ert
ESS ION
Ġrecord s
Ġexecut able
symbol s
âķ Ĳ
m ic
re name
ĠG e
ĠR ender
ĠW rap
Res olver
iter able
201 4
ĠPath Manager
struct ures
spe ction
SO CK
sig moid
pair s
cha indb
! "<
C ategory
G RO
st and
Ġt ick
ĠC C
Ġl ang
for android
et y
num eric
ĠSimType Function
Ġta ken
ĠQt Widgets
cert ificate
gl yph
Fore ignKey
Deprec ationWarning
. ",
L inux
e v
an c
em it
ER Y
Ġse quences
Ġap propriate
Ġch allenge
head s
AN S
GE X
Reg ister
Ġmark down
Ġscal ar
Vim Test
) ",
8 00
C ES
I q
S cal
un icorn
ĠT ra
SE D
ĠCONF IG
sign als
ble ms
thread ing
crypt o
ĠWRITE ME
. "
L imit
è ĩ
Ġf latten
ĠS ca
Ġstr ategy
Ex pect
ĠK nown
List ener
old s
Check er
IOR ITY
W orld
re gs
Ġt x
is instance
ch ool
ĠT op
Ġ[ ],<
ĠP ost
ĠF u
Ġmay be
License d
Ar t
Event s
Ġcount s
ĠName space
predict or
clus ive
: ])<
A ttributeError
F ind
G IN
Ġm agic
Ġto gether
con version
ĠN ormal
Ġ[ {"
ĠB utton
min or
equal s
Ġdisable d
MO DULE
ĠDis covery
Default s
>## #
rece ive
Ġcho ice
ucce eded
P G
U UID
_ .
h ist
r ices
r mtree
z oo
å §
Ġc orpus
lo sing
def er
Ġin p
Ġd ue
ĠS ingle
ĠL azy
Ġ[ {
ase d
ĠI mplement
Ġ------------------------------------------------------------------------ ----<
.. .<
AR GET
parse d
split lines
dat asource
Ġframe s
Ġcallback s
Ġarch ive
du o
éĩ ı
b oth
f ollow
t b
Ġb old
is ation
Ġis n
res olved
not ation
Pro cedure
ale ct
ĠSet up
ĠMA X
ĠDate time
tod ay
G lobal
K ind
y cle
de serialize
ĠS yntax
get ter
oc ore
Ġg zip
ĠU sage
sp awn
Config Flow
Ġab le
ĠUn icode
DI RECT
Ġad just
Ġtransform er
Ġsl ug
ĠQt Gui
Ġkit ty
H UB
O perator
P atch
ĠM ult
tr aceback
Ġde bu
Ġnot ification
ĠU sed
ĠW ith
ream er
ere al
build s
ĠSim Library
Ġread y
View Set
ĠMat plotlib
stage s
Ġlat est
C hoice
M B
c ategorical
f amily
re actor
ort h
Ġc p
Ġm ix
ĠC H
ad ing
ĠL esser
up er
ĠF I
Ġnot ify
init ializer
Ġclass ification
AN Y
Ġmark er
BIN ARY
Ġprec ision
R aw
S ING
S tep
X Y
] }<
h df
w ig
he alth
># -----------------------------------------------------------------------------<
Ġ' ')<
ĠN et
"] )
sub mit
DO WN
Ġsp aces
Ġid le
Ġmon itor
cy cle
ĠLoc ation
ĠLe arning
ĠSimCC Std
ĠSimCCStd call
A b
k nowledge
} /{
å Ļ
se ss
ac curacy
Ġw rong
code c
Ġfiles ystem
ĠSet tings
Ġserial ize
gre p
\. )?
protocol s
ĠPer iod
cont iguous
çł ģ
p ick
w alk
Ġ ^
Ġ mpl
se l
de sk
Ġp erson
Ġn yan
Ġm ut
Ġm ail
ĠT er
Ġ' "
=" /
ang r
Ġtemp orary
mask ed
cat alog
Ġweb hook
Ġhand lers
æĺ ĵ
Ġrdf value
å¤ §
ĠDep rec
Ġprob ability
Iter ator
Dec imal
Rece ived
O O
] {
c rop
g c
} ',
as gi
Ġf ew
ĠL inux
ĠM utable
ri an
po inter
attr ib
Ġurl s
trans action
Ġstart ed
ific ant
Ġstream s
fe at
Ġreplace ment
Util s
stim ator
C Y
C ross
[ \
b uilt
á Ī
le gram
ch anis
per f
per son
Ġg ateway
mo us
RE GEX
Ġno ise
xy z
Ġtrans formation
ĠSimType Pointer
find all
Ġpr imary
dif fer
Fin der
Ġti anshou
, )
s low
de velop
qu eries
() ])<
po ses
assert Contains
Ġ3 00
Ġclass ifier
Config ured
ak s
Ġpat ches
Ġ-------- <
Init ial
ĠAs sert
Ġsn ippets
è¡ ¨
NUM BER
Microsoft AMD
ĠSimCC MicrosoftAMD
Fixed Size
' ll
: .
= \
h icle
p le
t ot
on ym
Ġt une
Ġi mpl
Ġcon current
Ġcon sumer
Ġst ock
IT S
File System
Ġback bone
transform ers
PP R
Ġplot s
åĲ İ
å® ļ
ĠChar acter
Ġsever al
( "<
i i
ar ily
Ġc ome
Ġd id
Ġl aunch
per form
Ġadd ing
let ter
ĠSimType Char
ĠAR MPipelineClient
Ġfast NLP
assertRaises Regex
sm art
select ed
ram mar
Ġpower line
ĠBe autiful
) "
ç ¨
Ġ ON
İ ·
ap es
Ġg amma
Ġpre tty
99 99
fl ax
ĠAsync HttpResponse
comple tion
Mat rix
Ġ qual
Ġ enter
st ar
Ġc m
Ġp ers
Ġf h
con verter
ĠP DF
ĠF irst
ĠR ange
Ġor d
EN ABLED
func s
opt una
19 2
Ġapplic ations
Ed ge
ĠCase InsensitiveEnumMeta
C lose
L IGHT
é ĺ
Ġ question
ĠL a
con tact
im ate
Ġg am
ĠF a
ener gy
pend ing
Ġper cent
Comp iler
Ġany thing
Ġ"" .
conf irm
ĠSimType Bottom
ĠNot es
Entity Description
dat er
Ġconnection s
Ġret Val
By tes
bind ings
) ;<
> --------
A UT
D NS
E MP
P ON
u dent
Ġc pu
as hes
Ġre peat
Ġn inja
li ases
Re actor
em b
model ing
ĠSim Struct
query set
wh ile
Me trics
Run timeError
Ġ'. /
Ġprob ably
ĠInst all
Ġbus iness
' },<
G AN
T ools
å »
ex act
co ll
ĠC SV
Ġ-------------------------------- ------------------------
ST OP
MA IL
Ġcheck ing
trans fer
Ġ... ..
Ġem it
ĠHTTP Status
æľ Ģ
Dep endency
deep copy
ĠSimTypeLong Long
b asket
c rawler
æ Ģ
è Ģ
or ies
as c
Ġs in
Ġm enu
ĠT ag
ĠV iew
cl one
ĠDe velopment
Ġpre vent
Ġobject ive
auth entication
Ġle arn
') ))<
Se q
Ġcre ates
ĠWAR NING
Qt Core
Ġmm det
è¿ Ļ
è® ¡
æĪ ·
) ')<
C ookie
M on
M achine
M ChallengeAuthenticationPolicy
at ural
ĠS hould
ap is
Re vision
ĠSe gment
ĠSimType Short
ĠARM ChallengeAuthenticationPolicy
ĠAsyncAR MChallengeAuthenticationPolicy
åı¯ ä»¥
Ġfrozen set
G e
ã Ĥ
Ġn s
th ree
Re presentation
ĠG lobals
ĠE ng
ĠW idget
ä¸ Ĭ
ĠSimType Float
ĠSimType Double
ĠSimType FixedSize
pol ate
SC AN
ĠSign al
bet ween
åıĤ æķ°
ĠSimTypeFixedSize Array
P ublic
V olume
d k
Ġi con
Ġn ative
Ġb o
ac le
ĠS chema
ĠP ass
Ġg ensim
Ġro uter
ĠSim Union
') ]<
length s
cho ices
50 9
auto use
plic ations
ĉĉ ĉ
å® ŀ
ĠCom mon
ĠAsyncAR MPipelineClient
ä¼ ļ
C N
R ect
Ġre ferences
Ġs s
Ġin ference
Ġo auth
Con sumer
ĠU nsupported
gener al
clu ded
ĠSimType Bool
ĠPar ser
sha res
Ġdest ination
) }
) """<
x axis
se m
re aded
Ġt ty
Ġre vision
Ġs il
ĠS V
ense mb
Ġde prec
ĠF rame
Ġsup p
Ġsh lex
Ser vices
ĠJ son
ä» ¬
Ġinstruction s
g inx
h ls
Ġt p
__ ,<
ĠM on
IT LE
Ġse nder
Ġco ordinates
serv ing
object ive
") )
Ġz ope
Ġvalid ator
Credential s
Ġqu ick
connection s
ĠTime out
sec dev
protect ed
C ell
æ ĭ
al one
Ġp acket
ct ree
Ġn eg
Ġb r
ĠC ar
ĠF ix
Con sole
Ġar bitrary
ach ing
Field s
new s
Ġq lib
Ġsign ed
Ġ9 0
("" )<
WIT CH
ĠMem ory
d path
in line
Ġre ally
qu ick
for k
pro j
Ġse en
Ġco verage
cl usters
Ġen crypt
start ed
Ġmock ed
Ġbuild ing
go al
æĪ ĳ
Ġnet miko
åį ķ
Exp ression
Ġpyqt graph
C annot
T itle
W AY
c map
p alette
y es
Ġ est
ľ Ģ
ar c
Ġw x
ĠC ache
ĠI s
De code
ud wig
Ġstat istics
lect ed
)) ))<
TE MP
Sub scription
ĠIP v
Ġmis c
mixin s
ony mous
W A
X ML
a iohttp
Ġt b
Ġd y
Ġm uch
ĠS ET
om ic
po etry
cl a
Ġlist ener
Ġal ignment
201 5
Ob server
Ġq s
Ġop ens
Ġevalu ation
("- ",
åĻ ¨
h ankcs
t ls
v ectors
ç ķ
an h
an ner
Ġp rior
ter ms
Ġh uman
Ġ* =
ĠGener ate
pre processing
Ġz lib
Ġne ver
order s
Ġtoken ize
86 01
go od
Ġzer os
ĠDefault s
Ġembed dings
Ġcho ices
ĠInteg er
Ġvirtual env
F ace
P ost
a gg
b z
d ating
g amma
Ġre cursive
ĠS SL
end og
Ġstr ict
ĠB uilder
Ġ: =
ff ff
level s
ĠIn stance
Un able
Ġtensor pack
tensor flow
ĠTO KEN
æĸ °
Handle Url
Can HandleUrl
M ain
N IST
à ª
Ġd c
pe m
ĠT q
ĠP e
ER T
pre tty
pr ime
Ġup dates
bar s
Ġtrans action
ordin ate
dist utils
RES O
Ġleg al
clar ation
] ")<
g cc
l ate
Ġc wd
Ġre cipe
Ġs izes
ĠD IS
ĠF ind
Ġv ectors
Ġse p
io u
ĠSer vices
Ġred uction
Ġbot ocore
S witch
g luon
Ã ¡
er ation
Ġa m
al so
th umbnail
Ġe v
ip es
struct ured
TO DO
Ġfin ished
A VAILABLE
R I
a udit
d temp
h an
Ġo l
ĠT ool
Ġl st
=" #
Ġdata frame
ific ates
conf test
can not
Ġref lection
Ac cept
Ġrequire ments
å§ ĭ
G re
R oot
W ITHOUT
b reak
in ference
er ical
re load
Ġt gt
le y
ct ime
ile s
ĠM atch
Ġcon an
ĠO pt
Ġget pass
Ġro om
play list
temp erature
session s
ĠAN D
oot strap
At tention
Ġretrie ve
Cur rent
los ses
ouch er
riend ly
Iq ProtocolEntity
ĠBeautiful Soup
J son
L A
T om
] ],<
f x
s wagger
v ised
ç ´
st it
Ġp riority
ĠD ash
Ġg ithub
out s
Ġres olution
ise s
op ener
ĠH E
open ssl
Ġ[' _
Ġinitial ization
äº Ĩ
Ġday s
icip ant
è¿Ľ è¡Į
. /
N a
P ACK
Ġt xt
Ġt imer
ra zer
ĠT orch
Ġ' ',
ay s
sc roll
config ured
Ġwh ose
son g
Ġadd s
ĠRE AD
mut able
ĠRed is
Ġpaddle hub
smo ke
Tri al
) ",<
B LOCK
C I
P H
T ASK
j peg
Ġ" :
ĠS Y
ĠL ayer
Ġde leted
to ml
rit ten
work s
Ġpre process
Ġadd resses
Man y
Col lector
WORD S
% %
Ġf un
Ġn one
ĠS anic
Ġcon structor
Ġex og
ĠR L
AR M
ard s
Ġlog its
Set up
Ġ"" ,<
dig it
cell s
ĠAss istant
CUR R
Ġsq rt
Ġgluon cv
ĠWS GI
ensemb le
) '<
F OL
c assette
d y
g allery
p asses
s id
Ġ Â
ot a
ĠT ry
Ġ1 23
ĠE T
nt il
op idy
ff i
RE F
En coding
ĠDef ine
Ġnormal ized
T ARGET
j ac
at o
le et
Ġp ush
un ded
ig ma
Ġd arts
ĠS entence
ch allenge
ĠA ut
Ġ1 0000
() ),
Ġap prox
pk l
åĬ ¨
vest reamer
/ "
4 02
C lick
N ER
T AG
V O
a verage
t as
er ial
Ġm id
ch dir
ĠA bu
"] ]<
ĠĠĠĠĠĠĠĠĠĠĠĠĠĠĠĠ ĠĠĠĠĠĠĠĠĠĠĠĠĠĠĠĠĠĠĠ
Ġpython forandroid
Ch at
register ed
Ġport folio
Ġrender er
AND ARD
READ ME
integr ations
S ql
i am
à ²
re ward
Ġf ire
ot ed
get text
ĠO ut
sh uffle
Ġal tern
Ġwork ers
assertIs None
WOR K
èĩ ª
ĠSca py
E stimator
M OT
h ard
v acc
é ¡
Ġ radius
al lo
Ġres ize
Ġversion added
Ġcomp arison
Ġclient s
ts v
ild card
Ġlevel s
spe ak
Valid ationError
Ġmap s
basic Config
Ġtrack er
ĠApplication Gateway
Ġdig est
desk top
4 03
D Y
P rivate
Ð ²
ĠE RR
ĠE nsure
env s
EN CO
IG H
server s
Key Error
FI EL
ĠConfigEntry State
SET TINGS
Ġview s
Ġconsole me
dest roy
B o
F uture
T LS
f lip
h am
m c
t re
th ers
im ing
ĠE lement
Ġor ganization
LE TE
av ig
[: :-
ä» ·
ĠAs sertionError
glob als
Ġcomput ed
Ġep isode
B OT
F actor
s andbox
re cv
Ġt runc
Ġc at
ra se
#### <
Ġ* ,<
max size
Run ning
è® ¾
Ġur lopen
Ġwidget s
éĢ ļ
Ġsched uler
b nb
m ixed
p ic
w rong
ro i
as m
Ġin verse
Ġo m
Ġto day
con an
Ġe cho
ĠB ig
.. .")<
ĠCon d
Ġpl an
source forge
201 1
An alytics
dif ferent
SH A
uplic ates
vers ation
B N
T CP
e os
t oc
w ers
é Ļ
Ġc uda
Ġs qu
ĠM ask
Ġh our
ĠP open
Ġpro ducer
Ġv s
Ġget s
ĠAn alysis
man n
') [
match ing
ĠUser Profile
evalu ation
ç¨ ĭ
> '
G en
H yper
S ummary
c mp
y te
re play
re plic
Ġf urther
Ġb order
co untry
ra structure
Ġ( {
:` .
Ġmem ber
PR OTO
Sh ow
Author ization
Or ig
Ġbig chaindb
van ced
G N
re pos
st ub
Ġde ps
key words
vi a
read lines
Ġen ough
Ġgener ating
Ġ200 9
Ġgo al
Ġiss ues
ĠLOG GER
åī į
Ġzi pline
M AR
T V
g ather
h alf
r strip
s ym
å Ł
å ¦Ĥ
Ġd ual
per l
pro d
Ġpy plot
ĠE VENT
IT ION
com ing
soft max
Data UpdateCoordinator
que ues
max imum
Ġline width
Ġhas hes
loc ator
Ġli vestreamer
Ġident ifiers
åĲ Ī
éĹ ´
GRO UP
İ· åıĸ
( ...
) \
F D
S hould
U ntil
p unct
æ Ĭ
un ion
to k
ĠE l
ĠE mpty
ĠB oolean
ĠRe ference
Ġerr Msg
prec ision
aut odoc
å¤ Ħ
Named Tuple
Temporary File
SUPPORT ED
P ower
z A
é Ľ
ur ations
ĠS mart
ul ary
ack ing
Ġl arg
Ġde dent
Ġst uff
Ġun pack
ĠB it
Ġch k
Ġdate util
Ġpubli sh
Ġsent inel
Ġunique ly
ĠDep endency
ĠAc count
ko vid
Ġlaz agne
* <
G iven
n y
re id
Ġt en
ent ly
Ġo thers
ĠN ow
ay es
Ġ_ ('
pro cesses
Ġx s
pect ral
run s
Co unter
dis k
'] [
Ġgener ation
Object Type
Ġauto generated
Ġqu eries
dec imal
Ġtar file
ä¿ ¡
ĠRaise s
L F
i pt
i ents
è ±
ħ į
ĠG iven
ĠO P
Ġse c
ST REAM
Data Set
min utes
De ferred
FA CT
LI MIT
Info Type
Ġlong er
CRE ATE
dec ay
fin ished
initial ized
gradi ent
âķĲ âķĲ
C D
D irect
S mo
v aex
y e
de comp
Ġs ol
ĠL ambda
ĠP EP
to uch
Ġe q
Ġos p
ĠV AL
pen ded
Base TestCase
ors kip
riter ia
Ġman ip
Ġplatform s
Cl uster
sql alchemy
ient ation
sn ippets
Ġbound s
Wh en
DIS COVER
@ :
E ffect
T T
k g
p acket
st s
st em
it ype
ĠC U
ĠH ere
ire ctories
Ġ` .
Pro ps
TR OL
Ġinter active
Ġdif ference
custom er
predict ions
short cut
ĠTrain er
Ġconflict s
= __
N EL
f qon
n obs
in ing
at ched
Ġb roadcast
Ġm indsdb
ab et
ist ence
ft max
ĠR FC
pre vious
PE G
ari py
over flow
Ġsign als
Ġinitial ized
ucce ed
HER E
Ġconsider ed
Ġstar lette
ĠDiscovery InfoType
ĠLa TeX
C AS
T ab
t qdm
ed Model
An aly
Ġaut odoc
fr ac
Ġgl yph
âĸĪâĸĪ âķ
ĠStat us
IMA GE
å¼ ı
ĠBl ueprint
b undle
c am
s as
Ġf allback
ap sed
key vault
art ist
Ġres pect
Ġse m
For ward
Ġserial ized
limit ations
ĠZ ero
Dis patcher
activ ation
Ad am
Det ector
rece ived
PLAT FORMS
ĠCl uster
ĠPLAT FORMS
c riterion
g ain
o urnal
t cp
ã ĥ
å İ
Ġ âĢ
Ġc rop
ĠS ched
tr uth
ĠP IPE
mon otonic
LE AR
serial ized
DO C
Ġstart s
ĠST OP
DATA SET
RES PON
transl ate
high light
çİ °
ľĢ è¦ģ
Ġopens fm
L IC
P anel
c u
i j
j ar
p ix
t ions
u a
é Ŀ
ar ing
Ġo k
ra vel
is ing
ĠS upport
up dates
Ġtest models
Ġcon verter
ĠB ad
soft ware
ĠEx it
Ġsh uffle
dis criminator
Ġtr ace
Operations Mixin
wrap pers
Gener al
ĠTrans action
Sc ene
Ġdig its
e led
k ill
m oth
Ð »
Ġc apt
Ġre v
Ġd ialog
ack ed
Ġst mt
com mun
Ġj s
ĠCon trol
Ġproject s
check er
=[ <
ĠService Bus
ĠFunction s
mot a
æĿ ¥
K it
S ite
d ic
y thon
Ã ¶
se en
ro utes
ar ket
ĠT V
Ġl ru
Ġ1 99
pro g
Ġpy gments
ma int
cor outine
Ġurl encode
environ ments
IL INE
lat er
Ġtf learn
ĠĠĠĠĠĠĠĠĠĠĠĠĠĠĠĠĠĠĠĠĠĠĠĠĠĠĠĠĠĠĠĠ Ġ
QU ERY
Ġsystem s
duc ed
estim ator
experiment al
è± ¡
P rint
u ck
ic it
lo it
ĠC F
Ġ' ../
Ġde signed
par dir
arg types
sub dir
Ġfunction al
Request Handler
æľ Ł
Ġlanguage s
annot ation
Ġow ner
implement ation
C ar
F irst
n ms
en et
"" <
Ġimport ing
Ġs ong
Ġ' +
im a
gg ers
Ġe quivalent
ĠB oost
lock ed
Base Test
pos itive
Ġparent s
ĠMy SQL
ĠAl low
Ġbl ack
**************** ****************
ĠMod ified
A ttributes
D ATE
b es
n u
} _
Ġw s
Ġtest ed
ha ve
Ġpro cessed
lib c
IT ER
Ġ: ]<
([ ],
format ted
Ġen codings
Ġ/ =
AS SI
be at
Ġ| <
Ġman agement
Ġvol ume
AG ES
Log in
ĠPer l
Ġcap sys
tra st
Ġproto buf
ĠAir bnb
è¾ĵ åħ¥
( ",
D D
P air
b order
b idden
t ml
Å ½
Ĥ ¡
Ġc c
um b
Ġde p
(' <
ĠW ord
sp ired
velo per
my jit
tool bar
Ġcontext vars
HO LD
ĠBase TestCase
(* ,
vid ing
è¿ ĩ
ĠReg istry
CRIP T
WIT H
PLAT FORM
/ ')<
[ (
n or
à ¤
Ġc ent
co ef
() :
ĠSe lect
code d
pre process
ĠOpen SSL
dat as
Group Preparer
jit ter
keyp oint
åº ı
å° ı
Ġsimp ly
Clean up
S IGN
m r
in i
er ts
le ast
al ready
Ġre cent
Ġb ins
ce ed
ict ure
ĠUn less
Ġback ward
Ġstd in
Ġpredict ed
product s
cogn izer
Do es
æİ ¥
å» º
ĠÂ ©
> ################################################################
R F
W ID
r ypoint
s aved
} _{
è ĥ½
Ķ åĽŀ
Ġf amily
ĠM issing
ĠM etadata
Ġde limiter
ĠB ert
pon ent
Ġal ph
Pro vides
lin eno
CO MPLE
ĠWork flow
MS G
PR OP
Ġlimit ations
track ing
Ġauthentic ate
REQUI RED
Å½ Å½
( """
B ad
V ec
[ _
] })<
_ %
y label
} -
} ",<
Ġm b
Ġas sets
", "
ip v
Ex ist
ard own
Ġcan vas
Ġup grade
split s
ĠSer ial
off er
wit ter
Ġmo use
Graph ics
vari ants
expand user
AI LED
Ġdescri bed
UNK NOWN
ä¾ ĭ
æĪĳ ä»¬
/ ?
l b
p ur
à °
ar sh
ut ions
Ġb az
ĠC PU
ĠU I
################ ########
sp iders
Ġcomp ression
we ak
(_ ):<
è¿ ĶåĽŀ
perim ents
Sign ature
So ftware
FIL ES
Ġent ire
Ġpack aging
æĸĩ ä»¶
Wait Until
PPR INT
8 08
> .<
G PL
P ACE
S uccess
a ro
b ing
as y
Ġp en
Ġre store
Ġthe ta
ĠP RE
ve hicle
Ġg ooey
ha vior
ss ue
Ġe ar
ang ing
Ġap pro
([ (
Ġpre trained
Ġper f
rt d
Const ant
ĠSc ript
Connect or
Tw ins
ĠConst ant
may be
Ins ights
chanis m
E nc
_ )<
a ggreg
d en
y ellow
ed ger
Ġo ps
il s
ĠC SS
Ġr c
ĠV ocab
Ġout side
not e
Ġ4 04
Ġal ign
Ġsp an
Ġtrain ed
EX CEP
aa aa
Metric Provider
Date time
Sim Procedure
Ġexplicit ly
estion Answer
äº¤ æĺĵ
G D
h atch
h ance
at tention
Ġc la
Ġn a
Ġn or
Ġw ave
ĠS C
ĠL R
ha el
iv ing
ĠH LS
ĠU UID
comp ression
Ġk afka
Ġint ended
Ġsub set
Ġ[" _
En abled
gr r
Ġ". /
Qt Widgets
As sertionError
ç» ĵ
Ġsam translator
los ure
Off set
ĠIncremental Encoder
Ġexact ly
L ex
M ON
| <
an cy
Ġo meg
import orskip
ch r
ĠA LL
ver bosity
Ġe th
Ġme ant
ast e
Ġsub classes
assertEqual s
Ġcom ments
present s
ĠModel s
Per l
Train ing
scal er
ĠPR IORITY
Integer Field
estionAnswer ing
B ert
c rawl
p run
p rise
r anges
ge s
Ġs ound
lo om
Ġn an
il ers
ul ates
Ġe fficient
pre processor
Ġint ent
Ġpl ain
Ġrequest ed
Ġinter act
Pre sent
Flow Handler
Ġconv olution
SER IAL
ĠIncremental Decoder
METHO D
C ENT
b and
m x
al ive
an ded
Ġf requency
Ġre levant
ĠM ap
ir is
In ternal
Ġab ort
AS H
uff ers
sens ors
rest ype
33 33
Raise d
ĠĠĠĠĠĠĠĠĠĠĠĠĠĠĠĠĠĠĠĠĠĠĠĠĠĠĠĠĠĠĠĠ ĠĠĠĠ
Struct ure
Teacher Test
ĠNum Py
ĠAx es
å¤Ħ çĲĨ
> ========
F ree
Ł ¥
ro gram
de scriptor
Ġn pt
() ),<
ĠR ob
te am
ĠPy Py
Ġup load
Ġinter polation
("/ ",
Ġback up
Time stamp
Ġreal m
æł ¼
Timeout Error
F eed
W ER
] .<
b rightness
p ag
en a
Ġc red
ic ket
Ġw heel
ass ignment
ĠS end
id le
Ġto uch
ĠF ortran
AT ING
Ġunder lying
") ))<
min imum
UR I
ey e
ng inx
download s
PRO JECT
sn ippet
pred s
åĿ Ĺ
?:// (?:
éĽ Ĩ
A MP
Ð ´
Ð º
è Ĥ¡
Ġs ing
ĠT P
ĠT arget
id ata
pro blem
Ġ-------------------------------- --------
Ġsc ikit
cond itions
lat in
HO OK
Ent ropy
off sets
Ġgre ater
ĠDE V
ĠMO DE
æĹ ¥
æī Ģ
FOL DER
maint ain
b rid
o ice
er c
ic o
Ġn ginx
Ġas pect
Ġdef initions
tr l
ĠI ot
ĠE mail
ĠU sing
oin spection
Name s
cover ed
WE B
ĠMethod s
1 99
C alc
C ertificate
D jango
E MAIL
U AL
V C
f ingerprint
m id
z zy
as ca
Ġf obj
Ġin place
Ġd d
Ġd r
Ġ""" ,<
ĠG rid
yp ass
ll ing
ind ic
ust ed
client session
>> >>
led ger
mit ted
Ġcur r
AD ATA
let ters
lif ied
skip If
part itions
RES ET
limit s
ĠMan ager
att ach
åĽ¾ åĥı
W H
e ast
s ince
le e
Ġf our
Ġre strict
pt ime
id ential
ir y
Ġwh ole
ĠDe lete
arg parse
PD F
map per
Ġstate ment
Frame work
ĠStr uct
ä½ ľ
}. {
PAR AM
Ġ:: =
. +
G PU
g pus
x label
se crets
in trins
de scribe
Ġn oinspection
ĠP rint
EN AME
Ex pected
sub set
Ġparser s
prefix es
Ġpr ices
Ġfn match
Ġlet ter
ĠGo od
( .*
C ard
V M
V ari
b ob
e er
n py
o ct
r nn
co in
ĠA lembic
py gments
ill ing
Ġ201 1
Ġ{} '.
comple ter
igital Twins
Ġdebu gging
A ctor
P ick
a ud
c ing
m all
p in
ion aries
ĠC ertificate
() }<
Ġpro viding
ĠE d
kw ds
Ex ists
Ġint ro
mod ify
fail s
assertIs Not
Ġevery thing
"} }<
åŃ ĺ
builtin s
ĠConanFile Reference
MEDI A
C riterion
D iag
S F
f tp
f unctools
l and
n v
u ge
Ġ 00
Ġc ha
Ġp alette
is y
ĠS H
om bu
() `
Ġun ified
ow ns
com ments
Ġwh ite
client s
Ġread s
Ġtensor s
go v
tutorial s
( %
P acket
o od
in herit
"" ,
Ġc ategories
as n
qu ad
Ġh ankcs
ĠF igure
00 2
Pro gress
const raint
tro ls
mod ified
git lab
predict ion
Per missions
acon f
Ġder iv
ENCO DING
. ".
L ast
O Auth
n am
p ent
è µ
re presentation
ĠT LS
Ġh opper
iz ard
() .<
ib ly
Test Model
Ġro ut
ĠV ideo
AR GS
Base IE
state ment
UN IT
Valid ate
DEV ICES
å¯¹ è±¡
CU DA
Ġcer tain
f use
i ot
p ublish
s b
u df
Ã ¼
å ģ
re search
st uff
an n
## #
ject ion
Ġbe am
sp atial
Pro ducer
UT C
Ġinter preter
Pl an
Group s
normal ized
Ġmon th
free ze
å° Ĩ
Exp and
Ġps util
ĠPAT H
COMMA ND
) **
S ort
Z one
d pi
in et
re a
Ġt amp
## #<
Ġb i
Ġ( [
ul ating
ver ity
str ftime
ĠI MA
() ["
ĠE nd
url parse
Ġx f
Ġme mbers
ang ular
pect rogram
mo use
mon go
Co uld
Ġaff ect
ä» £
ĠSp ider
å¤ ļ
mut ation
ĠInter val
Ġtheme s
ĠOr ganization
}: {
^^ ^^
ĠGen ie
Ġidle lib
1 12
P ose
Z ero
f la
f ortran
k l
p rior
Ġ åĪ
re tty
Ġc lock
Ġs ampling
([ ("
Ġpass ing
Ġnum eric
ere lease
ref lection
Ġgener ates
Ġmin im
itor ies
CA DE
GR R
Ġbound ing
Ġleg acy
Ġatt ach
ĠComple x
Ġtamp er
" >
B R
M IS
S WITCH
T ITLE
b attery
Ġ 99
Ġs ampler
ĠM obile
ĠP r
util ities
Ġro ute
num s
IC ON
MA N
ĠPro file
join path
Ġurl join
Ġcom bine
flow s
Ġext end
Ġmat rices
Ġtri o
Ġsm art
ĠOther wise
leet speak
1 25
4 56
m v
s udo
v oc
Ġc e
ĠS park
con structor
oc al
Ġth ing
Ġe qu
ĠB L
add ons
=' /
Ġco v
DE X
ĠAdd itional
ĠAzure KeyCredential
Ġpos ix
ATTR IBUT
cy thon
override s
Element Tree
åĬ ł
Ġindic ating
recogn ition
Rout e
catalog ue
' m
= ("
_ [
b pe
c ity
e ck
j p
å ±
Ġc d
Ġf ully
Ġd ense
pe ated
Ġas signed
age s
Ġ2 000
ĠD ynamic
Ġg ive
Re po
Ġpy arrow
Ġext ended
') ])<
Pre trained
ĠST ANDARD
CS V
Ġappe ar
ĠDesc ription
B ind
a ugmentation
r ink
é ľĢè¦ģ
Ġp anel
Ġs lot
Ġb ook
Ġ' )<
tr unc
int o
im s
ĠF AILED
Test Base
ĠR aw
=' ',
IC AL
not ifications
Ġwork space
Ġpl ayer
level name
ĠK e
bl as
ĠHTTP Response
CON TENT
ose f
Dis play
Ġph ase
ĠMan aged
Sec ret
Ġdiag nostics
Ġanaly ze
. %
. \
1 02
> ")<
E B
G ame
M ix
R T
d arwin
m os
Ġp ot
el net
ĠM ode
Re trie
com munication
:// {
Ġget Logger
ĠR el
Ġch oose
arg max
") :
di alect
gr pc
Ġman ifest
ĠEvent Hub
Ġconf irm
åº Ķ
> ---<
F UNCT
M F
b ash
b ridge
y u
se udo
on ts
Ġt q
an a
Ġp unct
Ġs co
Ġin spired
Ġb isect
__ :<
Ġw atch
and b
Ġg tk
sc apy
http bin
ST ANT
Ġsp ot
sol ve
Ġ200 8
Ġflow s
CON TROL
TH RES
dif ference
Ġmo vie
tick er
entic ator
calc ulate
Ġhook s
NE W
Ġjupy ter
ĠGo yal
ĠHE AD
/ (?
: ],
P h
f airseq
at ar
re mo
an chor
Ġs ymbolic
Ġm nist
Ġ( ?
ĠS hared
th ings
Ġh ref
Ġ------------------------------------------------------------------------ ------<
pon ential
Ġk nowledge
ĠEx port
man aged
Ġat exit
UR CES
MP ORT
service bus
ĠPar lai
author ized
riv ile
last ic
Protocol TreeNode
Ġcomple tion
TI M
éĢ ī
Can vas
Ġpixel s
MULT ILINE
organ ization
C B
D el
D AT
H EL
H istory
P od
æ ĥ
Ġ ----------------
Ġc atch
__ ",
Ġw alk
ĠC ross
ĠD rop
ĠG aussian
ĠO K
Ġv ault
ff ine
Ġco lour
Ġte ch
Ġspec s
Ob j
Ġiter ation
go yal
non zero
ĠClient Error
ä½ į
BO X
ĠDep loyment
IGN ORE
Ġsymbol s
ĠInteg ration
ĠBack end
Ed itor
L ookup
P layer
R ank
W ord
W ave
b la
in place
ro bot
lf low
Ġf lat
Ġb p
ĠN UM
per m
Ġ_ ("
Re quirement
ff e
add itional
Ġ3 1
OR CH
ĠPro perty
stat istics
sub type
ĠK ovid
Ġcl aripy
Ġfl ush
wit ches
ins pect
Ġfast reid
Ġdetect ed
sen ce
Ġcook ies
è®¡ ç®Ĺ
) })<
L ess
P ickle
] ['
t gt
æ Ľ
è ·
he at
ĠS parse
con ch
Ġh a
Ġcon ven
Ġun load
IN ET
"] ))<
Ġz ig
ĠJ ava
Ġne ural
Ġu int
Me an
ph ase
depend s
gre at
38 4
encoder s
builder s
çī ¹
ĠCur rent
: ,
= .
C apture
L AB
P ayload
S CRIPTION
le ting
Ġc riterion
me l
as ctime
Ġm ixin
ĠT itle
Ġl udwig
Ġ1 50
ĠD irectory
ĠD istribution
res olution
Ġ0 9
so up
Ġpro duction
AR E
work ing
plot s
Ġarg v
An alysis
char acter
ph one
ĠURL s
ĠTrans l
... )
lr u
Tr acker
Cre ating
At tr
ĠCre ates
SPE ED
Conan File
D iff
N X
R ATE
T ES
h c
h istogram
in ventory
an sion
Ġp b
Ġw on
ĠA D
ĠA ttribute
ĠN ULL
Ġh params
Ġ- <
ĠF IX
form er
pro duce
ĠE mbed
ĠW ill
Ġob servations
Pro gram
Client OperationsMixin
pr imary
Ġcl one
Ġsee also
Th ere
Azure Mgmt
SU CCESS
lim ate
Random State
war ns
Ġindic ates
Fore cast
Ter m
CAS CADE
d rf
r idden
v ax
se lint
el come
ĠN ull
ĠD on
Ġde al
Ġg unicorn
Re lease
ĠCon f
Ex pectation
AN SI
start up
cond itional
over lap
Ext ract
Ġhand led
dec rypt
ĠInter face
ĠSqlmap Unsupported
C amera
G P
O ps
S W
c xx
s ns
w x
å ¥
Ġre corded
Ġreturn ing
ĠP ort
(" [
ss aging
po isson
not es
") ),<
ong o
11 1
Un icode
ĠKey word
ĠAB u
Iter ation
Ġtransl ation
Ġvert ical
Sched ule
analy ze
Ġsupp lied
ĠERR OR
ĠHLS Stream
/ #
/ _
G it
] "},<
h old
q r
Ġf raction
est ing
ge vent
pe t
is k
Ġget ting
ĠRe alm
cur r
map s
Ġat tention
met ic
dis count
Ġfil led
fl uid
author ization
Ġfree ze
Ġtrack ing
exist ent
Feature Exception
>[ ^
SPE C
PROTO COL
ĠSqlmapUnsupported FeatureException
- \
> ",
F it
T ED
e in
z lib
Ġ ?
re cursive
il li
ĠA ctor
ĠP ayload
Ġr ather
Ġ. /
ĠO ff
ĠE SP
Ġv env
ĠW AF
ax s
Data Parallel
mark ers
Ġattr ib
Ġoptim ize
>================ ====
UM ENT
Red is
Ġcel ls
="" ,
ĠPol ygon
) |
2 24
8 000
{ <
á Ĭ
me moize
Ġm aking
ch anges
ĠN AME
test case
Ġh aving
Ġg round
ON T
ĠH O
base s
Ġpre ferred
)) ],<
sche mas
bot o
ĠNot ification
tensor s
Ġkeep dims
Ġansible lint
Ġdecor ated
Util ities
SK IP
Ġrepl aced
I DE
U sing
_ ):<
c atch
ç ¼
co ord
Ġas semb
Ġ2 7
Ġun supported
ĠO peration
Ġch at
ĠJ S
ĠSt ore
Ġimp ro
Ġplot ting
çĶ Ł
mpro perly
Ġextra ction
ĠDis play
Aut om
Const raint
ĠTOKEN IZER
WID TH
mproperly Configured
" '
/ ~
D K
S oot
S ESSION
m w
s af
t len
z ulip
Ñ ĥ
in ct
Ġc ss
__ )
con current
Ġh alf
""" )<
ject ure
sc p
ĠW ritten
comp any
Ġj ump
lic es
mark s
Ġext ractor
ATE G
ne arest
comple ted
ORD IN
è¯ ·
Ġmon key
Ġprotocol s
Ġcook iecutter
Act iv
ĠInit ialize
Export er
Ġcombin ed
ĠTri al
tlen eck
P K
] "<
f our
r ant
s ses
t gz
in y
Ġc ircle
Ġimport ant
Ġf acade
Ġ" +
ex tras
ĠS IG
Ġg uess
ump tion
col lector
Ġ` ~
Ġpl aces
qui et
Ġcom ing
sub scribe
Ġso up
Ġdo ing
Ġshould n
Run time
Valid ation
EP S
ĠABC Meta
ĠDevice Info
pie ce
/ ",<
C opy
P attern
U tility
b ust
e lf
i us
z oom
ð Ł
ro ke
Ġc um
me son
Ġre plic
Ġs ocial
Ġin line
Ġm l
ad just
ĠI E
file handle
file encoding
Ġe ig
ĠR ad
In f
uto ff
we ek
Ġpre condition
uc er
`` .
Up load
ĠData UpdateCoordinator
dat aloader
09 6
Ġlimit s
IF Y
free desktop
scan ner
rot ation
Ġexpression s
war ded
ĠInit ial
concat enate
Report er
forecast ing
è®¾ ç½®
C alled
P ublisher
s lider
æ ģ
at ty
de li
Ġc ard
Ġs light
Ġas ynchronous
ch ors
ĠT H
el ery
Ġ{ },<
lib raries
ĠB uffer
ip ient
ew ee
sp ot
cor r
ĠPro gress
OP TION
lip se
gre es
signal processing
Ġdec rypt
att n
MET ADATA
è½ ½
hour s
>################################ ######<
Ġma jor
contain ers
CURR ENT
shortcut s
asca de
C CE
Z ONE
d irectories
u lo
æ ı
se gments
er ta
Ġc ut
Ġp ure
Ġb rightness
ĠC L
ĠT otal
ĠM ore
Ġde serialize
Ġstr ategies
DE P
25 0
The se
loc ations
rest ore
web io
ĠWeb hook
IGN ED
Head ers
ane ous
è½ ¬
QUE UE
Ġrespon s
> ########################################################################
E K
] ')<
` )
c nn
h ue
Ð ¼
Ġd ates
ul ations
ĠL egacy
and res
Ġg ra
(' ../
Re corded
red uction
IC T
ĠRe port
Ġch alice
CH O
PE CT
Ġbase name
Man aged
[: ]
ĠRun time
åĲ į
istics Types
Ġdump s
tour s
Act ivity
squ ared
éĿ ¢
) `.<
> ',
C AL
F ROM
N OR
l it
t ts
u func
ç «
Ġ çļĦ
Ġn x
Ġd pi
__ )),
ĠM edia
tr im
Ġh mac
Ġh orizontal
Ġlo sses
AT ES
arch itecture
db t
ĠAuth entication
TEST S
Function s
åĲ ĳ
mk dtemp
ĠLO AD
Part ition
ĠRO OT
ierarch y
assertIsNot None
A ggreg
D UL
I con
d x
u sion
Ġa lembic
Ġp od
Ġf t
ge o
Ġs olver
ur ser
Ġd x
il ename
ĠT EMP
ĠP os
ĠP redict
im m
pl ash
Ġv cr
assert Excel
Ġse n
ĠDe ep
Ġper formed
Ġtrans fer
)) ]<
block ing
Def ines
ĠsetUp Class
Ġconst raints
ĠNOT ICE
curs ively
mac ro
partition ed
BL UE
Ġabsl test
ç½ ĳ
Rob ot
sca pe
WINDO WS
quick start
LEAR N
Ġomeg aconf
Ġtq sdk
assertExcel Equal
G RE
R o
R ate
V i
d ark
x path
Ġ= ================================
Ġin fer
Ġm argin
ĠC alc
#### #<
ol ar
ĠM S
Ġl m
art beat
ER O
Ġname ko
AT T
AT URE
pytest mark
ĠUn known
Ġinst anti
Ġ[' -
Key Vault
Ġtr im
åı ĺ
ampl ers
ĠSp an
Inter rupt
cogn itive
padd le
deprec ate
Perl Package
G G
P op
Z ip
e lif
g cp
s ymbolic
x avier
| \
Ġc are
Ġc ancel
Ġf lip
Ġd l
__ [
ĠS SH
ĠA lert
tr an
Ġe lem
ff mpeg
Ġar ctic
Ġpar agraph
Ex ecute
fil eno
Data Loader
Ġspec ification
Not ImplementedError
ï¼ Ī
An notation
Ġinstall ation
ĠWork er
Ġdb t
Ġtri als
Ġnetwork s
PRE C
database s
pipe lines
Ġ------------------------------------------------ -----<
uit able
vul n
Ġmkdir p
ĠDatetime Index
ĠFI LE
> ')<
H IGH
P ers
R PC
T urn
] }
c andidates
p al
s ampling
s ymlink
y un
ic les
Ġf r
Ġre load
import lib
pe p
ce an
ĠA v
Ġr anges
add Callback
trans ition
Ġ... ,
tribut or
ï¼ ī
wh at
Al most
Ġret val
Ġpredict or
ĠMo ve
ĠHel p
çŃ ĸ
) +
, '
O per
h it
r d
t ile
Ġc andidate
Ġp ub
ĠS hape
ĠS wagger
ĠT ypedDict
ĠN OR
ĠN ONE
Ġh istogram
ON LY
IN IT
ĠĠĠĠĠĠĠĠĠĠĠĠĠĠĠĠ ĠĠĠĠĠĠĠĠĠĠĠĠĠĠĠĠĠĠĠĠĠĠĠĠ
sp read
DE T
ĠX XX
mock s
Par am
Ġsha res
gener ation
token ize
Set ting
ran ches
Ġimplement ing
Stat ic
Hel p
ĠName Error
Connection Error
Ġmark up
By te
Ġph one
He alth
Method s
ĠReg ression
çĽ ¸
ĠIO Error
ĠStat ic
PROC ESS
åĨ ħ
ĠPandas ExecutionEngine
Ġattemp t
ĠTemp orary
Evalu ator
scr atch
) ',
A ST
U ES
] ])
h anlp
m al
y a
Ġf c
ur k
ĠT k
pl aces
IN VALID
ĠSe quential
Ġme mo
Ġk ombu
Ġbase s
ĠData Set
FA IL
transform ations
ĠHTTP Error
ĠAzure Mgmt
SA MPLE
parent s
Ġoff sets
END ING
Sp an
Api Client
report er
network s
Date Time
Ġestim ate
FIL ENAME
æ¨¡ åŀĭ
ĠOptim ization
Ġcal endar
Ġdeploy ment
rian cho
Recorded TestCase
] _
å ĳ
on gs
re corder
un tries
ex pl
Ġm iddleware
ĠM L
ĠF rozen
ĠI ns
Ġst ores
ib o
ĠH ost
vi ation
ME TR
ĠPro blem
min imize
Ġcom mun
12 0
cre en
Ġsp atial
xx x
install er
Ġtool bar
Ġskip ped
oot er
Ġcalc ulation
WAR E
ĠHel per
pm f
au ge
ĠMutable Mapping
ĠAut om
C NN
O pt
S entence
U ME
x lim
y axis
á ī
Ġt ail
le af
Ġc rawler
ct c
is olation
ĠS K
EN CE
Ġco untry
pack aging
ml ab
cor o
cor s
Pro vide
pos itional
ok ed
obj s
201 0
Ġover lap
off line
Implement s
ĠAN SI
ĠĠĠĠĠĠĠĠĠĠĠĠĠĠĠĠĠĠĠĠĠĠĠĠĠĠĠĠĠĠĠĠ ĠĠ
Sp hinx
Task Set
Ġoverride s
Iter able
expression s
power line
delet ed
Order edDict
icip ants
Ġpur poses
bal ance
CHAN GE
Ġrm se
oment um
Ġhapp en
Gre ater
Analy zer
ĠParlai Parser
I US
I ZE
M ath
` :
g ym
g ba
j ax
m g
s yn
ar range
ic ol
__ ("
Ġ' \\
ĠB ug
Ġx array
ĠR ole
ĠH ub
pre p
we e
min al
Base Command
che st
av es
mock er
PL ACE
Ġdiv is
Ġauto gen
Reg ion
lex a
dest ination
ĠTrain ing
Ġchain er
autom ation
ç¬ ¦
ali ases
Decode Error
E DED
F ull
H AND
Q N
] ):
p il
st one
ge om
Ġd istributions
Ġ( _
Ġ1 80
ĠG ot
Ġpro blems
ome tric
Ġme chanism
fo x
ifi able
ĠRe po
Ġlist en
Ap proval
16 8
Ġvalid ators
Ġmin utes
Ġfilter ed
like lihood
AG ENT
go ing
optim ization
Reg ressor
QU AL
Det ection
prob ability
Ġestim ator
Ġenviron ments
oooo oooo
æĥ ħ
> ###############################################################################<
B RIGHT
F FIX
Y AML
g ift
Ġc ereal
pe er
ĠS ame
ĠM ultiple
ist ers
par ty
Ġco ords
Ġal go
Ġproject ion
Ġsh utdown
Ġtrans ition
ĠAr ch
)) )
Ġnon local
Plugin CanHandleUrl
Ġgo ing
Ġsn ippet
ĠExpr Id
Mem ber
alet tes
rot ate
Ġcomment ed
çĽ ®
Ġfixture s
ĠHe ader
åĿ ĩ
ç¬ ¬
$ ',
( ('
/ '
H R
V irtual
m time
t ip
Ġ gs
de que
Ġc a
Ġc irc
Ġs ns
Ġin c
ĠS ync
Ġl s
ap prox
back bone
** :
12 345678
List ing
Ġback ends
Ġserver s
åĪ ¶
Ġfin ish
Ġplay list
Ġspecify ing
Cur sor
Ġvert ex
æĸ¹ æ³ķ
Drop out
Ġaltern ative
Direct ive
Ġnginx proxy
) -
B GR
D AY
M C
S cope
V ariant
\ "
e lem
g cs
n oop
se quences
Ġ( ...)
um id
ĠM AN
ĠM ike
ĠP ER
00 02
Ġst aff
ĠH igh
inter section
cs rf
dis connect
'] ))<
Ġac c
Ġindex es
Not Exist
err no
temp file
åı £
ultip lier
cat ter
Ġqu ad
aa a
multi part
kernel s
Ġsn apshot
ĠReg ister
Ġpol y
Ġpur pose
Ġrepro duc
Ġvul ner
RESPON SE
Ġslight ly
D b
T K
T XT
e gg
r p
è £
ro tt
ar mon
Ġc andidates
ut t
Ġin tern
Ġto x
ĠN E
ĠP AR
Re v
ĠB O
pect ive
ĠTest Model
ĠAr t
Ġindex ing
compat ibility
Pre processor
SU FFIX
Per iod
åĲ Į
ãĢ ģ
Ad visor
Ġsuccess fully
ierarch ical
AUT O
FIEL D
DISCOVER Y
* =\
D ump
S afe
W RITE
c us
d og
y our
Ġ vec
-- -
mp ath
al go
Ġp p
Ġb andit
ĠS ize
ĠS hare
py yaml
Ġ[ ('
im od
Ġpro selint
"] ),<
Ġco e
AR I
mon keypatch
IG IN
Ġim mediate
Base Exception
ID D
av icon
LO AT
row d
ĠUn it
Key List
{} .
fl ask
It Should
åı ª
200 1
Ġed itor
estim ators
ĠStream Writer
ĠGit Hub
Predict or
vacc in
Almost Equal
C ALL
L ES
S lot
S hape
] \
h ide
j oint
l yph
at ypes
de ad
al ways
Ġc t
Ġf g
lo udf
Ġb g
Ġfor ecast
ul um
od o
test ation
type Str
EN ER
AR G
Ġconfig parser
Ġsc atter
rain ed
Ġcomp ress
web driver
>""" .
Ġchar s
rid ing
Le ft
Le arning
Ġconf test
Ġrelease d
æį ¢
}) "<
Ġarch itecture
ĠStream Reader
Ġmanim lib
Deprec ated
RDF Proto
RUN NING
Ġvisual ization
Alchemy ExecutionEngine
avig ation
ĠCU DA
D river
E dit
K w
O s
k lass
é ĥ
in o
st ation
Ġa gg
al ty
an cer
Ġf ac
Ġm opidy
pe ctor
ĠT CP
ul ative
test er
Ġex pl
Re ason
ĠSe cret
ĠThe me
SE CON
sp ans
met ac
Ġinst antiate
') ),<
34 5
ĠPar am
ECT ORS
Ġmet aclass
Cre ates
Ġstride s
Notification Service
hr mann
N L
S hare
c isco
f ellow
s imp
u str
er ce
re h
as hed
Ġp ress
Ġb ridge
ĠS can
ĠL if
Ġtest ItShould
Ġde comp
ĠF uture
ĠF Ã¤
Ġpy tz
ĠB U
ĠB Y
Ġres olver
Ġdata path
Ġv i
assert AlmostEqual
ĠR B
ys ical
read me
API View
Ġimplement er
Ġmin or
order ing
mode s
Qt Gui
Ġpop ulation
ĠPer mission
ĠIndex Error
Ġmerge d
direct ive
ĠMark down
Detail s
Ġcr ash
ĠGood fellow
æģ ¯
ĠFÃ¤ hrmann
) },<
A lias
M utation
b ra
w o
y brid
Ġc f
Ġc lf
un link
ĠC ircle
ĠS hell
ile aks
Ġan chor
ĠM ic
(" __
Ġde ad
Ġg rammar
Ġv o
ĠR T
app le
ĠV irtual
size of
Ġsh ift
que t
'] )
project ion
ok u
Ġ200 7
Ġag ents
Ġserial ization
Ġlength s
limit ed
HTTP Error
Ġway s
Ġactiv ity
oci ation
~~~~~~~~ ~~~~~~~~
Mo ve
æ¨¡ åĿĹ
Ġsheet s
æĮ ĩ
Ġtol er
Ġzig py
RDFProto Struct
S orted
T imer
f old
m igration
ar p
as semble
Ġp rom
Ġs anit
ĠC I
ĠT imer
ĠL ive
qu ux
con currency
ĠM ac
form ula
Ġse curity
add ing
mon g
Ġspec ifies
DO M
cre ator
pos als
Ġend points
Ar n
medi an
Ġfast er
sn ap
Ġbl ueprint
Char acter
Ġlook s
Ġevalu ating
prop ag
ä¹ ĭ
Ġeas ier
çī ĩ
lide an
Ver ify
VID IA
metac pan
* :
U ST
g old
se qu
re ens
re lay
Ġf ragment
Ġre cur
Ġb atches
Ġb roken
Ġm ach
ĠO UT
Ġv d
ĠU til
Ġsc roll
ĠTest Object
St ock
Ġcan onical
Ġkey board
Ġkey words
ake over
fil ing
ĠPy gments
sheet View
Ġtry ing
vert ical
filter ed
sl ash
char ge
Ġsign ificant
ĠZ ulip
Azure Credential
ĠTime Series
>================ ================================
æĪ ĸ
Train edModel
Ġfont size
Dec orator
="" )<
ĠPY THON
Import Error
ĠOver ride
Ġbegin ning
' ",
A udio
B A
C md
D ynamic
b ul
i Data
r v
á ĭ
æ ±
ī ²
ut tle
Ġp m
ĠS ave
ĠM Y
Ġr u
Ġst ub
ag ers
Ġ% }<
Ġ4 5
DE LETE
ĠEx pect
Ġdis patch
inter polate
Ġdict ionaries
Ġus ually
Ġhttp ie
Def initions
Ġlocal s
do ctest
EX EC
ĠAdd ress
Inter val
As sert
detect or
Ġstage s
Ġincre ment
bbox es
Ġbind ings
ĠThread Pool
adapt er
ĠHow ever
C ipher
R ay
R AD
h op
l an
l ication
y outube
de e
Ġs v
Ġd cc
il a
ĠS cal
ĠS ummary
ap se
ĠF ull
Ġth ird
ir ation
ha i
Ġx r
add Cleanup
app ings
db ms
inter active
uc lidean
event hub
Ġu gettext
sl ack
ĠNot Implemented
generator s
mask s
CP U
ĠDis k
factor s
Pr imitive
Ġeas ily
Ġdown loaded
Match er
Ġder ived
Ġlin eno
separ ator
deprec ation
éĥ ¨
D ot
D agster
F R
I an
a round
h allo
m ach
o i
t m
} `
Ġ esc
ent e
ent ion
Ġn lp
ĠM ust
Ġun used
Er r
Ġe c
ĠB ASE
Ġse em
ĠR ect
Ġco ordinate
ĠU P
ĠU TC
** <
PE D
10 4
ĠX org
open gl
enc ed
Ass igned
Ġdir s
SO FT
è¯ į
ĠExt ract
report s
fu zzable
Ġindic ate
zzable Request
launch er
incre mental
P AY
T a
Y Y
f riendly
i or
m di
w ill
in ery
at temp
ar ded
ĠC RE
ĠS w
ĠS plit
ĠM ay
Ġr er
Ġg ives
ĠF ailure
Ġst and
so und
Ġun iform
ib yte
Test ing
os p
ĠRe gex
unt u
Ġk v
St ub
param type
mat ic
ĠPro vides
Ġpre processor
ale or
Ġend og
Ġu v
=[ ],
Ġpr incipal
radi ents
Ġdirect ive
Ġhigh er
cook iecutter
Read y
Tr igger
fin der
Ġsepar ator
éĩ ĳ
ĠPLAT FORM
Dat aclass
MOT E
> ----------------
C SS
G u
b atches
c z
r fc
ro guard
he tic
Ġp ull
Ġf an
Ġn args
ĠC R
Ġ( %
ad b
ĠT une
ĠA dapt
Ġh i
ap ers
res ume
Ġv oid
assert Less
ĠH tml
ĠDe ferred
reg entry
min i
pos itions
Ġmake file
gt k
Ġtra iling
shap es
rm se
Expect ations
Ġol der
ĠDEV ICE
N ONE
g aussian
m igrate
p wd
Ġ Ã
Ġa ir
as r
Ġ" \\
un ce
li ers
Ġ' ..
im gs
ĠF unc
kw arg
') )
Ġread line
Ġ\ "
Node s
Ġ"/ ")<
Ġchar set
layout s
ĠEvent s
Ġdirect ives
Dis abled
fu sion
Ref lected
Ġeffect s
LIB R
ACT ION
Boolean Field
ĠSn ippet
asc ript
Framework Exception
+ <
5 000
B in
D T
D en
P en
` _
a emon
b as
m icro
s il
x FF
y lim
é ħį
Ġ â
Ġ -----<
in formation
Ġd types
pe ople
pt er
ĠD at
Ġde t
ĠF ire
ub ic
par ation
Ġun ion
url patterns
Ġget regentry
Ġse crets
reg ions
AS C
const raints
ĠJ ust
Ġcur ve
upy text
Ġtemp erature
Ġstream reader
Ġstream writer
err Msg
DF ExecutionEngine
FO UND
ç» ĥ
RA ME
åĬ ¡
LAT ITUDE
å¼ Ģ
Ġplace holder
ĠAccess Token
Ġwarn Msg
Ġcal ib
Ġincremental encoder
Ġincremental decoder
LONG ITUDE
structured text
) '
* ,
D C
G rr
N ext
S CRIPT
[ ~
e on
e very
s io
on line
Ġm icro
py arrow
tr acing
oc ation
ĠF ixed
Ġpro per
ork el
sp k
inter preter
av ascript
ä¸ İ
do or
Ġcolor ed
INT E
Ġweb page
ĠĠĠĠĠĠĠĠĠĠĠĠĠĠĠĠĠĠĠĠĠĠĠĠĠĠĠĠĠĠĠĠ ĠĠĠĠĠĠ
Ġcustom er
payload s
Desc ri
ĠDep ends
Codec Info
TA IN
CHAN NEL
çķ ¥
ĠSY STEM
urser y
Rev ises
H igh
W R
f ocus
y l
y aw
Ġ ub
at ives
Ġi de
Ġo cr
Ġm ixed
Ġto m
qu otes
Ġh ue
int s
00 5
Ġbe come
Ġun quote
Ġpro tect
ĠH andler
ST D
ari os
arg ins
Py Torch
Ġsize of
Ġ7 5
Ġsum marizer
alle st
arm er
protocol entities
è® Ń
fin ish
Ġpol ynomial
HEAD ERS
ĠContainer Registry
Ġvari ance
1111 1111
pixel s
........ ........
ĠFa ctory
ç´ ł
Ġcapt ured
PECT ED
imod al
ĠXorg Package
B it
P aged
P osition
S hared
S ucceeded
T ags
c x
i ro
r nl
v ox
en arios
ar ant
Ġp al
un i
Ġas k
ab out
Ġtest er
ĠD omain
ĠE NA
Con anfile
with draw
db us
ĠK eys
TR ANS
Ġmat ched
CO OK
Ġcontain ed
Response Error
az e
Ġact s
Entity Feature
Ġunicode data
liter al
Ġrender ed
Ġfeature tools
Ġpol ygon
bucket s
Vis ual
Ġff mpeg
amil a
Cor rect
dimension al
æ¯ ı
authentic ated
Vari ational
C orpus
F N
L STM
d n
d uplicate
h uman
Ġc losing
ut ter
Ġs ymlink
ce eded
ap h
ĠP attern
ĠG ET
ss ibly
Ġ3 4
Ġj itter
Ġk lass
Ġk ovid
Ġcomp iled
cs r
ne ighbors
actor s
pop ulation
Ġimp acket
88 59
Ġmask s
home kit
Ġsort ing
("" ,
è´ ¦
LOB AL
è®Ń ç»ĥ
: '
B ucket
P arent
U NA
W atch
_ /
g f
h p
j wt
j upyter
l z
re ply
Ġs io
Ġin ventory
Ġ( :
ĠA C
Ġh ist
Ġl ab
and ra
Ġ1 20
et s
ĠD iv
Ġg ray
able s
yp ed
yp df
user guide
ec ause
ĠRe ferences
04 8
Ġqu otes
Ġstruct ures
CA LE
writ ing
Argument s
PRE TRAIN
.* ')
Ġbound ary
cert bot
Ġinv oke
Auto TeacherTest
Ġdig it
Ġcomput ation
Ġexec file
ĠBlob ServiceClient
Home Assistant
Ġenc ryption
= """<
? \
M is
P ress
T ABLE
W W
a iter
f requency
k afka
t ell
Î ±
le ar
Ġc ipher
Ġre construction
Ġb ootstrap
ac u
Ġm anticore
ol ding
ĠG UI
ĠR ot
add Handler
EN ABLE
Ġwh o
Ġj wt
DE LAY
process ors
12 3456
ĠJ osef
ĠSt ack
CT ION
Comp osite
pol ynomial
ĠFile NotFoundError
Ġrepresent ed
Ġvis idata
bound ing
ĠDocument ation
Ġexecut or
Tr ack
éĩ į
FIL TER
å½ ¢
ĠSorted KeyList
$ ",
C ategorical
F eatures
G oogle
P ack
j ump
k i
s atisf
w ell
æ ¬
è °
Ġa ge
he mat
Ġp ause
Ġre versed
ent est
Ġs olve
ac f
Ġdef ining
ĠS igma
Ġl iteral
(" {
Ġ2 24
00 4
Ġnot ifications
ta iled
Ġpro g
Ġx x
Ġse gments
ĠR NN
ĠW IN
ens ive
CH R
10 3
cal endar
row se
Ġlog ged
Ġlib s
ĠRes Net
PL U
78 9
dat atype
pol ator
Ġconvert ing
ender s
è¯ ģ
ĠModule Info
ĠDo es
ä¸Ń çļĦ
att ack
Ġzero conf
"/ ></
Ġeps ilon
Av ailable
Fl ag
Ġremain ing
ĠTop ic
ĠFu zzableRequest
ĠTool kit
Ġsco pes
CCE EDED
> .
E nsure
G H
L ANG
M ac
N G
T otal
h orizontal
m argin
m usic
p w
w armup
é Ķ
Ġ utc
Ġp ie
Ġp wd
Ġb as
Ġm iddle
ĠC lock
ĠC ython
ch oose
Ġfor k
ith metic
int ypes
() ``
Ġx lsx
IC K
istr ies
aw x
Ġsh apes
act s
ud nn
Ġsp awn
gz ip
PAT TERN
Service Exception
Pre fix
pol ygon
ear er
Ġdisplay ed
ĠCommand Error
>================ ========
card s
Support ed
Ġph i
ĠCO CO
Label s
Ġsuccess ful
Act ive
Ġretrie ved
watch er
members hip
Change d
wee py
* (
: "
L ive
S mall
W X
b obs
g uess
h ap
k iz
k its
w ildcard
y t
Ġ ))<
Ġc i
me s
Ġre dd
ĠS tep
Ġ' *
ĠA SC
ĠL ast
qu it
pro cessed
art icle
ix map
vi our
mo stat
ME M
ber ta
ĠK ernel
Model Serializer
User s
Al ign
Ġmy py
200 8
æľ º
multi processing
Ġvar s
è¯ ķ
MPL ES
warn Msg
emon str
Ġlat ex
lap ack
Ġmeta var
Ġpyqt Signal
ORDIN ATOR
) }")<
] ",
c git
d raft
f ragment
v a
Ġt ax
al ic
Ġre play
Ġre corder
Ġs ucceed
Ġm ag
li ps
Ġ( `
ad am
ĠS em
ĠT IME
et he
am az
ĠI mp
able File
ĠB ut
"] ),
Ġ3 3
mat erial
ĠPy S
la re
ĠBase Command
Auth ors
medi um
ĠTh en
Ġmask ed
Ġge ometry
Per form
ĠPer kt
bind ing
Ġdecode d
hex digest
Ġpol l
ynchron ized
SP ACE
ĠConan Exception
ĠSc rapy
çĽ ´
âĸĪâĸĪ âĸĪâĸĪ
ivers al
å½ ĵ
Ġsegment ation
ĠAWS Facade
Ġsever ity
ARCH IVE
tic ket
é¢ Ħ
ĠSwitch Entity
ĠExp ression
ĠREAD ME
ĠPerkt old
, -
L arge
M I
M ed
O LS
c losure
g ate
k ely
m f
w id
re structuredtext
al erts
as pect
Ġp raw
Ġf lex
ad ow
id f
(' [
ĠI mproperlyConfigured
Ġex pires
sc ikit
vent ion
bin ux
ĠData Context
play lists
be am
ĠĠĠĠĠĠĠĠĠĠĠĠĠĠĠĠĠĠĠĠĠĠĠĠ ĠĠĠĠĠĠĠĠĠĠĠĠĠĠĠ
Ġback wards
Ġpos itional
Resource GroupPreparer
\. \
è¯ Ń
tz info
Long Tensor
Ġstack level
Ġhead s
Ġpe ople
ĠBinarySensor Entity
IFI ER
ĠRUN NING
ĠDist utils
ĠPe ter
Ġten ant
ĠSched ule
E val
k r
r sa
u er
x org
~ <
æ Ł¥
è ī²
re main
Ġm irror
ĠC alled
ĠS pe
ĠS ocket
ch rom
ate ver
ab i
Ġl inux
Ġr s
ri er
Ġun less
pre t
Ġcheck ed
vert ex
Ġext ends
15 0
Ġval s
Ġsum mar
ORD ER
WS GI
loop s
sv m
åħ ĥ
subscription s
pkg config
ugment or
"/ ><
Ġabs path
We ight
å½ ķ
Ġda emon
Binary Sensor
ĠBinarySensor DeviceClass
ĠIdent ity
TOP IC
Ġadapt ed
Ġappro ach
Ġce il
æĽ ´
Ġkovid goyal
! ')<
. ,<
B ATCH
f allback
g p
h opper
r um
t un
w est
at ively
ro uting
Ġa dapter
Ġa liases
ct l
es ome
ex change
ex pires
ĠT om
ĠL ookup
Ġan imation
th rough
Ġl xml
pro bs
ĠG RR
Ap ps
ĠUn ix
Comp onents
0000 000
ĠY O
Ġop ener
GR AY
ĠAuthor ization
ĠWeb Socket
respon dent
Ġaccept s
Tag Transformer
Ġsmall er
Ġ## #
ANG O
postgres ql
Install er
ĠEN T
wal let
ĠExpectation Configuration
Does NotExist
EXCEP TIONS
ĠFIX ME
ApiClient Mixin
ethe us
= "<
A gg
A udit
B V
D im
H H
I MPORT
M ut
R en
T ick
g if
o scar
v or
w as
ro ut
ar ches
Ġ" @
Ġd uplicate
Ġb and
co ordinates
ĠS cha
Ġto k
ab sl
Ġ1 01
com bine
ĠR ED
ĠV M
scri ber
Ġim gs
info s
ere po
call y
ud p
File system
ĠSt age
Ġhttp bin
Ġread able
oke mon
filter warnings
dev tools
fl ake
Ġgraph ics
Ġconf idence
rad io
ĠFl ax
Ġawx kit
IMA L
Ġpe ewee
____ ____
Over ride
Ġgu ide
å¹ ¶
ĠHash able
DUL ES
: {
> /
R ST
T k
W in
W idth
l c
q p
t Color
de legate
Ġc pp
ic ates
Ġs ym
Ġb roker
ass andra
is nan
ĠD ocker
IT IES
und o
") ):<
32 1
av id
clu ding
Ġman aged
US D
DI M
PL ICATION
req s
Event Type
has attr
37 9
CA SE
aut os
ĠLo gging
åĲ ¦
ä½ ł
chunk ed
ĠRo ss
analy ses
front end
amil ies
RESO URCE
ASSI STANT
keypoint s
ĠASC II
amaz on
ĠScha ul
" ',
( ',
D L
M ore
P ole
W T
r w
w n
} ]
Ŀ å§ĭ
on nx
re at
re tries
en es
en gth
le ts
he y
Ġp db
Ġre gs
## <
Ġin dependent
ig gers
Ġb el
Ġm i
Ġm ysql
ĠC Make
ĠA lias
ĠM ixed
Ġh old
im ent
ĠD raw
Ġg radients
ub ble
Ġx org
[: ]<
Se lection
Ġax s
Ġover riding
78 4
åı ·
Pre TrainedModel
fe ats
ins ide
Stream Handler
Ġhost s
OL D
ĠDefault AzureCredential
rec ipes
dig ital
Ġauthor ization
ãģ Ĩ
ĠTr aceback
âĶ Ģ
Ġrot ation
Ġfe at
ĠSci Py
æĢ §
L aunch
O DE
W al
c ron
g a
p ragma
s ink
s amplers
ç Ł
in verse
Ġd ag
ex plicit
ĠA m
Ġr hs
art ifacts
ĠR ich
comp osite
Ġresult ing
RE E
we ather
ĠPy Un
min imal
tool kits
av or
dis crete
new axis
Request s
Ġdim s
download er
long est
ĠTh at
Ġ& &
ĠLo ader
ĠUse ful
Ġrest plus
Ġsim ulation
atal og
scal ing
Web hook
named tuple
âĢ Ļ
Like lihood
çİ ĩ
æĮ ģ
J ANGO
O ther
P ING
T ON
W D
] `
h ang
m n
t or
se cs
Ġf ft
ĠC rypt
ot ify
Ġ' '.
py qt
Ġcon crete
Ġg h
ĠF in
Re presents
ĠE valu
Ġe mp
=" {{
Ġwh itespace
xt icks
cl ang
pect rum
Ġtime it
LE AN
LE ASE
Ġnum s
") ],<
rect angle
ID ENT
Ġstart up
filename s
bl ur
Ġav g
Ġcomple ted
Ġwrit es
åħ ³
sim ulate
termin ate
Ġreport er
FL AG
>`_ .<
LIN ES
iline ar
Ġest ab
Orig in
. '
> ])<
D ash
F older
S klearn
S ku
b log
c andidate
d ynam
p lex
u an
} -{
de g
ac quire
ad a
ĠS y
ĠS imp
ĠA ES
el astic
ĠM IME
Ġstr ftime
rit z
Ġwh y
ign ored
Ġ4 03
doc format
Ġac me
:` (*,
token izers
[: :
float s
Ġ| =
Ġbuild s
ĠBase FrameworkException
Ch art
Ġtr uth
18 0
cv tColor
Ġprocess or
ĠID s
Ġmark ers
ĠMulti ApiClientMixin
tra der
Ġcond itional
Ġip address
mot ion
åĮ ħ
IV ATE
abcdef g
ĠDownload ableFile
ĠSET TINGS
erelease s
Ġmovie py
è´¦ æĪ·
absl test
. ',<
F igure
I ot
P lay
P ART
g al
h id
s f
t anh
Ġs yn
un g
ĠC la
ĠC elery
ĠS IGN
ĠS UB
ol l
ĠM NIST
ĠN VIDIA
ap plications
Ġg ui
ĠI ssue
ĠG ateway
ans i
Ex ternal
PI L
LE FT
Ġ[" --
ĠCh at
Ġ-- >
EX A
ĠHTTP S
Ġauto Tester
ĠKey board
DB us
solid s
ai red
ç» Ħ
Ġwait ing
Ġcons istent
Ġcho sen
Ġexpect ation
ĠProtocol TreeNode
HOME ASSISTANT
Ġepoch s
Ġrand int
assertNot In
Ġè İ·åıĸ
ĠFore ignKey
ä¿¡ æģ¯
) ["
* [
A fter
C hain
F RAME
S ent
f aster
h d
p rom
s z
è Ĭ
re me
Ġp ayment
__ ))
ĠS ort
Ġ' [
ĠG L
ĠE nc
IN DEX
add resses
cur ve
Ex ec
cept s
") ),
Ġpre serve
') .<
return code
ubli shed
KEY S
Hel pers
Ġrel ationship
ĠVal ues
Ġdash board
Ġsepar ated
Ġtz info
implement er
Ġattemp ts
Syntax Error
need s
Cross Entropy
ĠCond ition
Exists Error
owns ample
çŃĸ çķ¥
' "<
B C
C URE
P runer
S peech
a led
b roker
h ref
s ms
Ġf ooter
Ġre tain
Ġs park
ur g
Ġ" .")<
Ġd ro
ol a
ve y
ub y
Re try
ĠG ithub
Ġme son
Ġme sh
ĠR out
In formation
Ġtyp ed
Ġap pended
Ġreg ions
OP ER
ĠConfig Space
AB S
inal ity
abc d
Ġorder ing
sm os
Ġgo es
Com munication
="" ):<
Tw o
recogn izer
meg a
ĠPO ST
ĠNa T
ĠMetrics Advisor
Ġoccur red
mesh grid
ĠPass word
PRETRAIN ED
' "
B US
C ert
b ulk
s ites
s alt
in vert
re ferences
as mota
ent ific
Ġs atisf
ĠL E
Ġto ml
ab b
ĠM PI
test client
Ġh ide
im ag
ma z
rit ical
Ġsc itype
Ġsh all
De bug
iter ation
For est
Ġcor relation
Ġpos itions
pol ling
ä» İ
install ation
PRO FILE
spe ctor
bit bucket
PR INT
Ġcap acity
OS Error
ĠCustom JS
ĠCO M
AUTH OR
aff e
Ġwin reg
ĠOr ig
ĠAct ivity
Ġscal ing
RC NN
ĠVer ify
ĠTemporary Directory
è£ ħ
ASC II
3 86
L ab
L edger
M ATCH
P rior
U MP
f ac
k de
x e
Ġ utcnow
se verity
er lock
Ġp tr
Ġp run
Ġs witches
Ġin ject
ig i
ig moid
ex periments
Ġm arsh
ĠS DK
ĠA P
ĠL i
Ġis subclass
ab e
ĠP lay
so on
out side
ĠR est
Ġor ientation
Ġar row
ield s
Ġj it
cor er
Lo st
ĠIn ternal
pr ices
group ing
gn ore
CO GN
ĠAp ply
=[ ])<
Ġstream ing
blob s
Ġrece iver
36 0
ĉĉ ĉĉ
les ky
lu de
è® ¤
annot ate
Loc ator
fill na
åĽ ł
Ġfactor ies
('. '))<
="" ,<
ĠNetwork ManagementClient
ä¿ Ŀ
LIN K
Na T
Lex er
Ġru amel
# "<
A K
A tt
M enu
N ON
P andas
n r
x fail
at ic
al arm
it ask
Ġre p
un ary
ul ers
tr x
Ġh op
Ġl a
ĠP erson
Ġ1 27
Ġg pu
use fixtures
OR IGIN
base line
Ġcomp utes
sour cing
Ġdepend ing
Ġcom ma
Ġpre processing
trans formation
gn itive
Ġpart itions
cre ation
Ġopt parse
ĠImage Draw
ids ia
200 9
has hes
duc ing
ĠPer form
Core Bu
IR B
åŃ ¦
Ġrequire ment
ĠAd am
Be havior
Parse Error
HAS H
å¾ ģ
Ġassign ment
Kw args
C enter
F LOW
L if
b ench
d uplicates
e of
m ill
s u
x i
ç Ħ
Ġc x
ut ive
Ġp ointer
Ġre ply
ur er
lo ggers
Ġ" ...
Ġas cii
ĠS um
Ġis olation
Ġg allery
(' :
path spec
ri ends
pro ducer
Ġ0 8
Ġpy game
sc all
ip h
Ġy y
ĠH A
port folio
fo ot
Ġconfig s
ĠRe pository
MA G
MA SK
Ġen force
Pro files
ber us
ĠEx ecutor
Ġcheck er
Ġup stream
Ġle ading
play Buffer
Ch unk
CE PT
ĠSet ting
Ġcolor ama
ĠST AT
Ġmo ving
SH ORT
IR D
ital ic
Sim ilar
('. /
ĠValid ator
notebook s
final ize
Ġtransl ate
Mark down
Ġwav s
extractor s
ĠDense Pose
Scal er
ä»· æł¼
éĢļ è¿ĩ
ç»ĵ æŀľ
çī¹ å¾ģ
)| |
PLU GIN
" [
G rant
H ow
U sed
e qu
i ser
l ite
v ant
} ):<
al gorithms
ic lient
ĠS AS
ĠA fter
et ched
', )<
ĠF L
Ġnot ice
Ġe in
Ġv fs
ĠR ow
gging face
MA NA
ĠEx ecut
Ap ply
Ġsh erlock
De v
Ġadd ition
Ġz order
Ġup dating
no et
Ġnew line
000 3
200 5
Item s
mac os
Ġsn orkel
Ġweight ed
rece iver
SK LEARN
Rel ation
cred its
similar ity
Art ifact
ĠDeprec ationWarning
DAT AB
æı Ĳ
Ġxlsx writer
' d
( ...,
/ >.<
F AN
T ypedDict
j upytext
o gs
w r
x FFFF
in strument
er ator
Ġf requ
ĠC ategory
ot hed
is atty
ĠL oose
and er
int ro
(' #
Ġpy webio
Ġpro j
ĠRe ce
Ġch r
orm ap
ments Operations
Ġover ridden
Ġ200 5
post data
script ors
User name
cmd line
gb oost
Back up
EXT ENS
second ary
percent age
ĠSU CCEEDED
æ¯ Ķ
bt n
åºı åĪĹ
ĠIot Hub
loudf lare
ente lemetry
çĦ ¶
" ')<
' '<
) ;
> ",<
c ipher
e ven
f path
m iddle
m mlab
x a
or al
Ġf la
Ġn l
ex pired
ĠC md
ĠS PE
get pid
Ġof ten
(" :
ĠD el
ĠI d
Ġst oring
": "
out err
text box
Ġme moize
ĠV ault
AR RAY
RE COGN
Ġnum erical
'] }<
sd p
math bf
Ġå °
Sub ject
Ġcons ist
Ġkind s
ĠInst antiate
ĠClass Var
å° ±
Ġbyte array
Ġcomput ing
ĠSh ort
ĠNum eric
BACK END
Ġface color
CHAR S
ste er
SUB SCRIPTION
Ġsy nt
INST ALL
Ġfront end
ĠSci entific
Ġ'{} '
ĠColumnMap Expectations
ĠDIS ABLED
repos itories
rowd sourcing
reens hot
$ <
- *
. )
> --------------------------------
A DED
B oost
B LOB
F ail
F etch
L ines
S l
Z ERO
h l
r er
t ld
w ind
x c
Ñ ĭ
mp ileaks
Ġp ing
Ġp ow
Ġd ensity
Ġb ash
co pg
ĠC A
ĠC N
ĠA udio
con cret
Ġ2 6
ine se
Ġpro grams
Ġres olved
assert Greater
Ġ3 6
ang ulation
ĠW ait
read outerr
os h
ST EP
Ġsys config
bo unc
Ġsub modules
AL LED
iter ations
Ġcall er
Ġ[' --
split ext
Set Up
place ment
Ġ-- -
15 2
Run Python
Ġdif ferences
Ġfl uid
Ġsee k
Ġconst raint
Check s
Ġskip If
Ġnormal ization
leg al
Ġautos ummary
protect ion
çŃ ī
Ġfu zzable
pause d
rat ic
ĠWrap per
ĠVAL ID
Ġimmediate ly
è° ĥ
) ``
. '''<
D es
G ING
M es
b io
ç ľ
re cur
st raction
Ġi r
Ġre name
Ġs wagger
Ġd raft
Ġd ilation
Ġw ide
ĠS ince
ĠA verage
Ġde tailed
Ġpro x
Ġpro ps
ĠB ool
Ġme asure
ĠU S
ĠU PD
SE ARCH
AR GE
Ġwe ek
net loc
De pth
Ġlog ical
context lib
Ġsp am
Se cond
ie ba
Ġfloat ing
Ġgener ators
CON TEXT
ORT H
Ġfilter ing
Ġver bosity
ATION S
Ġdat aloader
Ġrender ing
bound ary
sec utive
drop na
how to
Authentication Error
Ġextract ed
ĠSystem Exit
Ġart ifact
ĠPh il
å¹ ³
ĠNe ural
encrypt ed
Ġlex er
Top ic
ALLOW ED
ĠDeprec ated
ĠEng lish
Ġencrypt ed
Ġminim ization
A rea
B RO
D istributed
G IT
I Q
M IL
b el
e mp
p ager
£ Ģ
å ĵ
Ľ å»º
in fer
st ory
it a
me asure
Ġre ST
Ġs alt
Ġs uggest
Ġw armup
co vid
ĠS HA
py py
con tour
ĠM ain
ke w
Ġl as
ĠP acket
ure k
pro f
AT ER
comp ressed
ec ycle
pre pend
Ġsc p
ĠRe cipe
cur ate
Ex amples
MA KE
index er
TR ACK
:` (
US H
ca ffe
15 5
Not Ready
SD K
PO LIC
web page
ĠPar allel
ĠNot ify
cc c
Ġfind ing
Ġwrap pers
åı ĳ
Ġerr bot
ble u
LOG IN
CA P
ATTR S
ĠCommand Tester
ç» ı
Ġremo ving
cap acity
Ġfactor ial
ynchron ize
ĠContainer Service
ĠContainer ServiceClient
Ġart icle
ĠAct ive
Ġvert ices
RDF Value
eng ines
Mask ed
Ġhapp ens
Mon th
commun icate
èµ Ħ
Ġrespons ible
CHO ICES
ĠLoose Version
' },
2 34
2 14
C MD
P erson
Q P
f loor
f raction
} ',<
re defined
Ġ" ?
li s
ad ers
up s
ap ed
ist ical
Ġde cl
end points
Ġpro duces
=" %
bin aries
Ġen counter
dis cover
ak a
context s
ĠSim Soot
Ġiter ations
skip Unless
Trans fer
Process Error
ĠExt ended
django project
Ġautom ation
âĢ Ŀ
chain DB
(". /
LIB S
ACT IVE
Ġgl ad
ĠNetwork s
Ġassume d
GEN ET
Ġhighlight ing
TIM EST
/ ]+
C ancel
K NOWN
S ymbol
T OT
V END
m ob
y ticks
~ /.
at least
re corded
en h
mp ich
Ġa ud
ar ter
from scratch
Ġs af
__ _
__ }
li sion
ra ms
Ġ( @
ĠS un
ĠL IGHT
ĠL STM
Ġh o
ĠP et
ĠD ES
pro filer
ĠE dit
Ġme ssaging
AT ORS
Ġch anging
pers istence
ak ed
vert ices
={ }".
float X
ĠY ow
Key board
çļĦ æķ°æį®
ĠCo unt
auto scaler
EX TRA
ph i
Ġloc ust
EL L
Ġplugin matcher
ĠLo ss
Var s
ĠTw o
ĠMO V
det ach
Ġgrid spec
Cond itional
CLASS ES
ĠSQL ite
Off er
VAR I
Allow ed
Ġrecomm enders
Dist ance
retrie ve
Ġpercent age
æ¬ ¡
ĠENT ITY
) `
B IT
C m
D one
D ense
D ICT
a ware
b m
d aily
l abs
x d
Ñ Į
at om
Ġt flow
Ġt icks
de sign
al igned
ic ial
Ġf loor
Ġd u
up stream
ĠN icol
am ing
Ġth us
(' {
Re set
Con tact
sh ard
dim ensions
>""" #"<
ĠHomeAssistant Error
Event Loop
Ġport s
Ġprefix es
ĠCheck point
PRO GR
Ġvis ible
ç» Ł
MENT S
ĠHel lo
ĠDATA SET
Ġent rypoint
CUR ITY
Rece iver
Ġcombin ation
Ġmac ro
Transl ator
Ġalph abet
BRIGHT NESS
Ren ew
. {
= ",
= ',
B AD
F LOAT
I LED
T ry
b um
e uler
h yp
é »
Ġt ile
Ġt ries
Ġt ctx
ro l
he ses
Ġf names
Ġs ay
Ġin strument
ĠT ex
ĠL ong
up grade
Ġh yp
ap iclient
ĠD igitalTwins
Re quires
red d
ĠG ame
=" %(
Con structor
Ġme asurement
iv ation
ĠR R
ĠR oot
qual ity
IC RO
ther e
ĠPro vide
ĠIn ventory
build ing
32 0
ĠK afka
enc ryption
ĠAr range
13 6
ont real
ĠY our
fg Node
Key word
wh itespace
CON ST
Ġoper ating
Ġcustom ize
ds k
Ġå ¯
Ġmask rcnn
Ġoption ally
termin istic
sup press
cloud formation
ä¹ ī
æĿ ĥ
Ġgreen let
Ġexperiment al
Ġaggreg ate
replic as
FUNCT ION
UNA VAILABLE
5 37
> ,
F ault
G reen
L egacy
j k
è ¨
é ª
Ġ ########################################################################
ķ ¿
Ġa ugmentation
from string
est yle
ent ially
ur ator
un set
Ġm type
ĠC AN
ra form
ĠS am
ĠS ty
ĠS uper
ĠA bs
th resh
(" {}
Ġcon t
ve cs
Ġr f
Ġg ift
Ġth resh
Ġth ough
00 7
par agraph
ĠR EST
ĠR outer
ĠH u
ĠH istory
=' ^
ho ver
Ġsc orer
mat ched
ach able
inter polation
var args
ne ar
stack overflow
=( -
dist ances
ĠUser s
Cl usters
Ġpr im
ĠDE BUG
ĠWe ight
mut ations
BO DY
>## <
lab eled
uplic ated
Pr inter
Ġsignature s
Vis itor
eps ilon
lst m
mq tt
Ġselenium base
Ġear ly
cognitive services
) `<
B ook
C M
E poch
G A
G radient
O VER
c ure
m allow
p ublished
t ornado
re versed
al ter
al ph
Ġf ine
Ġs uitable
Ġd i
il led
Ġm igration
ĠC amera
ce il
get pixel
tr io
Ġde velo
Ġr l
() }
args ort
Ġnot es
lib tool
ator y
Ġ3 5
wa f
dir path
dir ty
ĠW in
rain er
sp ines
RE TRY
Pro blem
sub reddit
De leting
UT TON
ID S
Ġhttp lib
ia o
PRO XY
aint ext
BO SE
acc um
BY TES
Ġkw arg
Ġvisit ed
ĠVer ification
xxxxxxxx xxxxxxxx
DIRECT ORY
ĠEng ine
idential Ledger
Ġrout ines
åģ ļ
Ġconven ience
METR ICS
RECOGN IZER
POLIC Y
) ',<
K e
S ave
b id
h g
x z
st aff
Ġt ran
Ġi v
Ġin coming
ser des
Ġb asket
__ ))))<
ĠC annot
ĠS ite
ch mod
Ġ' $
ĠL IST
py c
th en
ĠD ET
ĠF A
Ġlo cally
pro duces
Ġfile desc
out h
art Pole
ĠĠĠĠĠĠĠĠĠĠĠĠĠĠĠĠ ĠĠĠĠĠĠĠĠĠĠĠĠĠĠĠĠĠĠĠĠĠĠĠĠĠ
ly ze
In v
], [
Ġout er
ST OM
En code
Ġpre pend
che str
ach ers
LO ADED
File Path
CO ORDINATOR
be low
Ġiter ate
ines is
Ġ200 1
fl ux
ĠTo urnament
Ġpat ched
ĠFile system
CA PE
Ġsm tp
Input Definition
Ġdt i
ĠModule Type
Ġexc info
Ġperform s
fin ally
ĠLog in
RA W
Ġdraw ing
Ġpair wise
MET A
JSON Encoder
Ġbbox es
Ġ".. "))<
Ġnb format
Ġsimilar ity
Ġgu arant
Ġinherit ed
è¾ĵ åĩº
jo co
ĠCover age
SOCK ET
Ġcome s
Ġdeprec ation
Definitions Operations
M aster
S pe
S END
p apers
y ield
st on
he st
Ġd path
li ao
ĠS upported
ĠS anity
ĠS peech
int el
Ġtorch audio
IC ODE
ĠRe fer
Ġcol lector
RE DIS
Ġne arest
FA ILED
auto conf
ĠHTTP Exception
char set
Ġmode s
)[ \'"]
ĠCheck s
multi ply
gb m
è¯ »
Ġsig moid
RA IN
rupt ed
ighb or
Dialog Teacher
ĠGen Conanfile
Ġinsert ed
ĠMark up
ĠSU PPORT
Ge ometry
sem antic
Ġposix path
Forecast er
Ġsherlock liao
! \
) ['
B al
B earer
D est
D emonstr
F i
G aussian
J PEG
M NIST
N ow
S lider
T IN
` ,<
b isect
e ach
p as
æ ²
Ġt un
le ans
Ġc ategorical
Ġre pos
Ġs f
__ ",<
Ġm n
ĠS TR
ĠA liases
ĠD ynam
00 3
Error Response
sc orer
ers hell
Ġv a
iv ot
ĠR ET
Ġro utes
Ġare n
Ġal loc
LE EP
DO UT
ENT IAL
AD D
title s
ĠCo untry
FF ER
Run s
MO VE
PAT CH
Ġgre p
support s
light ing
Qu estionAnswering
Ġstruct log
ĠZ ip
ĠLo gs
mar ket
pip x
Ġel apsed
Named TemporaryFile
æ³ ¨
Ġgrad check
Normal ize
abstract property
Div ision
REG ION
ĠStop Iteration
Ġhour s
Ġlarg er
Ġderiv ative
ĠNicol as
C atalog
E E
E l
M ust
O C
U V
b an
i ation
p assed
p aging
Ã Ń
Ġ }}<
al ib
Ġp asses
Ġs chool
Ġn obs
Ġb id
__ ")<
Ġw af
ĠT ab
Ġ1 000000
if ar
Ġg p
om aly
art ifact
ĠSe cure
Ġy s
Con tents
}< /
ump s
pre set
RE C
RE L
log ged
mon key
mon ition
CK ER
itle ts
ĠSpack Command
Ġcur ses
Ġend s
]) ]<
gram mar
VERSION S
can onical
Ġsk image
ins ights
ĠAuth enticator
Ġloc ations
Ġoptim um
Ġtri angle
ĠComp onent
Ġprogram ming
ĠEn try
Ġlink ed
Ġcap abilities
track s
PU BL
ffic ients
Ġhead ing
çĽ ĺ
æĹ¶ éĹ´
Sn apshot
([^ \'"]
TERN AL
Ġcos ine
Ġappe ars
METHO DS
assertNot Equal
Transl ation
Ġpot ential
* )[\'"]
2 20
B ulk
C ap
V AC
b uffers
h ug
w izard
z zer
ç ¡
Ġt t
Ġt ell
de b
it ation
an ion
as p
Ġf all
ur lopen
un available
Ġd ynam
ame s
ĠS A
Ġh ack
Ġl u
Ġg encode
pro vided
ug ier
read able
ĠCon cat
ax y
AR ED
ĠRe cord
RE PORT
") .<
Ġdis crete
check sum
UR ATION
uc ed
mis s
Ġtrans formed
åĪ Ļ
cd k
Ġdomain s
Ġet ree
ĠBy te
"} ]<
Tr ace
ĠAss ociation
Ġser pent
ĠSensor Entity
å¸ ¸
\'"] ([^\'"]
åĪĹ è¡¨
ĠSkip Test
WINDO W
808 0
DET ECT
Ġgencode c
\'"]([^\'"] *)[\'"]
3 01
E LS
L ake
S R
S a
T Z
] "
] ))
b ank
f ab
k ubernetes
l ag
m apped
p riv
t ight
Ġ âĶ
en codings
ro les
Ġc riteria
it ers
an on
an ced
Ġp ts
ing leton
ing yu
Ġs ynchronous
Ġo dd
co smos
ĠC uda
ĠC ALL
Ġtest case
Ġg ain
(' ',
end ian
Ġst s
Ġ{ %
Ġpro cedure
ĠE lastic
ans wers
EN CY
Ġar ange
ance led
Ġsc enario
ĠRe quirement
ĠAn aly
Ġprint ed
cor p
PI DER
10 9
Ġcom munication
Ġbeha viour
Ġac cessed
Ġper m
ĠQ U
Ġsp k
Ġindex er
del item
Ġcl usters
Image Plugin
Ġlike lihood
fit ted
ĠEn coder
ĠRE QU
ĠDis crete
Dep loyment
uilt In
cap s
Ġactiv ate
æł ·
roll ing
ãģ Ħ
br icks
Ġaccept ed
listener s
Some thing
Ġrepl aces
bre w
Ġden om
Ġ%% <
sca led
Ġut t
RESO URCES
åŁ Ł
bla h
Ġimpro ve
PAY LOAD
Ŀå§ĭ åĮĸ
Ġwaf lib
B r
B LED
D JANGO
F n
S ITE
S lice
] '<
b ac
e at
f ive
l n
n ag
æ Ħ
Ġ questions
de cl
ar ima
Ġ" |
Ġb ypass
__ ('
ac s
ĠC lose
th an
for d
Ġg i
Ġ{ :.
oo ser
oo leans
ĠG tk
Error s
Error Code
sc enario
ss pec
po pen
Ġme as
Ġ3 9
mo vie
10 8
ĠPro tect
ĠCh unk
min ute
pos al
ĠAr g
ene fit
Al ready
Ġ7 0
Pre processing
36 8
CA ST
Ġnetwork x
>` _<
>================ ============
Ġstyle s
cap ital
Ġside bar
å¯ Ĩ
Ġedge color
ĠSensor DeviceClass
1234 5
ĠAx is
Remove Field
resolved References
tre nd
ANSI BLE
Ġml fromscratch
Ġ================================= ================================
Ġseem s
Ġcalib re
ĠENA BLED
ĠPyUn resolvedReferences
\'"]([^\'"]*)[\'"] ',
2 23
B rowser
C ron
S N
S w
U X
c ascade
q q
r pn
u its
é ķ¿
re ject
ar ctic
Ġc ron
Ġ" ../
__ )))<
ass igned
ĠS hip
ĠM anticore
up dater
Ġh olds
ĠP atch
ĠP anel
Ġand roguard
ĠD irect
ĠD emo
IN F
text ure
time series
serv es
ens us
log it
LE G
check box
Ġup on
ĠJ F
Ġtensor board
ume d
Text Field
rel ations
bb it
SET UP
è¯ ¥
NO DE
timestamp s
writ es
ĠIN VALID
BO OK
Ġthrough out
Ġfactor s
Ġestim ation
Ġenable s
ĠRo ugier
BER T
ĠLocation DB
onym izer
Ġqual ity
ĠBig chainDB
maintain er
ĠIMA GENET
ĠEmbed ding
hemat ical
Division Error
C li
C OPY
C XX
L ambda
L ARGE
S uper
e ig
e th
f y
r hs
t weet
Ã ¥
Ġ queues
ĺ è®¤
se ct
ic a
Ġm igrate
Ġw f
ĠS quare
Ġ' ',<
ĠL ength
Ġde li
Ġde coding
to ggle
Ġex cluded
ĠO per
po ke
Ġx path
ĠH andle
Ġ` {
Ġout file
Ġob server
AL Y
32 4
Ġtext s
Ġz oom
Ġjson ify
Ġopen ed
OT HER
ĠJ upyter
DO CS
Ġread me
16 0
Ġu id
face book
Ġinit ializer
Ġexp anded
Ġav ailability
Path Spec
gen ie
44 3
Log Observer
ĠMe an
Output Definition
ĠIN PUT
IF AR
æĺ¯ åĲ¦
ĠApi Client
emo ji
Ġactor s
ĠOptim izer
ĠVisual isation
åŃĹ ç¬¦
perform ance
å®ŀ çİ°
PACK AGES
Ġsem antic
Oper ational
LIBR ARY
' *
( .
> }
> })<
B AR
C AT
P AD
R D
R ight
T B
[ ("
h ar
j inja
m ate
n at
w k
z a
st h
Ġi e
Ġp ag
Ġs lider
Ġin compatible
Ġn atural
ĠC ert
ĠS l
ĠS ur
ĠL et
ĠM IN
ĠD vc
ĠG CP
ĠO ct
po ssible
port ion
ĠW EB
ug ht
ire f
02 5
ĠV i
comp ilers
ST AGE
Ġk ill
RE MOTE
MA L
ME AS
Pro visioning
10 7
fix er
Ġdepend ent
64 0
Ġdis cover
Ġpre p
(( ((
ATE WAY
mod ulo
Ġcor outine
sha ke
light ning
ĠTrans port
Ġkernel spec
na ive
HE IGHT
Com ment
detect ed
ĠApplication Insights
Ġexpect s
RGB A
ĠHe alth
edit able
quant ity
BE E
ĠPh one
Skip Test
gree ment
Ġsqu ared
ĠMask ed
MAR KER
Ġlarg est
aggreg ate
Ġinstanti ated
ĠSK U
ĠSummary Writer
ĠSIGN AL
*[ \'"]([^\'"]*)[\'"]',
) ^
, "
. ',
H unt
L ow
N ested
P AGE
c lf
c irc
m vt
p ublisher
s un
s anit
u li
v l
Ï Ħ
Ñ ı
or chest
Ġc our
ut y
Ġm otion
co ur
is close
ol s
con da
Ġl w
Ġde grees
Ġg ather
(' @
ĠRe cognizer
MA NU
Ġsub stit
len der
Ġcheck sum
velo city
Co untry
Ġbase string
AB ORT
ĠBase d
UN C
UN IX
Ġinter vals
root s
Ġdiv ide
ĠFor ward
Ġfunc y
Ġident ical
alle li
Ġmem ray
intern als
ĠComp iler
CL UDE
Dis crete
dot env
Ġdec ay
Ġbar s
ĠRequest s
mut ants
Column Map
CONNECT ED
ĠConv olution
Ġatt n
ĠSO CK
ĠKeyVault Client
!! !!
Av ailability
INST ALLED
separ ated
ĠLayout Element
ĠAL LOW
åŁ º
. """)<
/ __
> `.<
F u
M arket
R NN
X D
p ul
} ;
« ĺ
à ¶
ç Ļ
re et
st udent
est ring
Ġre ject
Ġd ll
Ġas array
Ġ( .
ul ing
ul us
str ptime
el en
ĠP ASS
am i
Ġth row
der iv
om as
Ġex e
Re cognizer
ĠE ND
key board
Test Suite
ĠH DF
ĠW arning
cl ic
Ġsc aled
St ar
Ġprint ing
Pro tect
orp ho
Ġcomp osite
Ġnum ba
Ġapp lies
sum mar
Ar row
19 4
tf utils
Ġhe alth
SI M
ason al
Ġconvert s
200 6
rt ol
HTTP Server
ĠComp osite
Ġsm allest
sk y
ĠReg ion
Ġpool ing
Ġpkg util
Ġcle o
STAT ES
nowledge Base
Ġdiag onal
Optim ization
Ġsmo oth
Dat asource
OB JECT
Ġrecogn ition
Ġslug ify
cla imer
5 17
A V
R ot
S HO
c are
e plit
n ight
n ique
v ance
w ho
re w
me mo
ut ed
import ed
str ong
ab u
ĠM ontreal
Re peat
ON ENT
IT ATION
ĠSe lector
"] }<
sp inner
ĠTest ing
ĠTest ed
not hing
Ġsh ipping
by e
ĠConfig ure
ĠJ ournal
Ġcontext s
ts libs
:` <
Ġread only
)) ))
ĠBase Exception
sign ificant
For Sequence
Al ignment
Ġgroup ed
Ġoper ators
ush i
Ġref lect
Ġmo ved
lex er
åħ ¶
container registry
VER T
Ġkeep dim
ITE M
cert ificates
ĠPlugin Config
vari ational
uf act
ĠAd min
Ġmult imodal
autom ake
super vised
CLO SE
SM TP
sam cli
Å½Å½ Å½Å½
remo ved
rivile ged
Ġprim arily
PUBL IC
eplit z
" }}
' ve
/ ',<
8 22
> '''
B ED
C AR
C TR
a ux
b j
c g
f ar
x or
x ff
Ġ que
or ov
se ll
at ol
Ġt imm
ort ho
al endar
ar b
it o
me asurement
ur tle
Ġd m
Ġd p
Ġb u
ĠS how
ĠA PP
ul ong
th readed
Ġ2 9
ĠD AG
Ġde scribe
to ctree
Ġex change
=" +
list ing
ĠR DF
=' %
In line
ream ble
10 6
Ġ5 6
ĠCh ild
Ġdis patcher
open ed
av y
ĠUn iver
ale s
spec ified
TP OT
Ġlib c
({ })<
ĠBase Test
Ġli kely
=[ ],<
ĠHTTP Request
Ġsocket io
è¿ Ĳ
AC Y
ĠReg ular
Ġpol ling
åľ °
Convert s
Ġcy thon
Start ing
Ġlet ters
Comple tion
Ġmime types
POS ITION
WA IT
ĠTransl ation
Character isticsTypes
Ġdro zer
ForSequence Classification
" (?
( """<
/ {}
3 02
D LL
F ULL
H UM
M UT
P M
U ns
Z ulip
a arch
b ranches
h k
k in
ľ ¨
re ction
st ores
de claration
Ġa mp
ic ient
Ġ" ^
ig hest
ch astic
Ġto ctree
ab orn
ight man
per ience
ĠF our
to file
us c
Ġst able
ĠO LS
Ġe g
sub tract
di e
ak y
ts ushi
Ġdocument ed
Ar ch
ions hare
Ġmatch er
tmp file
Me ter
save fig
\\ \\
SI X
ĠST ART
ĠST REAM
Th an
optim um
VER BOSE
cell aneous
Ġtra ffic
ĠÐ º
webhook s
Wh ite
Ġent ropy
ĠDagster Invalid
alo aders
>`` `<
las ote
å¿ ĥ
defer red
ĠPeriod Index
ĠNOR M
Ġstand alone
satisf ies
remain ing
èĬ Ĥ
TIMEST AMP
' ."""<
4 20
A ff
D aemon
F ire
F USE
G O
H P
M VT
R B
T oo
T yper
f ed
g un
k ins
n est
r ating
s anity
t n
y d
} ),<
} },<
at omic
re index
Ġi ll
ro c
Ġa ugment
he t
Ġc assette
Ġf cnt
ex tern
ol ving
con crete
ĠP SF
and a
per ms
Ġr nd
par quet
pro be
ma ker
ĠB M
Ġor gs
ĠH ook
ĠĠĠĠĠĠĠĠĠĠĠĠĠĠĠĠ ĠĠĠĠĠĠĠĠĠĠĠĠĠĠĠĠĠĠĠĠĠĠĠĠĠĠĠĠĠ
ĠU tility
RE LEASE
MA LL
ain ter
format ters
Ġpl us
ĠIn f
lic ing
ĠJ an
riter ions
Up dating
Ġtw ice
55 5
ĠStr ict
Index Error
Pre m
EL LOW
ĠConfigEntry NotReady
Ġpip x
div is
('/ ',
nost ic
Ġproduct s
Link ed
Job Template
Ġsw ap
Ġrot ate
Redirect s
authentic ate
ĠSyntax Error
èĢ ħ
Summary Serializer
Enc ryption
CENT AGE
ĠMODE L
æ± Ĥ
EXEC UT
è¨ Ģ
MEAS URE
Ġfcnt l
* \
> ))<
F ront
] },<
b ic
b sd
f alcon
h cp
m ypdf
u ro
v cs
é Ĵ
Ġ ke
Ġf resh
Ġn ursery
un supported
Ġw ind
ĠC OL
ĠC rawl
ĠT ools
ĠT XT
qu x
ĠM ail
ĠN inja
Ġh ad
Ġde clar
Ġ_ ):<
util ity
ĠE C
cl amp
mo ving
Ġprint s
Ġ4 4
ME D
Ġal t
Config Parser
Ġte ardown
cre ating
Ġfloat s
Ch arm
Un available
fg lob
Ġgr ant
Pl ace
Check point
Ġcomple ter
weight ed
Ġbl ur
sk u
çĶ¨ æĪ·
ograph ic
Ġexecut ing
Ġcrypt o
Ġhead ings
schedule s
irection al
Ġprevious ly
Ġcombin ations
å¾ Ĺ
Ġrepro duce
Ġsmo ke
intrins ic
ATEG ORY
SECON DS
ĠRect angle
Ġ######################################################################## ###<
orov od
ĠUniver site
A dapt
F G
P ush
T W
c dd
e fficient
k al
é ļ
Ġ ing
Ġ serving
or row
at z
mp g
Ġp ast
il ment
ĠS leep
ab a
ab ling
ĠD ot
Ġst y
Ġpy spark
Ġpro duced
ĠB ody
url encoded
ang hai
Ġtyp ically
xt ick
Ġsc r
======== ===<
ĠPro gram
Lo gs
ĠIn Memory
Ġdict s
Ġnew er
Ġstate ments
Ġcur rency
)) [
Ġinter mediate
ĠRes ources
vc r
PL ITS
Ġfollow ed
Ġfig size
TH READ
ĠFile System
Image File
ĠOrder ed
render ers
48 5
TER M
ĠSub classes
theme s
My SQL
APP RO
bal ancer
Ġdescri bing
Ġdelay ed
Ġlit tle
Ġheap q
Sum marizer
ĠImplement ation
Ġ-------------------------------------------------------- <
Volume Source
Ġocr mypdf
B ig
B ound
C ITATION
D TO
F amily
I Python
R EST
S ys
g ence
l bl
v ex
} ]<
st ra
st ress
as semb
ct ype
Ġre cursively
Ġm apped
ĠC opy
ĠC fgNode
Ġan im
ĠM VT
ĠD es
ĠD if
Test Mixin
ĠR PC
Ġit alic
ĠH ue
rit ic
Ġon line
Ġro ll
ire n
CH UNK
Ġen rich
25 4
OP S
Ġle ave
PO CH
ĠNot Found
28 8
Ġsche mas
folder s
AM ER
ĠSp ace
bb b
Ġfoo bar
FO O
Ġmon otonic
Ġpop ulate
Ġreport ed
Ġlimit ed
Graph ene
Ref resh
Ġautomat ic
vers al
Pr ice
[[ ],
Ġfit ted
prox ies
Connect ed
Resources Operations
analy zer
Ġoc curs
trigger ed
Ġyear s
stmt s
MEDI UM
ĠNa N
Ġmonitor ing
Ġ-------------------------------------------------------- ------<
Ġss lyze
WH ITE
GRE EN
Ġuv icorn
HUM ID
$ ")<
/ \
2 11
: /
B G
D vc
I QUE
M et
M SE
S AS
S park
S CALE
T D
T ICS
U DP
X t
_ ()<
a es
h w
m type
m obile
n net
r ust
w ant
re es
st ored
de bu
Ġp reamble
Ġs impl
un defined
ĠC isco
ĠL D
ĠM ED
tr acer
ĠN umpy
Ġh p
oc r
ĠD an
Ġg cs
Ġlo t
end ulum
ĠE very
IT ICAL
ob server
read ing
Ġunder stand
Ġj rnl
ĠRe try
ĠRe trie
CH INE
sh ip
Ġ.. /
10 5
AN ALY
12 3456789
Ġtop ics
Ġcause s
const s
ĠAr row
UN T
Ġinter action
ca ption
=[ -
fl u
Ġqu oted
ĠDE LE
ASS IGNED
Ġform ula
email s
cd n
oh ns
He ight
deploy ments
ident ifiers
cap log
='@ :
Ġlower case
percent ile
ĠCompute ManagementClient
ĠAS GI
ĠDoc s
ç§ į
GEN ER
combin ation
nor mpath
SIGN AL
ä»£ çłģ
ĠLif ter
sequ ent
MEASURE MENT
$ "<
2 64
B egin
G LOBAL
H C
P ur
Q X
R SA
` ")
a ugment
c url
j id
p let
r gba
v oucher
w ater
Ø §
æ »
ç ¥
on ac
Ġa k
an chors
Ġp v
Ġp ending
Ġre arrange
Ġn dim
un quote
ig bee
Ġb undle
__ "<
Ġm er
ĠA greement
qu es
Ġh ierarchy
et ary
Ġex pose
Ġun comp
EN E
ES P
ĠCon sumer
ĠRe al
Ġen g
Client Error
ĠCh rome
") ).
min der
Ġmethod Name
ĠConfig Parser
no v
enc ing
uff icient
ĠUn iform
sent inel
ĠSt ock
000 4
ld ap
tin y
]) ))<
ne eded
char acters
Ġ{} )
Ext ended
rel ationship
Ġå ħ
HTTP S
Ġsession s
Le af
illa ume
Ġaccount s
_{ \
Ġsecond ary
ĠError s
ĠUp load
IZ ATION
merge d
æŀ Ħ
Tw isted
itect ures
ĠAt tention
Ġsur prise
IFI ED
visual ization
DOWN LOAD
Ġfire wall
Future Warning
Hyper parameter
Ġ'../ _
ĠComplex ity
Ġequ ation
Similar ity
éª Į
onac ci
3 64
D uration
D ocker
D irection
F ill
F lags
P ipelineClient
R ad
S amples
` ."""<
c udnn
j et
m or
m ultiplier
n fe
u ke
è İ·åıĸ
st an
en n
ro ck
ro berta
de gree
Ġa es
al tern
Ġc df
Ġf ive
Ġf act
Ġre named
Ġre peated
Ġ" &
Ġn ice
un parse
Ġd uplicates
Ġb n
Ġb cp
Ġ( *
ĠA UT
ĠA iohttp
con jecture
set Window
Ġl z
ĠP OP
oc used
Ġnot ation
ib onacci
Ġres idual
text s
rit es
Ex ecut
MA CHINE
ren ch
eg gs
state ments
ID ENTITY
Ġso ftmax
ĠSt ar
the ano
Ġac cum
inal g
Ġindex ed
Ġcre ator
sd ist
tin uous
sample d
ank s
Ġgraph s
Cl asses
Ġshow ing
66 6
Ġbot tle
radi ans
Per cent
VER IFY
success ful
tra de
section s
ĠDo uble
Open SSL
ĠCom ment
ĠInst ances
ĠSc ale
AA AA
sock s
Ġart ifacts
ĠFairseq Dataclass
Ans ible
ĠDB MS
âĶ ģ
cancel led
Ġssh uttle
indic ators
ĠFigure Canvas
TAIN ER
! "
3 14
5 02
> ====
A not
C OR
C ORE
C ERT
F IN
F rozen
J ava
P ending
d lp
n able
n yan
p ot
x r
y tick
y olo
} })<
or ientation
Ġf ingerprint
ge os
Ġo y
__ ',
ad j
th ost
ĠM et
ĠM ER
Ġh ug
Ġl d
ĠP ipelineClient
and oc
() ._
Ġex erc
ĠG reen
ss ql
Ġe os
po logy
ER ATURE
assert s
Ġco variance
ST O
ME AN
ĠPy Charm
open mp
dis p
amb le
RO I
Ġtrans itions
Ġ| |<
Un defined
Ġmin imize
Ġtf v
Ġorder s
Ġlocal host
Ġcor ner
Ġweb site
æķ ´
Ġsend s
Add s
Add itional
Callback s
200 7
Le arn
Inter preter
}} (
äº Į
inv oice
Ġscale s
activ ated
click ed
Pool ing
Ġph rase
Ġensure s
div ide
plan ation
hex lify
Ġpad ded
WAR N
ĠClass ifier
ĠState Apps
Wh at
ĠUN IT
ĠPo etry
instruction s
Ġtrigger ed
è§ £
Ġrecomm ended
æŃ ¤
punct uation
intrins ics
Ġ---------------- ------<
vaccin ated
INTE GER
EXTENS IONS
Anot her
8 76
> ################
E POCH
f ew
i ded
s al
ç ³
re ml
Ġn t
il low
ĠC lick
ot p
ĠS W
Ġ' {"
con z
ĠM M
ĠN yan
int ent
() '
() """<
Ġex tras
01 01
ĠSe lf
assert Len
Con cat
AT IVE
wa vs
ĠW H
ĠCon tributor
St udio
Ġreg ard
orp h
Ġcom m
train able
ĠUn defined
Ġcur doc
Ġsp inner
AD VIS
List s
Ġtrans pose
Ġrandom ly
Ġman aging
Ġiter items
Ġback off
Te ch
Ġgroup by
Ġauto grad
ph il
åĪ «
Ġchar ge
rel path
Ġnon linear
Ġtitle s
Reg ular
ĠFile s
Ġå ľ¨
normal ization
Ġsql parse
OL UME
ĠComp utes
fr uits
ĠInvalid Argument
.* ?
factor ies
SER T
Ġexport ed
ĠSpec ial
Ġvari ants
Mod ified
Rel ated
ĠConnection Error
Ġrepl acing
squ ares
CLO UD
ĠSorted List
NAMES PACE
ĠImplement s
Ġdeprec ate
æĭ ©
jac ent
ĠSentence Transformer
MIS SING
ĠMic hael
Ġflex ible
Ġnl tk
Ġprox ies
elen ium
2 99
: \\
K B
K I
K V
N P
R PN
c rowdsourcing
f ps
g id
m gr
st roke
Ġc aching
as d
est s
ur on
lo pe
Ġn c
set Formatter
Ġ[ ["
Ġr val
able Type
Re view
Ġun escape
out dir
ĠB ACK
Ġy aw
assert Redirects
app able
ĠW HERE
': '
ĠDe coder
Ġcomp ressed
arg ing
lock s
reg istration
item ap
sheet s
inter p
11 8
') ")<
lat itude
Ġ6 5
15 9
Ġ"" ).
cli mate
pass wd
exp iry
bu gs
IP v
Ġ9 6
change log
Ġå Ľ
Ġoptim ized
sim ulator
CL U
ier i
Ġlong est
ift Card
Map per
Schema Editor
Ġfinal ize
drop down
language s
Ġip v
Ġtra itlets
Ġapply ing
Ġmult ivariate
ĠMod ern
Export ed
cont ract
Comple ter
å¸ ĥ
Pol ygon
ĠDatabase SchemaEditor
trins ic
Ġmime type
ĠPart ition
COMP ONENT
contin ue
Scal ar
Ġapprox imate
Orig inal
Calc ulate
Diag nostics
ĠReport er
12345678 90
rott le
lips is
çŁ ©
bounc er
ĠCuda Package
orpho logy
nfe v
ADVIS OR
H orizontal
S chool
c riterions
f onts
g d
Ã ³
at r
re views
Ġc am
Ġp in
Ġb a
Ġm oto
li min
ĠC P
Ġ( ("
ĠS AM
ĠS lider
el ly
up p
Ġl inalg
ĠP ur
Ġr at
ĠG R
ib ling
ĠE cho
te achers
Ġ4 8
mark up
max Diff
ĠSim ulator
={ })<
Ġ6 00
sum ing
16 7
Ġinit i
link ed
rand range
Gener ation
ph ases
Ġtool kit
Inter active
vas ion
fu zzer
ĠTensor Flow
COL UM
Ġmean ing
rad ar
Ġtrack s
Ġstop ped
Ġprob abilities
Ġinv oked
ĠValid ation
ĠAt tr
Ġprop ag
Ġassume s
ĠCategorical Index
Ġvisual ize
vo ice
CF G
Ġvul n
ĠDet ect
ĠColumnMap MetricProvider
Ġsil ence
TASK S
ĠCF G
COMPLE TE
ç¼ ĸ
ĠTestObject Factory
Ġredd it
Ġdevelo ped
ANALY TICS
G o
H and
L at
M PI
P eer
U mp
W AF
] /
f ish
g m
v in
z ed
Ġ served
at las
Ġt icket
Ġt weepy
ar er
an other
ic lass
ent rypoint
Ġb c
ex ponent
li e
ĠS olar
Ġ' :
id om
ack s
ve al
am qp
Ġde sign
Ġde viation
Ġr ating
Ġg aussian
ore m
red act
sc ra
Ġx avier
Ġor json
te ardown
ang er
ĠW ikipedia
arn ieri
ml p
Ġap proval
mo v
ĠTest As
Ġ% .
sh ards
Ġ4 3
fer er
check points
Ġso ft
Ġac company
CO DES
float ing
rc Params
Ġli f
Ass ignment
LI KE
CE LS
Module s
ĠAsync PipelineClient
dat aclasses
\\ [
fe e
optim izers
Qu ant
Sh ift
ĠResource ExistsError
Ġsplit s
å¤ ©
ĠQu estionAnswering
Ġperform ing
Det ect
interval s
ä¹ Ł
ĠRo om
Download er
Ġé ª
ĠRaise d
Ġhatch ling
Ġfe el
Ġsmo othing
ĠGu arnieri
mach inery
ĠCla udio
ĠContainerService ClientConfiguration
CELS IUS
4 06
C ER
F inal
F ilename
N LI
T UAL
b on
c riteria
s at
s lide
t ap
æ °
æ ĵ
ç ©
Ġ erepo
---- -
in secure
Ġi x
Ġa udit
lf ill
Ġre call
Ġs aving
Ġb al
ĠC lean
is digit
ce f
ver ified
Ġis na
Ġto ggle
el apsed
ĠM ET
Ġl p
ĠP ID
name spaces
ĠF eed
end if
ant ics
ĠB in
ĠB ound
Ġy outube
ĠR en
ff f
ĠH ass
In gress
ĠW OR
OR ED
Ġj ose
Ġj ava
Ġconfig urations
Ġ.. ._
12 1
ick y
iter ative
opt ic
IO D
34 4
]) [
Ġtr ust
Ġmin ute
Ġwrap ping
comple tions
Ġsocket s
Ġans wers
RES H
HTTP RequestHandler
ĠInt Enum
mar sh
ĠRE Q
Ġpost gres
è® º
Ġspe aker
mut ant
Ġobtain ed
Ġdatabase s
IR TUAL
He ap
IF T
Ġnull able
ĠSc ene
SY NC
ĠBatch Norm
ros so
Ġrect angle
Ġut ter
anc ial
TEMP ERATURE
DOC UMENT
THRES HOLD
Git Hub
Ġextractor s
ĠAzureMgmt TestCase
COOK IE
ufact urer
Ġaccompany ing
# :
2 25
A ugmentation
H S
H i
L et
_ =
b ird
b roken
c ereal
h sv
h umid
q tt
} &
é «ĺ
Ĩ æĺ
Ġa ux
"" )<
ge bra
lo x
ad ir
ĠL ike
ath ena
Ġg mail
res ample
ir ing
ĠI R
() ]
() )[
us able
Ġun ix
ĠG radient
sc reenshot
Ġe h
Ġe ye
ix y
"] ).
Ġ3 02
pon der
ms gs
nd image
") }<
we ixin
che me
serial izable
open cv
Model s
gr ant
IL L
Un expected
ĠSet s
dat atypes
Ext ra
ä» »
document ation
CR Y
22 2
Connection sOperations
Ġmap per
Ġreport s
ĠCON NECT
zero conf
tod ict
Ġestim ated
è¡Į æĥħ
Inst ances
PIPE LINE
ĠLinear Axis
ĠUN KNOWN
ynchronous TestCase
Non Null
Ġdescri bes
Temporary Directory
æµĭ è¯ķ
Ġschedule d
VO C
ĠCond itional
ĠLR U
æīĢ æľī
Ġtoler ance
aph ore
Wal ker
ĠAm eric
ĠRout e
MAG IC
DATAB ASE
ICRO SOFT
/ (?:
7 00
B undle
I o
P ub
P riority
Q TT
_ '
f k
n ap
o sed
p raw
s Client
v n
Ġ ):
re present
le c
he mer
Ġc Pickle
Ġo cc
un signed
co bee
co untries
ĠC lip
Ġ' |
Ġh unt
Ġof fer
Ġr pc
() ['
Ġst ress
Ġex plain
ĠB er
Ġres ume
ip hey
ob served
ĠĠĠĠĠĠĠĠĠĠĠĠĠĠĠĠ ĠĠĠĠĠĠĠĠĠĠĠĠĠĠĠĠĠĠĠĠĠĠĠĠĠĠ
[" _
Ġ3 600
ĠW ightman
os x
ĠCon s
ax ed
ec aster
RE DA
Ġ4 9
ĠDe pth
wait Key
PD B
uc ing
Man age
Ġus able
ĠQ X
play book
Str ict
ĠOpen GL
ĠCo gnitive
ĠPar ams
fs path
Server Error
]] ]<
BU FFER
ĠAl gorithm
åĲ «
ĠToken izer
Ġkeep s
sq s
hand led
parameter ized
ĠLine String
cap abilities
Build ing
Ġshort er
Ġshort cut
Ġmost ly
ĠRed dit
ĠÐ ²
At temp
Float Tensor
Ġpred s
ĠColor Mode
redirect s
Ġvari ation
monitor ing
Ġbind ing
ĠFormat ter
Num bers
INST ANCE
æĶ ¹
Ġbenchmark s
ĠElement Tree
ĠEd ge
ĠCurrent ly
ĠYO LO
iph ers
Ĩæĺ Ĭ
REDA CT
. -
A bu
D emo
T L
b w
b gr
c id
g ap
h oc
m oney
r vs
r slt
s ually
¹ æį®
æ ¶
Ġ è¿ĶåĽŀ
Ġt ex
de limiter
ar ma
Ġc sr
Ġf ps
Ġo ct
Ġb ench
pe ction
ĠC ookie
ĠL in
Ġcon trols
ject ory
ĠI M
Ġpro viders
Ġ: ]
add Item
ĠAn alytics
format ting
ĠPy P
Ġab ility
De ep
inter mediate
TR IES
torch vision
FA ST
rest plus
Name ResourceGroupPreparer
Ġ"" ""
Mock er
ĠCo ordinator
do i
MO V
åı Ĭ
Pre tty
Ġrece iving
Stream s
ĠĠĠĠĠĠĠĠĠĠĠĠĠĠĠĠĠĠĠĠĠĠĠĠĠĠĠĠĠĠĠĠ ĠĠĠĠĠĠĠĠĠĠĠ
Qu ota
Ġaccess ing
Ġå ¦Ĥ
Ġge om
rag ments
execut ed
Work book
click s
CRE D
tt l
Ġæ ī
System Exit
Wrapper Dataset
ĠAnsible Module
ĠInst ead
vector ize
åį ³
Ġfuture s
Ġdemonstr ate
åĨ Ļ
iling ual
sy nt
ĠUpdate Failed
>################################ ########################
ĠRule s
æŃ £
ĠTree Node
ĠTq Api
Ġsec ure
ĠSerial izable
Ġassemb ling
ATT ACK
Ġband width
dynam odb
PROGR ESS
! ",
A IR
G lyph
U AGE
e lection
e ager
f ort
h mac
i oc
l ut
m fa
p aste
r ict
z ap
re produce
Ġn oop
Ġb w
ad vanced
ĠT witter
ĠA st
ul li
get state
con cepts
ĠM ath
ĠM erge
ĠF ont
00 6
args pec
Ġun available
Con version
Ġse qu
ĠR a
ĠH AS
Ġon to
vi el
ĠW heel
Ġj ournal
bo ston
cept ron
DE C
") (
12 6
Ġtext ure
Ġ`` "
ä¸ ²
ä¸ »
List en
view er
sd l
Ġinter section
Un load
stream ing
Ġexp ansion
19 1
ĠAdd s
Ġinfo s
FOR E
Ġoff line
66 66
Ġsl ack
ater n
ĠAnd roid
çĶ »
Ġkernel s
transl ations
Ġsim ulate
>================ <
effect s
Ġembed ded
ĠInter active
diag onal
sw ag
war p
Load ing
iso format
Values To
Ġauthentic ated
adapt ers
Ġtre es
cla im
åİ Ł
Retrie ver
Managed Identity
vant age
' ):
) [:
A W
A ir
A ES
C AN
D i
D OT
I mp
I mg
J ohn
M AT
M ade
O W
S ENS
V S
Z a
h h
n op
n inja
p runer
{ \
} ^{
à «
Ġ ä½¿çĶ¨
ro cm
Ġa ilment
Ġp list
Ġp alettes
Ġre member
Ġm omentum
ĠC UR
ĠA WX
ĠL at
ĠL abs
ĠL GPL
ol ling
tr usted
(" .")<
(" ../
ext ended
ist a
ĠD iag
Ġde scriptors
ir block
tp ack
=" {
Ġy t
Test Client
=' ')<
Ġro i
ĠV ari
Ġtype guard
Ġsc enarios
Ġversion changed
sp aced
istr ator
ĠTest S
ĠPro vider
UT E
Ser ialize
11 5
common s
ie ve
>""" ,<
Ġover load
14 9
An not
static files
24 0
replace ment
Context Manager
long itude
Http Request
Ġmo unt
sched ulers
mac ros
Ġcons ists
commit s
Web Socket
BL ACK
STAT IC
Ġel astic
ĠSE CURE
period s
black list
WE IGHT
Vis iData
Ġcollect ed
è´ §
Ġkw ds
Ġsimp lify
mix er
Bl ueprint
Ġvul ns
æĶ ¯
ĠMonitor ManagementClient
Ġ[{ '
Ġbo ard
tas mota
THRES H
withdraw als
MUT ATION
+ \
: ]:<
G ATEWAY
H Y
T M
U ri
V ariables
Y our
] ',<
b ow
c utoff
s ax
t witter
v r
æ £Ģ
é ĥ½
Ġ ä¸ĭ
se ng
in cluding
re pl
st y
Ġt addons
de cre
---------------- -<
li yun
ch an
ch rome
ĠA ggreg
ĠL oop
py learn
Ġis o
Ġto urnament
ĠM E
ĠN othing
ĠP op
Ġde gree
to x
() (
Re alm
Ġpy mongo
Ġun expected
ĠG C
ĠG RE
ĠO perator
Ġx lib
Ġse aborn
ĠU SE
In spector
pre ferred
pre amble
Ġap ex
ĠTest Check
fil led
ĠEx ecute
ere als
call er
ĠConfig Flow
NA P
11 4
Ġhttp retty
be have
Se par
eb a
tensor board
Ġ"/ "
ĠKey Value
socket io
Ġdat as
Ġident ified
Ġexist ence
insert ion
Ġcontin uous
ĠAl ready
ä½ ĵ
cogn ition
Ġsim gr
ĠModule NotFoundError
amer as
ĠCON AN
BO OL
ĠQu ant
CRE ATED
IM READ
Ġcalc ulated
DES CR
ABC DEF
Ġblob s
ä¹ °
cos ine
Ġsection s
cer ts
çº ¦
UPD ATED
Admin istration
guide s
CLO SED
rep Plugin
å· ®
vul ner
ĠDet ection
>================================ ====
Multiple Choice
Scan ner
ĠTer minal
è¿Ļ ä¸ª
ĠSV G
âĸĪâĸĪâķ ĳ
Plan ning
deli very
PREC ATED
Ġintern ally
hemer al
) ._
0 32
2 26
B reak
C ost
C rop
G enerated
H idden
H DF
P e
P AN
Q R
S MS
V ECTORS
e asy
h om
h stack
k ers
l ights
r ack
w intypes
Ĥ ¨
in sensitive
at ically
re veal
Ġa mong
ar ser
Ġc he
Ġre wards
ĠC S
ĠC hain
ch i
ĠA nt
ĠA AD
ĠL ook
ata ble
ĠN eed
ĠP ing
ĠF latten
to wer
Ġpy spider
ĠSe cond
Ġv ide
ob servations
Ġme th
"] ):<
add option
Ġro bust
Ġco mpl
In dic
ST ORE
sh rink
PI D
Ġpath spec
Ġ[" -
ash i
sub parsers
12 2
Ġbase line
dis card
Ġmat erial
ĠSim State
ä¸ ¤
project euler
Ġ"" :<
Ġdif fer
Ġmain ly
connect ivity
Ġsign ing
IS H
sv n
SU M
helper functions
App Config
Dis k
ĠGet s
TER MIN
CP AN
UM MY
ERR ORS
hand ling
Ġæ ł
Ġjob lib
force ment
sw f
ugg ested
Ġcorrespon ds
ĠSql AlchemyExecutionEngine
Ġpe er
Pol ling
Fl ask
Row s
RAN CH
Ġrecogn ize
OO G
Ġsqu ares
indic ator
ĠCL ASS
ĠKeyboard Interrupt
Ġke pt
Ġéª ĨæĺĬ
$ ')<
* )
D IG
M irror
S te
S corer
X iv
] ;<
_ "
d ilation
e u
f avicon
g ensim
h n
i able
o DB
p print
r ity
s ymmetric
t um
à ³
in ject
at an
Ġt weet
de co
ion di
Ġp t
Ġs lices
Ġ" ))<
ac me
Ġw id
ap pro
ĠP K
ĠD WORD
Ġth inc
path lib
Ġst em
data file
sc itype
http retty
ĠO p
ĠB iondi
ag o
ĠH yper
te lemetry
RE PO
Ġ4 01
Ġsub mit
head ing
Ġ5 5
Ġdis count
Ġdis criminator
Ġpre ced
ware house
no logy
File Parser
Ġper ms
Ġ`` '
Ġcontain ers
Ġdocument ing
20 4
Ġevent let
link er
04 3
Python Recipe
Ġaff ine
ne cessary
part ner
part icipant
ten ant
Ġ7 2
CON N
Ġweb browser
ĠString Property
Context Var
ĠCheck out
æľ į
Ġconnect ing
}} "
ĠInput Definition
('/ ')<
åĬ Ł
ĠValid ate
Ġencoder s
255 19
"/ >"""<
IB LE
mag ing
Ġscan ner
ĠAct ivation
Ġconstruct ed
Mod ifier
ä¼ ł
capt ured
Notification ProtocolEntity
Alter Model
ĠKeyVault ClientConfiguration
ĠGPU s
incre ment
Mult ivariate
å¦Ĥ æŀľ
fla kes
ĠHO ST
Ġ`~ .
Ġsen se
ĠPER CENTAGE
Ġsanit ize
Ġmach ines
âĶģ âĶģ
viel ens
' $
' ")<
3 50
7 48
8 75
D id
E AR
G UI
I Reactor
J K
Q App
R pc
S ame
W arn
Z IP
` )<
e h
f i
f ba
f usc
i et
k p
l ict
p list
s ocial
} [
§ è¡Į
Ġ ì
st udio
Ġt v
Ġc nt
ic ing
Ġ" )
Ġn ms
Ġm ass
ĠC os
ĠS CHE
ch en
ĠM ost
ĠM ATCH
ĠM ICROSOFT
Ġh olding
ĠD DP
Ġg ap
ĠF it
ĠI I
form recognizer
Ġstr ong
ĠE SC
ill ion
Ġon nx
ĠU ns
ĠV ar
SE Q
base dir
ĠAn imation
Ġint s
12 4
Ap pend
met as
:` \
Ġhttp x
Comp ose
Comp utes
13 9
Ġpo se
conf lict
Pl us
pat ial
Ġallow ing
Is Element
non existent
Ġdetect or
ĠInt el
cr ash
... ')<
SH ARED
dot s
Sc roll
fu zz
full name
mut ed
ĠDep loy
Query Set
ĠWeb Site
gl ue
IE W
ĠPlugin CanHandleUrl
Ġinv ocation
ĠLe vel
Pr incipal
Ġart ist
Ð° Ð
Ġatt ached
feed back
ĠPol y
snapshot s
ĠEntity Category
Clip board
aug ht
POS IT
é¡ µ
Ġsing leton
Del ta
IGNORE CASE
LAB EL
çĶŁ æĪĲ
ĠMAN AGE
Ġcoe fficients
ĠImp acket
Med ium
ĠSecure Auth
ColumnMap MetricProvider
IsElement Present
3 06
: ].
> ]
A verage
B M
B AT
F requency
H ere
S em
S ES
S OL
S catter
c api
d ta
f ds
f ocal
i ences
i Fi
n os
v pc
| ,
æ ¡
Ġ lf
or ange
re achable
ar ly
Ġc xx
Ġs anity
Ġs sdp
Ġm qtt
co x
ĠT akeover
ĠL ABS
ol ated
Ġto ur
Ġh int
if ace
Ġth umbnail
Ġ{ (
Ġpy asn
wa res
Ġj oint
ĠAn gr
ain Text
Ġsub sequent
AL LE
Ident ifiable
iter tools
const rained
Up dater
') ):<
Ġsp iders
(_ ,
UN ICODE
For warded
graph viz
Not es
vide os
19 68
50 8
exp ansion
msg pack
28 9
Ġdist ances
Ġad vanced
Ġoff icial
has ht
Ġå Ĳ
ĠText Field
ĠText IO
VAL UES
With out
ĠDis able
Network ManagementClient
ĠDate Time
plan etary
draw ing
Ġactiv ated
Ġdecor ators
ĠÐ ¿
aff ine
ĠAd ded
æī ĭ
inds DB
ĠSE LECT
LAY ERS
æĶ ¾
Predict ion
ĠColumnMap Expectation
retrie ver
inherit ance
ĠBU ILD
ĠOUT PUT
Ġrer aise
BV V
IRD st
ĠPhil ippe
è¯» åıĸ
ĠShip ping
AMER A
Ġuncomp yle
ç³ »
ĠTestAs semble
ĠSECURE AUTH
" '<
4 05
E LE
I AS
M ail
O w
P ERS
S as
S creen
T EN
d up
f w
f af
h pc
l strip
m ssql
n ut
é ģ
Ġ vehicle
re pro
re auth
Ġt l
me ter
Ġre loaded
Ġm lf
co ol
ot ing
ĠS on
ĠS ERV
ĠT urn
ĠA ug
ĠP ORT
int p
Ġde leg
Ġg old
Ġ. *
00 8
ay ashi
Ġun install
oo led
Ġ: :<
Ġor gan
"] })<
ĠW ar
ĠV ul
ĠCon struct
log ic
Res Net
") [-
reg istries
ash ader
tool box
Ġjson schema
ĠData Lake
={ },<
air flow
fa ust
plugin matcher
DI ST
Ġmod ification
sys log
Ġ"" )
19 6
ĠDO M
Ġmsg pack
Trans action
IS O
decode d
system s
Text Present
Ġpr imitives
TH E
CR ITICAL
Ġmulti ply
Is TextPresent
77 7
predict ed
ĠEn able
åħ ¨
ĠMe asurement
æĺ ¾
äº Ľ
simple filter
ĠIN T
inf rastructure
Ġæ ¨¡
DES C
ĠGraph ics
Rule s
Ġincre ase
mm cv
Ġcorrespon d
ĠClass ification
ä¹ ¦
ĠAss ume
ĠSystem s
ĠNamed TemporaryFile
ĠGroup ing
implement ed
hu ggingface
[^ /]+
Child ren
Install ation
pow ershell
å· ¥
Mult ibyte
ĠTimedelta Index
sur face
ĠTP OT
Ġeig en
Pers istent
DateTime Field
Ġide a
ĠWIN DO
Ġå¯ ¹
ĠSty les
ĠNinja API
# -----------------------------------------------------------------------------<
9 09
> `<
B rain
B AS
M R
Q S
S parse
g pg
l apping
l gpl
s st
s par
t flow
on trib
re nd
re start
Ġ" `
Ġ" *.
Ġd om
Ġb z
Ġb anner
Ġm vt
Ġw ire
li pt
ĠS heet
ĠS creen
ĠA F
th ough
um bs
ĠN A
Ġl bl
ĠD ialog
am d
ĠI PDB
ri ef
Ġ0 7
ĠB IN
=" .
Con struct
user content
Ġ@ _
ĠAn notation
ĠTest Write
ĠDe bug
ĠEx change
ĠPy PI
min er
trans formed
To Many
mb c
are house
={ },
Ġhel ps
Configuration Error
Ġdf s
For QuestionAnswering
{} '.
Ġyour self
ene ous
100 000
EX PI
Ġpr ereleases
Th en
36 5
Ġins pector
ĠRun ning
Ġtri e
lower case
Ġpip es
Ġmark ed
ĠHTML Parser
ĠResource NotFoundError
Ġthere fore
ĠDocument Array
include s
ĠInter planetary
IF ICATION
Ġlock ed
ĠAss ign
æĿ ¡
ĠFairseq Dataset
Ġpipe lines
ĠMem ber
Ġfe ats
>============ <
cum sum
INTER N
oper ators
contin uous
replic a
ĠBL UE
trunc ate
ĠKe ep
Help Formatter
Ġreproduc ibility
ãģĨ ãģĨ
>-------------------------------- -----------------<
Ġlas agne
æĦ ı
arb age
Ġill ustr
ĠAiohttp Client
ĠMER CHANTABILITY
CRED ENTIAL
2 29
> |
B loom
B UTTON
C ent
M utable
P IN
P ie
S igmoid
g ing
m map
t an
w m
Ñ ĩ
å ¢
re ls
st ash
mp ts
Ġi l
ro bust
he p
as ymmetric
Ġf ar
Ġf qon
Ġf ocus
Ġd aily
ac ific
Ġm map
li able
ĠS M
ht m
ĠL EX
th ena
ab ot
con trols
ĠM object
ĠP ick
Ġcon secutive
ĠD river
Ġr sa
ĠF FT
ib atch
EN G
Ġ% <
Ġmodel ing
RE AL
Ġdis covered
Ġsh ot
Ġcheck points
ĠK ivy
ĠDict Config
(( (
sol ution
Ġinter p
Ġpo ssibly
IO Manager
Ġ8 00
Col ors
MO DULES
EX IST
08 01
Ġq ark
33 0
33 7
dist inct
Ġqu it
Ġdat ashader
Ġtransform ations
Code s
Image Math
Ġge o
Ġtri ple
radi i
ĠTensor flow
ole on
Ġemail s
COL ORS
tod os
detect ron
pad ded
å® ĥ
Ġnorm ally
fetch all
Ġlock s
schedule d
So ftmax
irm ware
00000000 0000
PER IOD
celer ator
Mo use
ĠSQL Alchemy
smo oth
Ġtar ball
ste in
Ġfu sion
ĠAS R
ĠOver kiz
Endpoint ConnectionsOperations
æĶ ¶
>============ ==<
ĠMonitor ManagementClientConfiguration
Ñģ ÑĤ
Ġdetermin istic
Ġtick er
ĠKnown Profiles
ayes ian
âķĲâķĲ âķĲâķĲ
ĠâĢ ľ
prun e
concurrent ly
æĽ´ æĸ°
pyqt graph
çľ ĭ
æĵ į
Ġå¦Ĥ æŀľ
6 55
> ####
> **
A IN
D igitalTwins
E ach
F P
F ICATION
F RI
J oin
O ID
P o
b mp
b anner
c sc
f riends
j e
p ri
p unc
x n
x ref
z ha
æ ·
è ¶
or ate
Ġa way
Ġc utoff
an no
Ġp sy
Ġs dist
ur istic
Ġin vert
Ġn cols
Ġm utation
ĠC hoice
Ġ( $
Ġ' ?
py x
th umb
el s
Ġcon tact
Ġcon tours
Ġr isk
ĠI SO
end encies
Ġst udent
ĠSe q
ag ram
Ġse g
te le
Ex periment
ĠTest PluginCanHandleUrl
with in
Ġal ice
Ġal igned
Pro mpt
Ġcomp ressor
25 9
ĠIn sert
ĠIn ference
default dict
eg o
trans actions
Ġtext distance
inter rupt
LO OP
TR AN
iter items
ĠSt udy
Ġle af
Comp at
tribut ion
Ġmod ifications
Ġdataset te
let ion
over write
Me ans
Ġfind s
Ġinstall er
ĠCol lector
icon s
ph rase
44 4
Ġmulti part
Spec ifies
pool ing
ĠTe legram
äº º
typ ed
å¤ ĸ
åĽ ½
æķ°æį® éĽĨ
aus al
Ġincre asing
vers ations
coco tools
Ġvari ety
åĽ¾ çīĩ
Ġmac OS
Ġrefer enced
Ġlin estyle
ĠPO INTER
Ne Xt
Ġdefer red
Ġ{{ <
mic ah
Ġimpl icit
FACT UR
Ġsound file
Ġsing ular
ĠProfile Definition
ĠSpark DFExecutionEngine
avor ite
åĽł åŃĲ
Cancel led
ç¡ ®
ç¥ ¨
ĠNyan Object
Administration Client
æľį åĬ¡
= (),
B D
C DF
F B
G C
d ont
j t
o ve
p ay
p icture
q n
x html
æ Ļ
le ave
ic c
lo ut
co lour
is od
ch apt
ĠA tt
ul se
ĠL M
ĠL ow
ĠN ested
Ġ[ '<
ĠP ayment
ĠP osition
Ġde ap
Ġ""" )<
pro tot
Re al
red ucer
__( ):<
assert List
user profile
ĠU DP
ĠV ER
num ba
pre sen
Ġlist ing
log out
PI P
CK ET
ber g
Ġdis connect
Ġsh rink
32 7
Ġat omic
no se
ref lect
Ġitem getter
Ġu func
US R
=[ ]):<
Def ect
Col lect
fl ash
Ġsample d
Ġ{} ).
fore ver
Ġ100 000
ph isto
ĠDE LETE
ä» ĵ
200 3
chart s
convert ed
Ġrecord ing
Task s
GR AM
BO O
:`~ .
Ġremo ves
DIT ION
ret ch
HEAD S
mm f
Pr ime
åį Ī
Ġdown stream
ACT IV
Rece ive
Mo zilla
lt i
ĠtearDown Class
direct ives
incre asing
wal ker
Ġtrunc ated
weak ref
Ġcla mp
PDF Type
^^^^ ^^^^
Ġdivis or
IDD EN
é» ĺè®¤
ĠREQU I
rosso ver
ValuesTo Be
1968 0801
INTERN AL
FACTUR ER
2 13
C ha
M erge
M oney
S GD
T odo
` ).<
b loom
f amilies
g us
h m
h its
l am
n rows
q i
s plash
Ġ energy
re levant
st acle
Ġt aking
Ġi py
ar ith
Ġp runer
Ġf sspec
ing u
lo cs
un register
Ġm utable
Ġw sgi
Ġw elcome
li ding
ĠC ha
ra ster
Ġfor get
ĠA o
ĠA ST
ĠL edger
ĠM LP
Ġ[ _
et ime
Ġ2 048
Ġr x
ir f
ĠI gnore
ĠB uiltIn
Ġy olo
op lete
Ġro les
ĠU ses
ĠRe ader
Ex c
Ex ceeded
bin om
([ \
Ġsub dir
Ġ5 000
db m
sub parser
github usercontent
Ġac curate
The me
Ġ`` (
({ },
ĠBase TagTransformer
PO LL
wh ats
idx s
Service Info
33 3
SA ME
Ġpr imitive
Ġdb us
Definition Error
Table s
ĠDocument s
Action s
"} },<
Multi Index
âĢ ĵ
sw ap
ĠOn ce
require ment
DEF IN
ĠNum erical
å¯¹ åºĶ
Stop ped
Operation Error
Ġ------------------------------------------------ ---<
vest er
ç®Ĺ æ³ķ
VIS ION
rat ings
stub s
armon y
IDD LE
Ġ'.. ',
å½ĵ åīį
è¯Ń è¨Ģ
SHO W
ĠAUT O
ALLE L
ĠAiohttpClient Mocker
assertList Equal
' /
) ()<
. ],<
/ """<
A E
A VA
C os
C ircle
F old
I ssue
P ixmap
S ur
b rand
c ab
h ind
o ids
r ist
r ates
t c
ķ Ĩ
in jection
in forcement
re cent
re comm
de compress
Ġa ug
Ġc k
it ch
an onymous
Ġs u
ed y
un safe
ig ate
Ġw al
ad visor
ĠS AX
ĠT R
qu is
test data
(" *
Ġcon tract
ĠD im
Ġde claration
to gether
to urnament
Ġex posed
ĠG ooey
sc rypt
ĠE p
ĠE OF
ma gn
com ma
ag ain
te arDown
). "<
Ġj ieba
back fill
ĠEx periment
En semble
Ġte legram
Ġdoc strings
Co ver
Ġinst abot
Ġne ighbors
Ġload ers
Ġ| |
Ġsupport ing
Ġinter pre
Ġtr iggers
stream alert
ĠMock Response
ĠDO WN
batch norm
now flake
Time line
Time Series
vid ia
Ġstruct ured
RES OL
HTTP Response
gre y
ĠEn ter
åħ ·
Ġrel ation
Ġfail ing
Ġdownload s
Ġspecific ally
ĠExt ra
success ors
tra iling
Ġchunk ed
Or ganization
ĠDec ision
Ġedit able
ĠRed irect
ĠÐ ´
IZ ED
Ġmult iline
EVENT S
AA A
cer n
Blob s
Ġhex lify
ä¿ ®
Ġra ising
ĠCan vas
Ġinf inite
ĠMax imum
mq p
RAN GE
Ġdetermin ed
Ġflatten ed
å®ļ ä¹ī
Public Key
ĠServices Types
Ġmanip ulation
Ġca ption
Ġcirc ular
Ġvo ila
ĠThreadPool Executor
Ġsv g
Descri be
Ġå° Ĩ
Aff inity
ĠWINDO WS
/ (
8 26
> -----<
A lexa
C rypt
D DP
H older
O CR
P TR
R M
S uch
] |
_ :
a j
b ones
b road
b illing
c af
d uty
f resh
m appings
n z
o ken
r ss
s ynchronize
t series
x onsh
Ġ um
Ġ ########
Ġ ðŁ
ro ids
Ġa ch
Ġc book
Ġc limate
Ġp seudo
ge thost
Ġs aleor
Ġd ct
Ġm la
li shed
ĠC Python
ĠC ached
is m
ĠS ense
ĠT AG
ĠA CT
Ġ- (
Re covery
Re cursive
Re playBuffer
ĠB ecause
Ġres ized
Ġse arches
time points
ĠĠĠĠĠĠĠĠĠĠĠĠĠĠĠĠ ĠĠĠĠĠĠĠĠĠĠĠĠĠĠĠĠĠĠĠĠĠĠĠĠĠĠĠĠ
=' '):<
RE AK
Pro c
df a
len ame
Ġdis p
gra b
Ġopen ing
11 9
ĠJ ames
Ġlog it
ĠData Box
gener ics
16 3
Ġinter polate
An imation
width s
std dev
PATH S
Command s
44 0
ĠWe ak
]] ]
Ġintegr ations
stop ped
Ġta u
Spec ial
ĠAl tern
Ġfigure s
writ able
Ġreport ing
>================ ==<
clean ed
exc info
Ġstack ed
ĠCO VER
å® ¹
OFF SET
DU CT
Control Configuration
ĠOr acle
We ak
Ġtransl ated
ĠRES O
ç±» åŀĭ
year s
Unit Test
éĹ ®
Comple x
uk i
é¢ ĺ
Assign mentsOperations
>============ ===<
ĠFore cast
Ġrec ipient
MAPPING S
ç´ ¢
ĠLayer Norm
ĠVocab ulary
east us
ATTRIBUT ION
Ġreplic as
HR NET
ARI MAX
ĠPyS ide
é¢Ħ æµĭ
ĠNumeric Property
åĵ ģ
Clusters Operations
ĠSl ack
rity Error
æĵį ä½ľ
magn itude
' (
( $
8 02
9 01
< <
B PE
B ridge
C artPole
F X
H ar
P kg
c ale
c losing
d w
v ac
z i
Ġ è®
or ical
re view
mp lot
al ake
Ġp an
Ġp ic
Ġf riendly
Ġf leetspeak
ct r
Ġs at
ex ia
Ġas c
ĠS te
ĠT ABLE
ĠM is
ĠM gmt
tr ust
ĠP AGE
Ġcon j
Ġde bouncer
ub untu
() ")<
Ġex ponential
Re c
ĠG luon
=" \
Ġget ter
"] ]
add le
Ġar ma
Ġco in
Ġ` --
ST DOUT
Ġk l
cor relation
Ġsub tract
Config Error
join ed
pr incipal
Ġdis claimer
Ġdate fmt
Ġab straction
start ing
gra ds
To urnament
DO CKER
Ġsp a
RO W
Ġfil eno
Se lf
UN IQUE
Ġu json
EST ION
15 6
web p
web site
Object Reference
Ġsome times
Ġdist inct
Ġgre entest
\\ .
socket s
Ġdat asource
Ġrece ives
case d
Ġnon ce
Ġstruct s
Ġå ®
Ġdownload ing
ĠClient Raw
.* ?)
Ġæ ¯
export er
Ġcluster ing
ĠError Response
ä¸Ń å¿ĥ
Link ResourcesOperations
Part ial
æī §è¡Į
green let
Ġfeed back
çŃ ¾
Ġcop ies
ĠConvert s
Sn ippet
Sn ippets
Sn ips
Ġra bbit
éĹ ¨
Ġcomplex ity
Pol y
Component Test
mime type
letter paper
>-------- --<
Enc rypt
attach ment
PARAM S
ĠSparse Array
meson lib
ĠNE W
attemp ts
VEND ORS
lti Snips
ĠClientRaw Response
5 03
8 01
> %
B ET
C amila
G ES
G LM
H ot
V ision
V IDE
a ur
r ature
w ide
it z
Ġre use
Ġre build
Ġre tries
Ġs ymmetric
Ġin file
un less
Ġb ubble
import er
ĠC LO
is null
ĠS ENSOR
ue l
th r
ĠM usic
Ġl ights
ap proval
ĠF ri
Ġlo ops
Ġun changed
ck pt
out ines
Ġx ession
ĠR SA
In ventory
Ġpar ses
Ġj ac
ho ices
ep ub
ec c
Ġk de
St ates
Pro filer
arg inal
Res ize
ĠCh art
Ġrun nable
[' /
request ed
ĠPy test
Ġte acher
Base Transformer
Model V
Ġopen razer
11 6
:` /
AD MIN
Ġinter actions
Token Classification
04 0
lif ter
56 6
ne ver
Ġ200 4
ĠEnum eration
Ġhe artbeat
MO DES
Ġcor r
CON AN
Ġaut ore
Ġpr inter
Group sOperations
)[ -
Ġrepresent ations
Ġaccess ible
Plugin Test
Spec ified
Ġmo ves
ĠEvent Data
ãĢ Ĭ
ãĢ ĭ
ĠIN FO
çĶ¨ äºİ
Ġfix er
ĠExpr Assign
Ġ"{ {
ĠPre pare
WAR D
Sim ulator
ĠCredential s
åĮ º
ĠPo isson
ĠBack up
Mark er
Num eric
virtual env
è§ Ĩ
Ġtre ated
ĠPAT TERN
ĠSn apshot
ç¤º ä¾ĭ
SING LE
sel ves
èĩª çĦ¶
Bo ard
Ġpublish er
commun ity
Ġcla im
ĠDrop out
saf ety
sheetView s
æĪĸ èĢħ
amazon aws
mega Conf
Ġein ops
redd its
ortho gon
Ġwind ll
ĠCoordinator Entity
æĺ¾ ç¤º
lipt ic
* .<
D VC
F ac
M ag
S RC
S ection
S LEEP
S cheme
] `<
c w
k m
k os
l hs
m argins
r pm
u ing
w char
w andb
z eg
} ))<
Ġ ;
or rect
se lenium
ar bitrary
me ters
ic ated
as cal
Ġp ract
Ġ" >
Ġo x
Ġb b
Ġm illi
ĠC enter
ĠC IFAR
ĠS ent
ht ype
ĠT or
Ġ' (
qu oted
ĠM ir
Ġh its
ĠP L
(" ^
Ġde serialized
Ġr sp
Ġg api
Ġth ink
(' ../../
ial ogs
Ġex pired
Ġpro posals
IN SERT
ĠB roken
Ġx i
Ġx log
Ġx max
Con s
ĠR ag
Ġor ient
serv ability
pack ed
Ġwh atever
ĠV ision
Ġ` -
SE ED
ree ment
ĠCon tains
ĠCon structor
valid ated
ST Y
ĠTest Suite
mat izer
Ġ4 096
LE T
Ġcomp uter
Ġsource code
ĠAny PDFType
32 6
32 9
Ġtext blob
Ġz oo
inter cept
Model Factory
'] ]<
uff man
Ġwhen ever
Ġle ase
RO Cm
Ġformat ters
000 5
HO UR
ia mp
For TokenClassification
Ġtemp dir
CE LER
mod s
Ġinstall ing
make file
Service Bus
Th reshold
board ing
gen der
Plugin Error
non ce
Ġ12 34
Sub class
grid spec
Ġfail ures
ĠResource GroupPreparer
HOST NAME
Ġcover ed
ĠPlugin Error
ĠOutput Definition
ĠÐ ¼
sen se
COM PI
COM MIT
Ġexport s
STAT S
Ġdown grade
Ðµ Ð½
ï¼ļ <
segment ation
å¼ ķ
ĠSpec ifier
hyper pyyaml
Ġra ster
PN G
Ġ## #<
MULT I
tex info
Pos itive
ĠAb ode
ĠNormal ize
MB OL
LA ST
REF RESH
FIEL DS
è· ¯
AzureMgmt TestCase
ĠOff set
ĠCalc ulate
Ġvulner ability
Ġcanonical ize
IDENT IFIER
CrossEntropy Loss
Pandas ExecutionEngine
sth rough
XD G
AlterModel Options
BAS IC
1 10
2 27
3 04
7 13
> ',<
C y
C la
D avid
E OF
G T
H acked
J ust
M a
P ools
b at
f lo
o ir
p res
t ur
t mpl
or se
Ġt mpl
de veloper
ar l
Ġ" ${
Ġin clusive
__ .<
Ġm oment
ĠC ap
Ġ( ``
ue ck
th ird
con trast
ĠM AG
ĠN ext
Ġh am
ap py
ap ack
ĠP ip
ĠP okemon
Ġcon trast
Ġr nn
ĠF ully
ri k
ta u
key ring
:// /
"] ],<
ĠH MAC
Ġname spaces
te legram
ĠU sually
ĠV OC
Ġj si
Ġ` _
Ġconfig urable
sub domains
eg round
trans itions
Ġz near
av en
max len
mock ed
np m
print able
sent s
FA CE
sl ashes
Auth enticator
cli ps
conf idence
ili ary
Ġyield s
EX PECTED
Ġ{} \
Ġdat atype
Add on
AM B
Plugin s
Ġskip ping
Log ical
Ġhow ever
Per f
ĠDefault Dict
PR IVATE
Dis covery
ĠApp Config
Ġdec ision
Ġpk t
aster n
TRA CE
Ġreplace ments
Ġgen ome
Ġevalu ated
ĠWh ere
Or g
initial ization
Util Bu
('. ')<
Ġpred icate
Ġ".. ",<
USE D
ao lo
Max imum
åĪĨ ç±»
ĠSign ature
anis he
Rob erta
Ġselector s
ĠBot tleneck
gradi ents
pick led
ĠPIPE LINE
inet ics
å¥ Ĺ
ein sum
è½¬ æį¢
Launch er
ĠAP PLICATION
è°ĥ çĶ¨
Inv oke
æ² ¡
æĶ¯ æĮģ
ä¹° åħ¥
Indic ates
ueck st
/ *.
4 50
6 78
7 20
? "<
B S
D URATION
E lastic
G ood
R S
S MALL
a an
b andit
f inite
g uid
g cd
s pectrogram
w kt
y i
re covery
Ġt y
Ġi ou
ar cs
as df
un install
Ġm aked
li ant
Ġ' @
ĠP ENDING
(" $
Ġcon vention
Ġr mtree
ĠF actor
res id
Ġex poses
Ġv ox
load ers
Ġpar alleli
Ġj ax
ho se
pre parer
ĠRe lease
Ex pired
log pmf
Ġsub parser
Ġsub mission
Ġwe ather
Ġno isy
ĠEx ecution
Ġpre fer
inter sphinx
iter dir
ĠJ amil
mit mproxy
Ġgener ally
EX P
ĠHTTP Stream
ĠHTTP Server
Int Enum
now ait
TO OLS
ĠPl ace
Ġplot ly
fail ing
ater ial
access ory
multi apiclient
76 8
æĸ Ń
Work sheet
Work flow
å¤ į
Ġbreak s
Inc lude
transport s
Action Type
Box Layout
åĩ Ĩ
Ġdest roy
Cre ator
rf x
From String
UB IC
COM MENT
éĩ Į
war der
Ġart icles
Cond itions
Ġpe ak
ĠPipeline Definition
alloc ate
Ð¸ ÑĤ
ste mp
NET WORK
Ġquant ity
placeholder s
Ġpick led
Ġrecomm end
EMP TY
ĠSegment ation
Bo ilerplate
Ġintro duced
HEL LO
Ġcum ulative
Zip File
Ġmarsh al
Ġdynam ically
ĠMED IA
ç© º
Ġvide os
iamp aolo
7 18
A ffine
B RANCH
C od
C PP
M argin
S olution
T ORCH
a head
b art
b ang
h read
m st
m ass
n ume
p read
s x
s ch
s build
s mb
Ġ ################################
Ġ ------------------------
on ing
in ate
re use
en force
de mand
de velopment
le ak
ar ns
Ġc lo
Ġc text
it en
ic ator
est or
Ġs d
__ ":
co erce
ĠC TC
ĠL ex
ĠL arge
py project
ĠM enu
Ġl am
Ġl ag
ĠP CA
(" ~
Ġ2 50
ĠF F
ub yte
ir med
(' __
pro toc
Re ferer
Ġ0 1
ĠG ENER
Ġpro posed
ĠO ur
ĠO megaConf
ĠE sp
ll vm
out liers
Ġv id
ag ination
ĠR od
ES CAPE
ĠThe ano
IC lient
af a
RE MOVE
Config ure
df ri
Ġpre pended
Model ViewSet
'] ),<
Ġstat istic
Ġmat ter
Ġ[' .
Ġmax size
Ġman agers
ok i
99 4
color bar
FI RST
top k
stack ed
round trip
Ġhelp ful
CON TAINER
Ġaut oc
Ġoff ers
LOG GING
PP ER
Ġfull name
Command Error
Message ProtocolEntity
ĠMy Class
Ġmark s
Filter s
}) ".
gu est
Batch Kwargs
Ġevalu ator
ĠEX PECTED
Cache d
orb ell
LOCK ED
Ġatt ack
ĠTr acker
Ġautos pec
smo othing
Ġrefer ring
pub sub
å¾ Ħ
Based Runner
Ġassign ments
æĸĩ æľ¬
Download ing
Skip ping
ANCE L
Ter minal
stand alone
Ġsil ently
çķ Į
Na N
éĻ ¤
Ġprom etheus
imag enet
GIT HUB
Ġencounter ed
capital ize
ĠRen ault
nap oleon
presen ter
3 08
A ng
A CL
F ar
I m
L AN
N othing
T q
T ex
V e
W heel
W rong
c ifar
d ry
e per
g auge
m indsdb
n th
p cs
r tmp
s lices
t cl
t abs
v v
x min
} (
Ï Ģ
à ¥
à ·
é ¥
or ient
in Box
ar able
Ġp x
Ġre construct
Ġs id
Ġn ic
Ġd sk
__ ),<
Ġm wr
Ġw andb
ĠC rawler
ĠS L
ĠS mo
ĠT ags
py r
Ġan no
ĠM ar
ĠM ULT
tr iv
set state
ath an
Ġcon struction
ĠF raction
Ġpy parsing
lib elf
IT H
Ġres net
ations Operations
qual ink
ĠCon verter
ĠAn onymous
ĠTest Base
own ers
we ep
pr imitive
ĠPy Installer
Ġsh if
32 8
html help
ĠAuto Sklearn
OT P
CHECK POINT
CO PE
og eneous
CT B
MP T
ĠY ang
PO WER
Object Container
23 5
Int Field
Time delta
Ġad monition
Ġcustom ized
Ġframe on
ĠFile Path
STR U
scale s
Ġå Ĭ
END ER
Ġstd lib
Connection Exception
ee k
record ing
Ġdisplay s
æĺ İ
ĠClient AuthenticationError
ĠTensor Type
estim ate
Read Only
å® Į
Ġactiv ities
fast NLP
LL NL
([' -
(". ")[
Ġmk dtemp
XX X
Ġdiff lib
Ġpack ed
+) \
Tool bar
BY TE
hyper link
Ġturn s
Ġanaly zer
neg ate
Ġcer berus
combin ed
Rect angle
Consumer Client
Sql AlchemyExecutionEngine
MAR K
Smo ke
decomp osition
EXCEP TION
Ġ---------------------------------------- ------<
Ġcha pter
CONTROL LER
Reason s
ĠParam Spec
ĠUtil s
bul let
Ġlab eled
gal axy
ĠSTR ING
facebook research
ĠDELE TING
" %
) }"<
3 34
7 75
A bs
C ast
F ER
L BL
N B
P olicies
T ERS
T URE
] },
e lect
g h
s ay
w ik
y as
z viz
Ġ è®¾ç½®
or arily
re fer
re construction
ro gate
de anishe
he artbeat
Ġc rawl
Ġf enc
Ġf onts
un expected
Ġw ish
Ġas dict
is in
ĠT f
Ġis close
Ġto d
ĠM QTT
Ġh d
ĠP ut
im ap
Ġde cre
Ġde velop
pro posals
so bj
Ġun iversal
01 0
ĠB i
ĠB ERT
Ġ3 60
Ġro lling
Ġco untries
ĠU ltiSnips
ly bot
SE QU
ĠRe places
Ex pl
ms vc
Ġcomp ilers
") ]
sub net
eg end
Ġz ha
di am
(( -
16 6
ok kos
cache s
14 4
Ġem o
author ize
View er
Pre pare
Ġchart s
TH IS
long long
cret ization
gre ater
gre SQL
Sub processor
ĠEvent Listener
Extractor s
sort ing
tra ffic
mk QApp
Container Registry
du ck
exec er
hi hu
sw appable
MET ERS
Ġestim ates
tol er
sock name
deep set
=_ ('
è¾ ¹
Host name
lem ma
ĠBAS IC
Ġterm ios
]+) '<
bre ath
LR Scheduler
Ġdeploy ments
Ġinherit ance
ĠSample Batch
>============ =<
Rout ing
Pos ix
Ġdetermin es
combin ations
å¿ ħ
ĠFrame work
Ġpacket s
Ġplan es
Ġconvolution al
ĠStruct ure
ĠInterval Index
HEL P
spread sheet
Gu ard
MEM ORY
ĠSimp lified
foot er
Ġfla ky
ĠConvolution al
Ġ"""" ""<
ĠMANAGE D
FRI END
Ġmaked irs
! '<
" $
3 03
: "<
> :<
? ',
C r
C trl
E cho
H I
H IST
H MAC
P OR
S ENT
S ampling
T akeover
a uc
m ute
o logy
p v
t ips
v y
x b
x o
y o
Ġ ------<
ĸ åĩº
er gy
Ġi python
ion Share
an im
Ġre ached
Ġs z
Ġs pectral
Ġin complete
Ġn avigation
ex clusive
co o
ĠC NN
ĠS N
ĠS GD
ĠT ORCH
Ġ' '))<
ĠM T
Ġh ighest
(" '
et ing
ĠD ump
ĠD IM
Ġr t
Ġg y
ĠF red
ĠF eatures
00 9
Ġex tr
Ġex ponent
Ġpro bs
ĠE m
ĠE LF
out box
Ġe ht
ĠB ucket
ĠB inux
ĠH ayashi
serv oir
ĠV ert
ĠAn other
>> >
cal ing
wait ing
sub command
av atar
OT H
Ġhas hed
sing leton
play back
token ization
Un ique
Un iform
IO Base
Key Value
hes izer
az da
Ġcl ause
Te mplates
78 6
author ity
Ġfl ash
parame tric
Ġver ification
Reg istration
QU ESTION
Ġaccess ory
Ġå ¤
aut ore
ĠEn coding
ear ly
Ġrelease s
Layer Norm
Table Formatter
ĠCustom er
LOW ER
SSL v
Ġxml ns
fft w
SV C
ugg le
Ġmedi an
ĠObject Property
Tokenizer Fast
Ġtransl ator
FFFF FFFF
ĠBack ground
ĠQuery Set
recogn ized
Stop ping
Ġ------------------------------------------------ <
ris k
dialog ue
Ġff i
Ġorigin ally
gray scale
Bl ur
Null able
JS ONF
æłĩ çŃ¾
ĠAsset Key
SSH Connection
organ izations
mic hael
ĠGe o
ĠTer m
Ġenter ed
Ġsol utions
rivile ges
Ġgra b
propag ation
Ġrecur sion
ĠCRE ATING
ĠUPD ATING
åŃĹç¬¦ ä¸²
SENS ORS
' [
1 000000
7 49
A i
B okeh
D N
D QN
G Y
P run
R et
a oc
d ro
h z
p alettes
w il
ç ¦
Ġ quiet
in file
Ġi i
Ġa ad
al di
Ġc iphey
ic ity
as i
Ġre fs
Ġre mot
Ġ" ,<
un ifi
Ġd ashes
Ġb uffers
ĠC lear
Ġ( ),
ad on
ĠS afe
ĠT ortoise
Ġan alytics
str len
ĠM any
Ġh ole
Ġtest bot
Ġcon tour
Ġr q
ĠF ilename
to s
Re place
Ġ0 6
ĠE uler
ĠE fficient
"] },<
ys ics
################ <
SE G
IC ATE
ĠRe place
sp acy
sh util
PI X
Ġpl ural
cal ib
Ġcomp ose
25 7
ĠIn v
ĠIn formation
lic ed
Ġab bre
AL ARM
Ġtop level
tool chain
DO OR
Ġ... ]<
Ġpart icipant
Ġper mitted
Ġmax len
FA KE
34 9
LI SA
Ġgr pc
Object ive
vc c
current ly
riv ial
ĠST ORAGE
SA FE
Gener ates
Ġhash ing
EL D
thread safe
win api
Protocol Layer
Inter polation
Ġrender able
Back ground
GI STER
states pace
ç» ´
Dep loy
Ġarch info
Struct ures
ĠJSON Response
ĠInter polation
ĠAns wer
plan ner
Ġ", ".
clip board
ãģ Ĥ
war f
impl icit
autom l
sentence piece
æ¨¡ å¼ı
Ġvocab ulary
hyper parameters
Ġturn ed
[^ \
CU STOM
ĠTri e
Vector Env
ĠConnect or
Ġconcat en
ĠAgent Pool
ĠMult ivariate
ĠCH AR
Ġdid n
challenge s
.+ ?)
ĠåĪ Ľå»º
ĠJava Script
`_ .<
Ġbas is
EXA MPLES
ĠOrig inal
Mes h
Ġä¸ĭ åįĪ
ISH ED
Ġasc ending
orthogon al
é¥ °
/ -
1 64
> ~~~~~~~~
F lip
M ATE
P RESET
R FC
V ED
W rit
X ml
_ *
b db
d ft
i ency
j avascript
l on
n itude
p ct
s amp
s ucceed
v gg
v stack
} ).
¢ «
¹ éħį
á ½
Ġt cp
Ġc me
Ġc trl
it ors
an LP
as dict
Ġp ng
est ure
ig est
Ġb attery
il ities
ac a
Ġm ul
ĠC amila
ot ive
ch ored
ĠT HE
Ġis lice
ĠN S
ĠN est
ĠN egative
ĠP C
Ġcon da
im decode
ĠD type
Ġde legate
Ġr r
ĠF ritz
pro filing
Re verse
Ġpy bind
Ġpy mysql
oo g
Ġpro filer
lib rosa
ĠE val
ĠE ither
art z
Ġv od
ob tain
ĠH istogram
=' %(
io loop
ĠRe set
ĠRe corder
ST ACK
mo ved
RE Q
Ġen hance
IG GER
ĠPro blems
Ġcomp aring
stat istic
man agers
AL O
ĠX SH
Ġz wave
ify ing
Ġdo g
11 3
json l
ĠJ ohns
ĠSt udio
Ġlog istic
gr ace
Ġ`` __
be havior
Ġne ck
down loaded
new line
rest ful
graph er
face color
Ġexp iry
Ġover flow
Te am
Ġem b
Ġcolor ize
TO OL
ph ysical
tw ins
Qu ote
Ġcomple tions
]] ))<
35 9
access ories
Ġ16 0
PR IORITY
Sh ipping
ĠPer f
acket s
On ce
Ġtra ding
ĠGraph QL
crypt ography
Expr Int
rot ated
PAR SE
PAR SER
Ġbyte code
æī ¾
Ġbutton s
NE WS
=_ ("
æŀ Ĳ
alloc ated
cons istent
Ġsa id
does nt
Ġsur face
Expect Correct
Ġdebu gger
Ab ility
ĠCharacter isticsTypes
ĠFa iled
ĠTimeout Error
tre es
åĲĪ çº¦
ĠEl se
Ġrespect ively
Ġsem antics
ĠSched uler
æİ¥ åı£
lb ry
Ġaffect s
hold ings
Ġfraction s
ĠPredict ion
åĿĩ åĢ¼
ĠAdapt ive
Mut ant
ĠRece ive
SDK Client
ĠSimSoot Value
Ġlu igi
ĠSOCK S
Ġscr atch
setWindow Title
ĠLRU Cache
seng er
ĠMAG IC
ExpectCorrect Result
) [:,
) ``.<
, ):<
- ]+
6 04
7 64
A Reflected
D Layer
E p
E FF
F mt
I SE
O US
R ename
T AGS
V IEW
c ffi
g win
t st
t ely
w esome
z ier
Ã ł
Ġ Er
Ġt c
Ġt or
Ġt up
Ġ= <
Ġa cl
"" ""
Ġc oo
Ġs udo
Ġd ownsample
ĠC apture
ĠT odo
ul ls
um m
Ġh u
Ġh ot
Ġl hs
ĠP air
(" ../../
for bidden
ĠD er
Ġde s
Ġex ceed
file obj
Ġpro files
ON ES
ĠB E
ix uan
Ġme l
ĠH ybrid
Ġar ithmetic
AT S
Ġco co
read s
ĠCon troller
dd p
Ġsc rap
Ġsup posed
sp matrix
mpl icit
Ġsub parsers
nd o
arg min
ĠCh ang
Ġ/ <
Base Handler
LO Y
Ġspec ifier
np z
To Tensor
ĠUn ivariate
File Copyright
ĠSim ilar
16 9
Ġtrain able
13 5
ĠAPI Router
20 8
Ġiter ators
Auth entic
Ġexp ire
Object s
55 8
User Warning
18 9
ik a
riv acy
show s
pop ulate
Index er
36 6
ĠText Analytics
spe aker
PR OT
ĠColumn ValuesToBe
js ii
ç» ĺ
ĠAc cept
ffic iency
ĠCO MP
ident ical
ĠPlugin Test
ĠPre processor
++ ++
ĠRed uce
Access Token
ĠPipeline Run
UPD ATES
collect ive
çŃ Ķ
Ġrobot s
Grid Spec
TA IL
ĠCur sor
Doc s
rown stone
Ġcs rf
ĠRender ableType
èĢ Į
hard ware
(... )<
âĸĪâĸĪâķ Ķ
âĸĪâĸĪâķ Ĺ
Ġpen alty
Ġslot s
Ġpot entially
Ġconven ient
ĠConf identialLedger
overlap s
Activ ator
oooooooo oooooooo
SUFFIX ES
LANG UAGE
abcdefg hi
Ġsatisf y
Grant ed
MANA GER
Ġtensorboard X
è¿Ĳ è¡Į
Spark DFExecutionEngine
Ġpsy copg
whats app
èĩªçĦ¶ è¯Ńè¨Ģ
FileCopyright Text
! )
" (
6 379
9 28
; ")<
E QUAL
L in
L ESS
M otion
M IDDLE
O cean
P adding
R P
R a
V fs
b right
c amel
f li
l arg
s wa
w emo
x m
Î µ
Ð ¿
ì Ŀ
Ġ ht
or est
de compiler
Ġa live
al a
Ġf x
Ġre cv
Ġm lflow
Ġw ildcard
ĠC V
ĠC ipher
ĠT ake
ĠT akes
ĠT icket
ĠL int
ĠL ED
Ġan g
up np
test capi
ĠP ipe
(" !
Ġr ing
ĠF an
(' ')<
Re pr
Re corder
so ot
ll a
out line
add Widget
ĠH at
ug o
ĠV GG
ache s
Ġ` ``
Ġ` ``<
ĠCon tact
ĠRe presents
Ġch dir
Client Approval
Ġpl aintext
Ġnum er
min idom
man ent
inter act
av ro
ĠJ UMP
File Descriptor
Ġle ts
lat ency
Ġsp acing
List View
)) ),<
Ġvalid ated
IO Error
ca mp
content types
auto complete
EX PORT
Ġgraph ql
Ġloc ate
Ġloc ated
hash able
37 5
29 5
HTTP Status
TI MER
ECT ION
ĠRun ner
sv d
PRO MPT
Ġsearch ing
bit message
ĠClient Session
fu zzy
ĠRE PORT
Ġpost process
Ġhigh ly
Ġpk f
activ ations
Ġspe ak
track ed
Com mun
ĠWh at
Tr acking
Multi part
rdf value
Ġdraw n
Ġsepar ators
ĠSc enario
mult ivariate
ç± į
delay ed
ĠPrivate EndpointConnectionsOperations
Max Pool
Ne ighbors
Ter min
ali yun
Ġslow fast
Ġaggreg ated
Ġxy z
Close d
Ġtrunc ate
ĠExit Code
ceed ings
ĠGenie ObjectContainer
BR ACK
Bind ings
Ġspot dl
å¥ ½
ĠTH IS
ĠPos ix
Ġpub lication
CHANGE D
ĠScal ar
Den y
Dash board
Ġmeson build
ĠSTAT US
ĠExecut able
ĠDynam oDB
THREAD S
éªĮ è¯ģ
ĠWOR K
ä¹¦ ç±į
ĠBIN ARY
Pools Operations
ĠRod ola
ĠåĬ ł
# _
+ ",
- {}
0 50
2 19
3 99
3 15
3 05
4 14
8 06
> ".
? ?
C SI
D aily
E CH
F Kernel
J ar
L ater
L iteral
M V
P tr
S B
W hether
Z oom
b und
c art
c iphers
j d
k n
n m
p rivileged
s pline
t ens
t les
u ic
y r
¨ è®º
æ ®
ç ª
ç Ĭ
or ry
in box
le ading
me as
Ġf v
Ġre covery
Ġs ink
lo ve
def ines
un ivariate
il m
ĠC ost
ĠC MD
ame d
is patch
ĠS up
ĠT EXT
ĠA ugmentor
id u
ĠL imit
str ipe
ab ove
ĠM ix
Ġl int
ĠD I
Ġde oplete
Ġg cd
res idual
(' "
() [:
Ġ_ :
ĠG iampaolo
ta ir
ĠE FUSE
IN K
ĠB LOCK
Ġy ticks
time line
op acity
ĠW ang
AR K
pre sence
sp a
RE PE
Ġreg isters
log like
Ġcomp reh
db a
AN K
ĠEx ponential
reg ressor
Ap pro
led ispatch
index ing
ual ity
`` ,<
dis cord
iter ature
train set
the fuck
ENT ITIES
ä¸ ī
={ }):<
Ġ6 55
13 37
Ġ\ \<
Ġmod pack
SD P
bot tle
az sdk
Trans pose
Ġgroup ing
ï¼Į <
DIR S
ä» ĸ
ĠModel ling
88 8
keep dims
access or
çĶ ±
PRO VID
DF L
79 4
è¯ ¯
Ġdisplay ing
Ġcert ificates
Ġlong itude
By Type
HOST S
Metric Status
ĠAns i
Red uce
ĠContainer Client
Ġdrop ped
Fix es
Rel ay
stock record
Ġangle s
ĠChar Field
cred s
Mark up
episode s
ĠCor outine
Ġden ied
ĠPRO JECT
PLAY ER
ni ques
ĠDist ance
Ġmix ture
éĺ ¿
ĠDash board
åİ Ĩ
æľŁ è´§
Ġna ive
prun ers
NOR MAL
HAND LE
Os query
Ġgray scale
Audit Log
Ġestab lish
è£ħ é¥°
(': ')[
ĠAnaly ze
Ġdenom inator
Cron Job
LEG ACY
ĠSleep IQ
APPRO VAL
ĠDan iel
ĠWar de
Far ley
' (?
3 25
3 09
9 49
> ~~~~~~~~~~~~~~~~
? ",
A U
C are
D AG
M object
Q T
S y
S ender
T X
_ ",
b rowse
c ereals
k lines
m lflow
t iming
æ ¸
è ¢«
Ġ æķ°æį®
in dependent
re wards
Ġt ot
he ss
me ls
ic ations
as z
Ġp c
Ġf armer
ge ometric
Ġs qs
Ġs andbox
Ġd ry
__ '<
il enet
ex cl
pe ek
co variance
ra b
ĠS ampler
ĠT runc
Ġ' ')
ĠA thena
ĠL ee
py spark
Ġan chors
el t
ĠM iddleware
test ed
Ġl t
Ġl ens
ĠP en
and atory
Ġ1 92
im db
Ġr i
ĠF ound
ĠI m
pro ba
pro visioning
Ġun signed
ĠG lyph
ĠG iftCard
lib X
ĠE S
out file
ĠB us
ĠB oto
Ġv b
ĠR and
AT URES
ĠW i
ep hole
ĠCon tribution
Ġout s
ĠTest C
Ġ4 7
Pro ducing
ĠPro mpt
Ġcomp ared
doc utils
pr inter
Ġmodule author
ick ness
my py
Ġnew s
ĠSt ats
CO CO
API Error
Ġopt imal
ML P
Un ix
Not ify
ĠHome Kit
Ġexp iration
del tas
ne ural
Module List
exp loit
part icipants
Ext ensions
Stat istics
Ġservice bus
Ġchar det
Ġ". ".
ĠFile Filter
Ġå ĩ
Ġ-------- -<
Spec ifier
pool s
cb c
Sc enario
Ġfin der
mut ex
mk temp
ĠLO CAL
Rule sOperations
ĠRed istributions
chain er
Ġlat ent
PAR ENT
00000000 00000000
Ġcomput ations
Buffer ed
Export Converter
Ġnd image
ĠInd icates
ĠAt temp
ĠPol ynomial
Ġ------------------------------------------------ -<
Ġ[] }<
Ġeasy trader
Ġhard ware
Ġtre at
Video Capture
ued iv
ĠMult itask
HIGH EST
Ġdecomp osition
ĠUtil ities
ĠMY PY
ĠAdapt ed
Descri bes
åĮħ åĲ«
ĠForeignKey Field
ZERO CONF
ĠCA CHE
Demonstr ates
REC ORD
Augmentation Base
Ow ner
ĠDecision Tree
ä¿® æĶ¹
CELER Y
çĬ ¶
" (?:
7 02
; \
A m
B and
D TYPE
E lements
F PN
F ONT
H istogram
H tml
L int
P red
P ayment
R G
S ci
S mart
W ritten
Y ELLOW
_ \
b se
b ooleans
c loudflare
d am
d ub
d yn
f requ
j un
l or
m ind
o lot
å ķĨ
---- --
in ations
in correct
at ron
st ft
"" .
Ġf ib
Ġf air
Ġre factor
Ġs ucceeded
ur andom
Ġd uck
Ġb ert
__ ()
il abel
ex cluded
Ġw ater
Ġ( \
Ġ( {}
ad s
ĠT ur
get tempdir
el ls
um s
ĠM indsDB
ense arch
fig ures
ist ency
Ġg iving
ĠF O
ĠF IL
res next
(' >
00 11
pl ural
data io
Re quire
ĠE st
ĠE PS
Ġe ver
ĠB rowser
Ġx gboost
Con versation
ĠR ate
op entelemetry
ĠH ard
Ġ@ @
ĠU rl
ĠW LED
comp iled
dd f
pre m
ther mostat
ition ally
ĠPro b
nd k
Ġcomp act
Ġ5 4
db f
Data gram
Ġdis cord
Ġpre served
Rest rict
UL D
TR IGGER
flow er
Ġopen ssl
To kens
To One
ĠJ WT
Ġext ent
Ġ... ]
Ġcur ves
Ġend ing
Ġend ian
ĠBase Estimator
Un ivariate
PO OL
lif e
Module Info
skip ped
55 9
Ġ{} })<
Int ent
27 4
44 8
Ġins pection
QU OT
ĠTO ML
Ġå į
Ġsl da
sg d
ĠMat hematical
Ġrender ers
CL ASSI
rec ipient
side bars
TER Y
ĠRequest Factory
counter s
ĠCON TENT
Thread Pool
"} })<
Ġbound aries
ĠLog istic
ĠÐ ½
('. ',
ĠPR OTO
åħ¥ éĹ¨
ĠHel m
Target s
APP S
ĠBl ue
>`` `
ĠComple tion
Ġseparate ly
ĠPower ed
æĭ Ł
Ġhuman ize
mx net
>======== ===<
>======== ==<
Free BSD
Pop ulation
Ġparagraph s
ï¼ī <
CALL BACK
HomeAssistant Error
ĠRot ation
Des ign
Masked LM
CTR L
éļ ı
axed Money
triv ial
ĠFred rik
èĩªçĦ¶è¯Ńè¨Ģ å¤ĦçĲĨ
olot l
7 99
7 07
A WAY
B BOX
C ycle
D H
D on
F MT
K afka
P RES
] ',
a ver
f lex
j ni
o chastic
q size
s pl
s av
s pectrum
t up
v ml
Ġt iny
Ġ= ================
al location
al formed
ar age
Ġc mp
Ġc url
Ġc iv
Ġc aught
Ġp acu
Ġre lay
Ġre view
Ġs ites
es pan
__ :
Ġm f
Ġ( ))<
ad der
ĠA udit
py lint
Ġh ierarchical
Ġcon versation
im als
ĠD bt
Ġg ixy
ĠF R
(' ..
ĠI o
Ġex periments
Ġ0 4
Ġun do
ss d
IN ES
ff tpack
col ab
ĠV AR
ĠRe cognition
Ġout buf
ST E
ST ATION
Ġap ache
Ġreg istration
net cdf
Ġnum Fmt
man im
source link
ĠK V
enc er
spec ifier
Ġimage io
ĠData Parallel
ia ffine
Ġtrain set
ld nn
host python
Ġmod al
Ġred uced
14 6
wh l
exp at
mod al
Ġq r
24 5
17 5
loss ary
TO K
lid ay
Ġind irect
datetime s
Qu it
29 8
Ġ'. '
sphinx contrib
######################################################################## ######<
enum erate
}} }<
Input Type
No ise
allow s
Metric Source
Ġextract s
æł ¹æį®
ĠPre vent
EM BED
Auto Temp
ugg y
Ġlat itude
ĠRandom NameResourceGroupPreparer
Point s
ĠTr ack
accept s
browser s
Ġtab ulate
ĠVis iData
ä¸į åĲĮ
Comple ted
RDF Datetime
Ġprime s
ĠCor respondent
ĠPRO C
Ġaio homekit
contin uation
Ġqual ified
æľĢ å¤§
ĠSV D
WAY S
ĠRL lib
Ġblack list
preprocess ors
aaaa aaaa
WEB HOOK
ĠMode Definition
Fit ness
Autom ation
Ġsen try
ĠAv ailable
ĠAutom ation
Den ied
Variational Distribution
éĶ Ļ
Ġestab lished
ĠTex info
Spe ed
Ġrepos itories
corp ora
yd ra
chapt er
mst rain
ĠnumFmt Id
3 13
5 99
7 56
7 44
: >
A ware
C ook
D EST
D ONE
H ard
N DS
O AUTH
S PIDER
_ )
` :<
b ilinear
d an
d ce
d ht
e uclidean
f atal
k ornia
r split
s mt
s chool
x ls
Ð ³
Ù Ħ
Ġ ç±»
Ġ ensemble
se z
re con
st a
en hance
Ġt range
Ġi ps
Ġi ris
Ġa mb
Ġc u
from timestamp
Ġp ivot
Ġf o
Ġf aces
un ame
un read
import ance
co ws
ĠC pp
ĠS che
ĠS catter
ĠT yp
ĠT ASK
ĠT weet
id ge
str date
ĠM MF
ĠN D
ĠN ative
test file
Ġh over
ĠP ure
(" |
Ġ- .
ĠD H
ĠD en
ĠD QN
Ġr ho
Ġg n
ĠF ail
ĠF eb
to y
art icles
ĠB al
ob el
Ġme phisto
ĠR pc
ĠR Lock
ĠH op
port al
ĠW ed
und ant
Ġ` (
SE CURITY
af ari
ec a
dd d
arn er
pre sets
Ex change
St udy
Ġch ip
RE DIRECT
Ġsub scriber
ress Test
ash ion
Ġte lemetry
AS SET
Ġac quire
ä¸ Ķ
loc ust
16 5
>""" )<
Ġover written
14 8
Tensor Spec
stack s
Ġdiv mod
Ġenv s
lip page
Ġ"/ "<
ĠTo on
Ġgraph ical
Ġver b
27 5
200 4
26 5
TE M
Inter polator
Process ing
lu a
Graph QL
Ġcalc ulations
AC CEPT
Ġjoin ed
Ġfont Id
Ġfill Id
google apis
Ġsuffix es
evalu ator
Ġfit ting
åĮ ¹éħį
LIST EN
Render ing
Ð° Ð½
ĠStat istics
Ġmp arser
Ġconstruct s
ĠDagster Instance
æ³ ¢
ĠBl ack
quant ile
Ġé ħį
Bl ue
BB BB
hint s
ĠFI ELD
Initial izes
Ġpers istent
ĠFix ing
Ġborder Id
ĠVAL UES
ITER AL
Ġcent ral
Ġxf Id
å± Ĥ
ĠProperty Mock
DEP TH
Vi ol
Pop up
armon ic
ĠScan ner
Dagster Type
ibyte codec
bas ics
High light
Ġpolygon s
âĶĢ âĶĢ
concret ize
ĠZip File
Ġ================================================================= ===========<
Pub Sub
iet f
CREDENTIAL S
Har vester
zeg un
Cod er
FRIEND LY
Ġeht im
, ),<
. ],
2 12
2 28
C AMERA
E A
F W
F eat
J ump
L ook
P ENDING
S co
S ell
b untu
c fn
c ube
g pt
g ca
h urek
n atural
Ù Ĩ
æ º
or u
at ile
Ġt ls
al ite
it r
me ssaging
Ġp format
Ġp icture
Ġb und
Ġb atched
co p
ĠC ID
Ġas gi
ĠA LP
el lipse
ĠM oney
ĠM ongo
Ġ# '
ĠF etch
ĠF atal
ir th
to po
Ġ* /<
(' +
() ],<
() )]<
Re ality
ER E
Ġv an
Ġx ingyu
ĠR G
"] ])<
Ġco ord
serv able
ind ividual
ug ate
ĠV olume
Ġtype map
Ġ` __
ĠCon jecture
af d
pre fs
ĠRe hurek
base camp
sp ree
Ġout dated
ĠTest Server
cor ners
book s
Ġasync ore
lin ode
fix es
df s
lock file
db c
ĠIn tern
reg r
64 8
Ġmodule info
ach y
Ġz ones
ich r
ĠK eras
ĠConfig urable
row th
AS Y
To String
ĠJ on
ĠJ ina
CO LS
ĠSim Engine
hass io
000 8
Str ings
Ġ6 3
new lines
Ġli ao
Ġinter esting
13 3
Ġiter ating
15 4
Ġmin i
Enum eration
ĠPar l
An chor
23 7
08 4
Al pha
Ġav atar
Ġobj s
CON V
Get ter
integ rate
parent heses
Check Error
Ġcommon ly
bb s
ĠTh omas
multi process
gre entest
ĠAl ign
SH ELL
Ġkeep ing
cy an
mk ldnn
Ġph oto
Ġcalc ulating
Ġtrack ed
Ġcons ume
Open GL
ĠMo use
ĠSimple Namespace
ABC D
google groups
Ġiss uer
regex p
Ġestim ators
Link er
ĠArray Like
DIS PLAY
SY MBOL
Compute ManagementClient
ĠUN IX
LOAD ER
ĠPackage Reference
ĠBox es
Ġfu zz
ĠParse Error
Ġhyper pyyaml
eng lish
Mask s
Stats Collector
COMMA NDS
ĠGe ometry
Ġ199 7
COMPLE TED
3333 3333
ĠIMA GE
great expectations
Ġdeal ing
ĠRad im
ĠProgress Bar
DAY S
vaccin ations
Ġpie ces
EXA MPLE
TOT AL
ĠâĶ Ĥ
anon registry
ĠWEB HOOK
èĬĤ çĤ¹
Ġrat ings
CRY PT
ĠClip board
Bloom Filter
Ġmilli seconds
éĺ¿ å¸ĥ
cows ay
6 01
C ORS
C irc
C ATEGORY
E astern
F la
G ot
H IC
J OB
K WAR
M obile
N umpy
P IC
P OP
S pack
S OR
S ynchronized
S COPE
T ier
W x
X LM
c ad
c ros
d ab
g lib
g ps
g pytorch
j is
k ka
m en
n bytes
o cean
p ressed
x ession
z hihu
Ä ±
Å ¾
Ù ħ
ç ĸ
Ġ ledger
er ing
re call
Ġt abs
ro b
al man
Ġc affe
as ible
Ġf avicon
Ġs vm
ur a
Ġ" ../../
un zip
Ġd ic
__ ):<
Ġw aiter
co ar
ĠC SI
ra ight
ĠS ymbol
ĠT ITLE
th row
get ters
el ines
el lipsis
qu ot
con versions
ĠM otion
up loads
ke eper
for ced
Ġtest root
ĠD igital
ĠD avid
Ġr st
Ġg ender
ĠF IR
ĠI maging
Ġbe g
Ġun defined
ck o
ĠE fuse
Ġres ample
ock s
ĠR n
op h
"] ')<
ĠH VAC
Ġro uting
Ġro uge
In variant
ĠW ave
raise d
ns pace
af b
dd b
pre load
Ġk ern
ĠTest Default
cor ner
Pro p
Res olution
ĠCh alice
stat sd
En g
sub mission
sub stit
Ġcheck box
ĠAuto TeacherTest
Model Index
Model Admin
UL IP
Ġup loaded
av ailability
Par sing
'] ).
Ġstat sd
Ġac celer
CO ptions
split ter
ĠQ Icon
AB LES
RO UT
List Result
view code
Request Factory
ĠAp pend
ĠY ields
34 6
]) .<
03 7
~~ ~<
19 8
ĠCo uld
FF T
auto gui
08 0
Ġparam iko
SI MPLE
Time Warn
FOR CE
09 8
Ġref ers
fail ures
35 4
location db
Ġconnect or
ĠComp at
Ġsingle TimeWarn
HE AT
ĠResource ManagementClient
Ġsim fd
Ġ~ *
archive box
chunk store
Support s
Ġ"% (
Read s
ĠExpr Mem
System Assigned
div mod
Ġcover s
Ġ[[ [
Container ServiceClient
([' --
tab lename
ĠBatch Request
PREFIX ES
Project ion
Ġlight weight
åĨ į
alloc ator
hu a
recogn ize
ĠCompute ManagementClientConfiguration
Has Props
ĠCl asses
Ġidentify ing
Select ed
UD IO
Ġrecogn ized
ĠPower Shell
COMP R
coll ate
æĢ ģ
Ġsil ent
Power line
Ġmanip ulate
Ġglyph s
ĠEventHub ConsumerClient
expl oration
mong odb
Watch er
music api
Ġbel ong
maz on
ĠSPE ED
Sl ug
paragraph s
Ġcour se
HUMID ITY
Ġelastic search
ĠSERV ER
ĠsingleTimeWarn Message
3 07
A sm
C lear
F allback
G CP
L a
L ower
M ost
N ative
N eed
P HA
P USH
R ing
Y EAR
a enter
d warf
f eb
f arm
s pectral
t id
{ '
} ),
Î ¿
å Ĥ¨
Ġ ><
Ġ 78
re x
re served
re tin
st ata
mp y
Ġt ts
Ġt iles
al ing
Ġp w
Ġp join
Ġp ane
Ġ" !
Ġb unch
Ġm ob
Ġm ention
ra dim
ĠS ak
Ġfor ecaster
ĠA lexa
Ġis class
class ic
test func
Ġh ypot
Ġcon ver
Ġcon form
ĠD T
Ġde letion
ir al
pl ug
ri b
Ġpy lab
Ġpy cocotools
Ġun link
ĠG E
ĠG CS
Ġpro filing
ll nl
ma de
ĠB r
ĠB ook
Ġv pc
Ġy es
Ġy max
Ġget opt
Ġx ticks
read ers
comp anion
ec d
pre paration
cur doc
Ġroot s
cor rection
tain ers
pers pective
mon o
Ġ5 7
Res ponder
ĠCh ris
doc strings
ler ts
AL IAS
Ġtext ual
`` `
iter ators
To End
ĠUn authorized
lose Connection
Ġlog o
Ġ`` .
Ġms gs
Ġms vc
play ers
clu sion
Ġpatch ing
IO S
Ob servation
04 7
04 9
Ġtr acer
Ġ200 2
post process
78 8
ĠAzure Monitor
33 6
ĠUser name
Ġop entelemetry
ph oto
åĪ ĩ
Th umbs
Line String
Ġå Ń
Ġcomple tely
bb bb
Ġchange log
multi index
sn ip
>================ ===<
GR AP
Ġcmd line
å¤ ´
Ġclose st
aint ing
Ġrelative delta
anel li
plan e
vari ates
det ached
ĠÐ ±
ĠTransform ers
pair wise
COM M
ĠProtocol Entity
DIS ABLE
Mat ches
ĠSE EK
Ġcharacter istics
fire wall
fire fox
ĠPO SIX
jo urnal
VIS IBLE
Ġaggreg ation
ĠSTOP PED
ĠServiceBus Client
Ġwave form
ĠRob ot
Ġbook s
trunc ated
Wave Me
reh urek
propag ate
Ġesc aped
ĠÃ Ĺ
éħį ç½®
Ġbel ongs
ĠCrypt o
ĠSUB SCRIPTION
Ġconsist ing
ĠCannot Connect
ĠSur vey
ĠGCP Facade
MANU FACTURER
xtick labels
ĠLD AP
ä¸¤ ä¸ª
Cent ral
æ²¡ æľī
ç»ĺ åĪ¶
CLASSI FICATION
. ])<
1 32
3 10
B io
C rawl
C alendar
D TYPES
F un
M aterial
R L
R ocket
S Z
S olver
S upp
V ax
V oucher
Y ara
\ (\
d ists
e le
f leetspeak
h f
p ure
s py
v able
x gboost
z ing
Į ĥ
in omial
in cluded
at mo
st ick
st aging
Ġt ier
Ġt urtle
de vel
de terministic
al ized
Ġc orp
Ġp endulum
Ġre ly
lo vel
># ------------------------------------------------------------------------
Ġin buf
Ġd ark
Ġm ongo
co d
ĠS uccess
ĠS MS
ĠS WITCH
ĠS PLITS
ĠT asmota
ĠA liyun
qu iring
ĠM arket
ĠM azda
ext ends
int ensity
Ġr gba
Ġth rown
pro vides
Ġpy s
Ġun ivariate
ta gger
ĠO wn
Ġe lf
Ġe lect
ip ients
ag n
Ġx l
config urable
low orld
ĠR av
Ġ3 7
ĠW E
ire ctor
comp uted
ĠRe peat
Ġcol late
Ġcol lision
mat ter
MA ZE
log dir
Ġal ter
pers istent
En ergy
check ers
Ġsh adow
ide scape
ĠAuto Model
Ġso on
ĠUn used
ale idescape
Man ifest
Ġper mutations
ĠQ ModelIndex
ps y
return ed
sum ers
sign ing
15 7
15 8
block ed
over load
cho lesky
ĠRes olver
exp ire
mod ifiers
cc f
23 1
dat adir
21 7
Stat Entry
ĠConfiguration Space
Ġserial izable
æķ Ī
Ġdat aloaders
27 7
Ġblock ed
Ġ'' :<
Ġconnection Made
normal izer
HTTP Policy
grad check
Message s
stats models
38 9
PR ESS
Sh uffle
48 0
FORM ATION
ebook s
ĠQu ick
stage d
AP PLICATION
apache cn
Ġshort est
shell s
ĠMO DULE
road link
READ Y
rece ipt
chain ed
ĠFl ag
suffix es
START ED
capt cha
mu joco
çİ ¯
ä¸ĭ è½½
ĠAS N
æİ Ĵ
Av g
Bl ack
ĠBar low
ĠConnect Handler
MY SQL
ç§ »
ĠResult s
ĠLight Entity
Ð¾Ð »
ĠLazy Tensor
perf stress
èĢ ĥ
ĠUnsupported Algorithm
Private Key
SHA PE
éĻ Ĳ
FACT OR
Producer Client
Ġbi ases
BR ID
Bind ing
week day
ĠBO OL
ĠSem antic
ĠCalled ProcessError
Ġsummar ize
ĠDES CR
ĠCALL BACK
COPY RIGHT
ĠDvc Exception
igbee Channel
ĠME TR
BAT TERY
TEN ANT
ENG INE
STRU CT
diam ond
Ġemo ji
ç¦ »
èĩªçĦ¶è¯Ńè¨Ģå¤ĦçĲĨ åħ¥éĹ¨
KWAR GS
çĸ ĳ
radim rehurek
4 26
4 66
5 76
> --
> /<
B ootstrap
F latten
H LS
K nowledgeBase
L im
P ure
Q Widget
T elnet
W C
a exit
b k
c gi
d ue
f wd
f irmware
h ierarchy
i B
k ing
l k
s ina
s ucceeded
w ine
x ception
re peated
Ġt iming
Ġi mple
ro d
ro uge
de conz
Ġc losure
it ed
an et
Ġp aired
Ġre scale
Ġs pectrogram
Ġthe Harvester
># !
un nel
Ġd hcp
Ġb pe
il io
il bert
Ġm t
co var
ĠC ORS
ad og
ht ein
ĠT RA
py xl
Ġan c
Ġan n
get attribute
ab sent
test cases
Ġ[ --
Ġh acker
ĠP rior
ĠP UB
oc ations
name spaced
Ġr h
Ġg cv
ir ical
ore an
ĠI F
end ored
Ġst ation
Ġst ory
Ġ{ !
Ġex clusive
Ġun zip
ine q
Ġpro visioning
ĠO s
ĠE poch
IN FIX
out dim
Ġe gg
Ġ: -
Ġ: ].
ip proxy
Ġy lim
Ġse ven
op ensearch
ĠH and
EN Y
ens htein
ĠV e
Ġtime d
Ġsc ra
cur ses
ĠTest Data
cor respondent
RE CE
MA ND
sh if
Ġwork around
orm hole
ere o
ĠX OR
Ġtop k
dis covered
no isy
ĠUn ified
Ġ... )<
Up grade
Ġtrans parent
)) ])<
Ġtw itter
Ch ops
Un authorized
Not Supported
03 8
14 1
50 7
23 8
Ġ7 7
ĠFor ce
Ext raction
24 7
CON T
Ġ9 7
Ġoper and
Ġhost ing
Ġfree zegun
Ġå ¼
her its
Ġwrit able
ĠNo Return
Http Transport
75 7
Ġtri angulation
ĠComp are
cent ral
Ġdownload er
ĠAl ways
termin ator
è® °
ĠCON ST
ĠNode Handle
parameter ize
Web Site
(". ",
Part ner
Part icipant
pp f
ĠSql ite
PIPE LINES
oriz on
Import s
LD AP
Cur ve
Match ing
uv w
Ġsimp lified
Ġfu zzy
ĠEN V
Ġtre nd
>================================ ============
Segment ation
ANS WER
ĠBit Vec
ĠOP EN
veloper API
lee ter
(.* ?)
land marks
ĠTransl ator
ĠRad io
Ġcancel led
Ġdivis ible
ĠAC COUNT
åħĥ ç´ł
ĠPerform ance
atom i
alph abet
Ġalloc ate
ĠApplicationInsights ManagementClient
die sel
ĠYOLO v
isod ic
VIDE O
COMPI LER
è·¯ å¾Ħ
Cla im
ĠColumnValuesToBe Valid
BRACK ET
' ``
* ",
3 000
4 07
9 59
> ''
> \\[
B REAK
D ay
G PG
K T
S PL
S leep
S ince
T yped
W elcome
Y O
[ ["
d ur
d ad
d id
g ou
h x
h unt
k df
l v
n es
r x
s ans
s aleor
v qa
z fill
| :
Ð ±
Ð ·
è Įĥ
Ġ ],
Ġ ä¸Ń
Ġ orth
Ġ ãĢĬ
er ry
er mostat
re strict
Ġi oc
de sired
de activate
de compose
as per
ut ral
Ġp aging
Ġf out
Ġf In
Ġf riend
Ġf etched
Ġre views
Ġs pl
ur atomi
lo st
Ġm usic
Ġas m
ĠS om
ĠT osh
Ġ' &
ĠL itter
Ġis file
ĠM B
ĠM IS
ap ing
ĠP rom
""" ,<
ĠD ir
ĠD uplicate
ĠF P
ĠF arm
par l
par s
Ġun i
ĠG rammar
ta mp
Ġfile obj
sc ii
Ġpro d
ĠE ner
ma ze
ĠB ind
ĠB rian
:// ",
ob ot
ĠU NS
ĠV ol
ho ugo
SE C
Ġtime line
Type Var
St ressTest
mat rices
pen alty
Ġpass words
Ġsub title
ĠDe code
lin er
Ġ5 9
Res NeXt
sub domain
AL PHA
De legate
trans Axes
Ġdo or
no pe
AS N
di a
Ġstat istical
spec ification
Ġper mutation
Ġms r
ĠBase Case
ĠBase Defaults
Ġinter pret
13 4
13 8
host ed
Un ittest
Ġany more
US B
For bidden
Ġmod ern
=[ (
SD L
Ġtr aces
Enum Field
19 5
Ġhe at
Int el
IS ION
\\ ]:
86 8
86 9
pol ler
27 6
36 00
thread pool
Image s
HTTP Connection
Server Factory
ĠZ IP
sphinx ext
sm ile
sm tp
Ġtri angular
BU CKET
åħ ¸
è¯ Ĩ
Ġpop up
termin es
inv ite
typ ename
ĠRequest Context
ĠIN TE
IM ulti
Ġph ases
cap sys
cloud watch
Ġbin aries
commit ted
æĹ ł
Expr Assign
NOTE BOOK
game s
ĠNetwork ManagementClientConfiguration
Ġfetch ing
Ġretrie val
ighb our
ĠStorage Account
ĠPolicy Client
Comple te
å¸ Ĥ
bi ased
hour ly
ANCE LED
è§ Ĵ
REQUEST S
ç§ °
Monitor ing
rat ios
>================================ ========
oper ating
Ġimpl s
Ġprevent s
ĠOpt una
Many ToMany
æĬ ¥
ĠZero DivisionError
HOLD ER
Ġcent roids
oct ave
nam ing
ĠEnd point
ĠåĪ Ŀå§ĭåĮĸ
Ġattach ment
Ġdense pose
ĠEventHub ProducerClient
Inf rastructure
åĨħ å®¹
FAIL URE
Ġct c
RAD IUS
attemp t
bas is
utter ances
Mis cellaneous
su ites
Dest ination
Preprocessing Algorithm
reject s
Ġdeli ver
çĻ »
ĠPASS WORD
uro pe
flu ent
COLUM NS
ĠSM TP
Ġè® ¨è®º
å¥Ĺ ä¹¦ç±į
çŃĶ çĸĳ
ĠRav anelli
' \\
+ \.\
- |
2 10
9 17
= /
F UNC
G M
G OOG
H aan
L ITERAL
N egative
S core
S ound
S anity
Z IG
b cd
c ce
c ff
c ensus
c ritic
d ct
f armer
j bar
l j
o ser
o ssible
p ump
t ac
t iff
v bar
w f
y P
z cl
Ġt tl
de ha
de cess
ar ched
Ġc ity
as gger
Ġp il
Ġp si
Ġf inite
Ġre start
Ġre search
Ġs itu
ed f
Ġo mitted
Ġd df
Ġd rag
il t
il le
Ġm ind
Ġw all
co e
ĠC ME
ĠS ans
ĠL iterature
py pa
Ġan onymous
Ġl ic
Ġl ut
ap ig
ĠP I
ĠD ay
Ġassert ions
path sep
pro duction
us pend
Re ject
Ġ0 3
Ġpy map
Ġun hexlify
red ient
ĠG reat
ib m
ib ber
ĠE stim
Ġe uclidean
ĠB oth
ĠB ulk
ip c
Test Result
ĠR S
kw s
app engine
ĠU Int
02 6
af Core
ec b
ĠRe search
RE T
object ives
Ġ4 1
log ies
Ġsub reddit
Ġal g
Ġal erts
ĠDe Haan
Pro b
Ġpl ane
LE X
Ġ{" _
64 4
nel l
velo pe
mark ed
la h
Ġcause d
LO SS
equal ity
ĠUn ique
File Error
File Handler
ĠData Structures
og o
be arer
Se conds
Ar r
13 7
20 48
For ce
Response Parser
~~ <
19 3
User Agent
Ġcor es
Ġcor outines
ĠFor bidden
Ġ9 8
SA MPLES
Ġad jacent
Ġdat atypes
has hed
Qu estion
29 6
Ġå ½
ĠNo Such
bb c
lex ers
metrics advisor
ĠTe ch
dot ted
Async io
ä½ Ĩ
58 7
Output Plugin
([[ [
Struct ured
hand shake
forward s
Tr aceback
Ġtra verse
du pe
æī ĵ
Ġindic ator
ĠBinary IO
ĠInteg rityError
ĠSE CURITY
feed s
Attribute Value
ĠAUTH OR
cookie jar
FE ATURES
ABu Fixes
>{ %
Ġhard coded
Ġindividual s
ĠDet ector
SIG INT
ĠIdent ifier
resolver s
è¡¨ ç¤º
Ġquick ly
DATASET S
ĠSupport s
DATE TIME
Ġear lier
Ġperf ect
ATTRIBUT ES
Mix In
éĢī æĭ©
ĠCross Entropy
PK G
Inf inity
Ġasynchronous ly
Ġpod s
Ġtrim med
simp lified
Ġbecome s
ĠTIME OUT
ĠSpe ed
ĠOrig in
rol led
ĠRetrie ve
Ġexerc ise
æ£Ģ æµĭ
decre asing
ABCDEF GH
Cancelled Error
Logical Id
æ® µ
Ġéħį å¥Ĺä¹¦ç±į
æº Ĳ
Ġè®¨è®º çŃĶçĸĳ
jbar low
deha an
- ",
2 32
3 18
5 24
6 39
: ]))<
; "<
= """
> ------------------------
A re
B az
C anceled
D NN
E m
G PT
H ASS
J O
L AP
P ad
P aper
Q Q
S imp
T ouch
V IF
V QA
Y ear
[ ]
_ ,<
c fa
c flags
e fd
e fr
f ic
l able
m oment
m omentum
n f
s ive
v ature
w an
x v
z mq
} ^
Â ł
Î ¹
à ±
ï »
Ĩ Ĵ
in cl
at testation
en ous
Ġt ap
le tes
al bum
ar ial
ic ult
as ma
Ġre ach
Ġs ine
es p
Ġin vol
un lock
Ġd istribute
pe ak
ĠC trl
Ġ' ))<
Ġ' ()'
ul as
ul let
id ing
str s
od d
ĠN ils
ĠP kg
ĠD R
per mutation
ime thod
us hed
Ġst ay
Ġ{ **
Re present
ta kes
Ġpro portion
ĠE v
Ġy arl
ĠR D
ĠR et
Ġor chestr
ĠW all
rap id
>@ _
back light
SE PAR
SE EK
Ġk r
hel m
bo Box
Ġclass ifiers
Ġsub module
ded up
Ġpl ug
Ġim db
Ġno cover
plot ly
25 2
Ġsh print
ĠK NX
ID X
Model Mixin
ĠList ener
mock ery
no ulli
Ġext reme
GE D
air line
ĠGeneral ized
API Exception
new er
sd m
Ġinter polator
Request Exception
ĠY outube
ca a
color ama
For MaskedLM
Ġmod ular
]) ):<
ĠMock er
inst anti
inst eon
23 0
78 7
bu y
Ġ{} .".
Ġ"/ ",
State Class
Ġver bs
27 3
Ġattr getter
Ġ'' ')<
TEST FN
hash lib
chart sheet
Flow Args
sm ir
77 9
ĠExample Model
SU MER
([" -
([" --
ĠMy User
åħ ¬
åħ Ī
Ġes sent
report ers
Ġclean ed
tra il
Invalid Argument
BO ARD
ĠExpr Op
cluster ing
vari ety
Ġmaintain ed
Ġ'_ '
renc es
Ġdot s
Ġdot env
Ð° ÑĤ
Ðµ ÑĤ
Memory Error
ä¼ ¼
stride s
regular izer
WOR LD
Tra de
ä¾ Ľ
ĠDistributed DataParallel
Ġ[{ <
chanis ms
break s
Ġplan ning
Power Shell
FACT ORY
Smo othing
Ġmanip ulating
den om
band width
ĠRob erta
Ġequ ations
ATTRIBUT E
Ġspot light
ĠHEAD S
Del ay
Program ming
lit tle
Slot s
SECON D
Ta gger
Composite Resources
ĠMixed Reality
Webhook TestCase
ĠDagsterInvalid DefinitionError
Place holder
ĠProgram ming
ytick labels
Ġld ap
Ġunescape HTML
>######################################################## ####<
ĠCUR R
BOO LEAN
Ang le
Ai Learning
swa xs
Ġfv core
Vax Base
Ġimple met
ZIG BEE
' """<
+ '
4 88
5 44
B asket
D arwin
D UMMY
G CS
M Q
M IME
N T
U OUS
b ro
b df
c ac
d v
d on
d itor
e el
g api
h ull
k f
m ad
m ile
n od
p ener
r acer
r uby
s ho
t alk
u pe
v it
x mp
y et
z hou
Ï ģ
á Į
Ġ },
Ġ velocity
or on
in er
ic ast
Ġf amilies
Ġin sertion
Ġin jection
un subscribe
Ġd ice
Ġb all
Ġb dist
Ġm ultiplier
Ġw intypes
is her
Ġ( ~
ĠS IZE
ate ly
ĠT qdm
Ġ' )
Ġ' '),<
ĠA tsushi
id is
ĠL F
get sockname
class ify
Ġh om
(" ..
for warded
Ġr y
Ġg cc
able Test
00 10
ri ent
() ],
nc cl
Ġpy hanlp
ĠG P
ĠG er
ĠG PT
IN A
version ing
ĠSe par
ĠSe verity
model v
Ġuse cols
back off
scri bed
pre f
Ġsc enes
([ ('
Ġen caps
ĠPro ducer
DE TAIL
ĠEx pl
aw ning
Ġab upy
ĠX LSX
11 7
Ġext ens
event let
IL ON
cond uctor
label ing
ĠPublic API
ĠAr ctic
Ġpo isson
ĠAp plications
20 9
For C
34 7
56 7
ĠRes olve
14 2
inst ead
18 6
05 9
Al g
ell ig
Path s
Ġsk u
Ġneed le
Ġsimple json
Ġport ion
Ġ". "
Ġmulti api
TI F
Plugin Config
ĠTh ird
addr info
ient ific
Format Error
76 5
Filter Set
è¿ ŀ
Async HttpResponse
Char acters
è® ¢
ĠIN ST
IM G
IM ARY
Network ManagementClientConfiguration
Ġsn ip
Web socket
RA X
åº ĵ
ram id
ru ption
COM MON
ĠLe af
Application Insights
åį ĸåĩº
Inst alled
Be ats
åĨ ³
åĨ µ
repeat s
ĠValue Tracker
Vis ible
ĠPrivate LinkResourcesOperations
cons ume
ĠStorage ManagementClient
ĠRO I
ĠConsole Options
ĠThere fore
ĠOptim isation
ĠJob Template
çº¿ ç¨ĭ
Split ter
Evalu ation
ĠAsset Group
Ġremain der
^{ -
ĠRender er
ĠWrap ped
ãĤ Ĵ
vacc ine
é¡ »
inherit ed
Ġaffect ed
Ph one
heat map
áĬ ķ
ĠWebhook TestCase
ç« ł
KeyVault Client
ĠArch ive
Ġbas ics
Ġguarant eed
ĠElastic search
relationship s
ĠAmeric an
AMB DA
ĠHop kins
Ġimplemet ation
) ]]<
, ,
0 64
5 28
= '<
? ")<
A UDIO
B ONE
F ortran
S ink
V I
a ad
b ab
b ag
b cb
c ritical
d rag
f ns
g iref
h ib
i en
k ms
k nx
k inetics
l amb
m se
o gg
p ast
q rst
s anic
v b
w ire
} ")
Ñ Ī
ë ĭ
on ionshare
re amed
ar u
Ġc dk
an onym
Ġp aste
est ions
Ġre current
Ġs ongs
Ġin ferred
Ġn aming
Ġd rive
Ġb io
Ġm c
Ġm time
Ġw ww
co eff
ra ken
Ġas n
ce a
ĠS mall
Ġan t
str ange
con ll
tr c
tr uediv
Ġh ydra
Ġl da
ĠP ers
(" (
(" \\
ult on
Ġde compiler
Ġg arbage
ir aly
der ived
tp s
file size
ĠG repPlugin
ĠB ern
ĠB ayesian
Ġres hape
Con tours
ord inal
Ġco uple
ĠU l
ĠW A
ns pkg
pec ially
ĠRe current
sp rite
ĠTest Get
Ġob served
Ġch i
cor es
Ġsub plots
ĠPy AzureMgmt
Base Defaults
Ġsh allow
Ġtext box
Ġz mq
Ġmock ing
Rest ore
LO T
ĠProject Metadata
uff led
ĠInc lude
ĠJ oin
ĠJ Class
ĠUn iFi
ĠSt d
Ġ`` _
ĠQ Color
Ġend snippet
sol ar
Comp ile
For MultipleChoice
Ġannot ated
]) ),
LI VE
let t
over view
ĠOpen CV
56 9
Call s
ne ighbor
tar ball
wh atever
bl k
Col umns
18 8
Id s
Ġ9 5
ched ule
åĪ Ŀå§ĭåĮĸ
Ġsum y
ASS IGN
36 7
EL F
ĠWe iss
Log its
54 8
Sh anghai
Dis connected
inv ocation
ĠInvalid Expectation
Ġreason s
Ad ded
On line
On Prem
ĠBy tes
Ġmemory view
dt i
extra ction
SC AL
Red dit
95 2
End ToEnd
SV M
Ġlat ency
Access or
mult ibytecodec
Ġdig ital
âķ Ŀ
LIST ENER
GL UE
Ðµ ÑĢ
Len Field
Compute ManagementClientConfiguration
ä¼ ĺ
å¾ Ī
Ġmis match
ĠProcess or
Ġattemp ting
Ġinf rastructure
Fl ash
Rob ust
è¿Ľ ç¨ĭ
Fixture s
åĥı ç´ł
Ġdoctest s
assign ments
ĠLink ed
Fairseq Dataset
Ġexecutable s
ĠCH AN
Ġlaunch er
ĠInteger Field
TLS v
(... )):<
Lex icon
ĠRel ative
ĠPolygon Patch
syn apse
Ġvo coder
Ġmach inery
éĶ ®
Ġmag nitude
rout ine
ĠFin ancial
elastic search
Iot Hub
ä¿Ŀ åŃĺ
equ ation
recur sion
debu gger
Ġpostgres ql
humid ity
Ġpreced ence
ĠSCHE MA
ĠSon os
ĠPytest Tester
ĠMir co
ASY NC
ï» ¿
ĠMocker Fixture
ĠInvalidExpectation ConfigurationError
) #
0 99
3 17
7 01
> ########
> '.
C LE
D if
P alette
R atio
R Lock
R IX
S pectral
S NAP
V R
a ab
b dd
b fa
e eb
e fe
j an
l xml
n cols
t pl
t type
v ir
w c
Ã §
Ġ æĪĳä»¬
Ġ keypoints
or acle
re write
re ally
he ater
Ġc ritical
an gs
Ġs lim
Ġs outh
ur h
un sub
Ġb uff
Ġb oot
Ġm ic
Ġm il
Ġw c
ĠC ard
ot os
ĠS ingleton
ht ext
pt ype
pt ool
ĠL und
py serial
py asn
od im
Ġh is
(" >
(" @
ult aneous
Ġcon currency
im ax
ĠD L
ĠD ENY
ĠF ulton
Ġth rows
Ġ* (
(' ^
ĠI OL
Ġ""" @
Ġst eer
Ġex its
Ġpy autogui
Ġpy diesel
oo f
ĠG r
gg plot
ON SH
ob ian
ob servers
ĠR ock
ill er
EN GTH
os query
ĠCon versation
ĠGener ates
Ex String
ign ores
Ġob stacle
RE GISTER
bo gus
Ġim ap
ĠPro perties
Ġurl unparse
ĠCh oose
unc ased
12 9
AL CHE
ĠAuto Tokenizer
que ued
spec ies
gr if
') [-
ĠQ R
ĠData frame
ref lector
Ġne ar
yn ct
Ġ6 2
ĠBase Transformer
close st
Ch ooser
Ġpd t
Ġ8 1
34 8
]) ),<
]) ])<
=[ [
Ġtemp orarily
ĠPar sed
Trans formation
Ġrow data
78 1
ĠImage Color
ĠImage Ops
std lib
Int ro
Event Log
ĠCol lect
Ġgraph ic
ason ality
lid ays
Ġweb driver
æķ° ç»Ħ
medi as
Ġå Ĩ
Server less
]] ],
Version s
fc f
è¯ ´
è¯ Ŀ
ĠMulti Agent
Dis count
Ġsplit ting
writ ers
ĠInvalid Auth
ç» Ļ
factor ial
Batch Sampler
ĠService Call
ĠCO DE
rb ac
Expr Mem
car ded
vector ized
Ġsection author
XX XX
ĠRandom Forest
Ġaccept able
LU GIN
Ġflag ged
Ġequal s
ĠInteg ral
ĠFairseq Encoder
Rel ative
Plot ter
ç® Ģ
ssh uttle
blueprint s
ĠCLI ENT
under lying
Ġstrip ped
Ġconcat enate
ĠNa ive
yy yy
åŃĲ åŁŁ
Ġaio hue
ĠGe cko
Limit ed
éĺ µ
Ġrespect ive
ĠServiceBus Message
PROP ER
åģ ľ
Retrie ve
ĠExport ed
ä½į ç½®
>==================== ===<
andres riancho
ĠPAR AM
Safe ExString
Ġcoe fficient
Ġsanit ized
Ġprotect ed
................ ................
Ġpie ce
autos pec
ĠMetricsAdvisor KeyCredential
ĠSUPPORT ED
ĠFour ier
Linked List
Unavailable Error
Ġeng ines
orph ic
çŁ© éĺµ
Pretty Printer
å¿ħ é¡»
ĠEst imation
ĠEfuse Define
retin anet
INFIX ES
IMulti Dict
ALCHE MY
+ ',
+ ")<
, \<
7 37
< =
D er
E CR
F an
G l
H U
K nown
M FA
M IP
M ICS
M PEG
P ipes
R AT
S pline
S ingleton
S ynchronousTestCase
V IRTUAL
a que
b ayes
c in
e li
f re
f info
h ypot
k inesis
n ils
o e
x F
{ %
Ã £
Ĳ ľ
in str
Ġt st
Ġi zip
ro unded
from array
Ġp expect
Ġf ru
est r
Ġs x
Ġs ays
ed b
ser if
__ `
__ ``
co ff
li a
ĠC OR
ce b
ce e
ul b
py tz
con versation
ĠM agic
tr ypoint
set a
Ġh space
ĠP an
ĠP LUGIN
(" *.
Ġ1 98
Ġtest Get
Ġ2 40
ĠD i
ĠD ENSE
Ġr p
Ġg yp
ĠF ork
Ġth readed
to bytes
(' &
(' \\
Ġassert ion
Ġbe hind
Re pro
Ġun able
ib bs
yp ants
sc enarios
IT ES
IN CLUDE
Ġe vt
:// "
Ġse arched
Ġme ss
Ġ3 8
Ġset ter
Ġco erce
ĠW u
ĠV ml
ĠV OLUME
SE P
pre gs
pre serve
ml oning
Ġcol lap
ĠAn chor
Ġk m
bin omial
Ġch oo
RE TURN
sh lex
Ġreg r
ĠDe que
head ings
orp ay
ĠPro filer
df d
Ġcomp ilation
ĠCh ad
ĠCh allenge
") ["
OP T
ĠPy J
qui ver
Ġdis cus
che b
Ġsh aring
ide code
UT ION
by name
'] }
vert ed
Ġlog out
Ġus ual
') (
Ġsp ent
Ġsp read
RO OM
Ġ8 8
status Code
=[ ('
local ize
graph ic
Name Availability
Ġ"" ))<
Ġback ref
03 6
19 0
ï¼ ģ
skip na
:: ).<
18 4
MO D
05 4
ĠAdd itionally
Ġq t
iled Components
17 7
86 5
fe f
åĪ Ľå»º
[:, :,
Ac curacy
sg iref
ĠMA C
Var ious
CONFIG URE
79 7
ai ro
GB M
ef use
Work space
mk stemp
ograph ically
Ġsn ake
Ġ'/ '
shot s
Or More
Red ucer
CLI MATE
Store Backend
ĠStream Alert
ĠForm Recognizer
Feature Extractor
vers arial
AF TER
ĠCre ating
ĠApi ValueError
revision s
ĠTr igger
period ic
Record s
ĠSensor StateClass
SERV ICES
çī Ī
Channel Listing
ĠBox Layout
ĠConst ants
Ġattemp ted
Stage Detector
wheel s
vul ns
Note book
Video Clip
Ġdns lib
PA IR
Ġchallenge s
ĠPost greSQL
å¤§ å°ı
confirm ation
Ġstrict ly
******************************** ****************
Ġnor mpath
èĤ¡ ç¥¨
ĠPATH S
Zero DivisionError
GRR BaseTest
ĠAzureMgmt RecordedTestCase
ĠML flow
ĠANSI BLE
Ġair flow
chrom a
Ġprun e
Ġconsist ency
pager duty
ĠDirect ive
Operational Error
Å½Å½Å½Å½ Å½Å½Å½Å½
CLU STER
Ġiniti ated
fk iraly
Ġsequ encing
DOT ALL
ĠAssume s
Persistent Volume
SEQU ENCE
HIST ORY
/- /
Writ ing
obtain ing
ĠEner gy
ĠIOL oop
iledComponents PythonRecipe
" ?
" ></
) },
3 12
4 99
4 08
9 66
B Box
C G
C MAKE
E CO
H D
H oc
J et
K IT
M ysql
O WN
P an
P oke
P agination
Q ue
R AND
S ID
S sl
[ /
] -
_ {}
a ac
b ian
b atched
b Deprecated
b ecause
c ca
c raft
c assandra
d ensity
f be
g am
h aystack
i log
m alloc
p lease
r path
r ho
v host
v ances
y min
Å ¡
Ñ ħ
Ù Ĭ
Ġ serves
se quential
re ath
re mot
en ess
Ġt rivial
ro te
ct rl
ing Model
Ġs dk
Ġin secure
Ġn rows
ig a
Ġb ranches
ac o
ex if
Ġm r
Ġm log
Ġm arket
Ġm appings
Ġm illion
ĠC ent
ot er
ĠS ch
ĠS ens
ĠS andbox
Ġfor e
Ġ' ^
set env
ĠN orm
ĠN vim
Ġl and
ap k
ĠP seudo
== =
et ic
Ġcon versions
if o
ir cfg
Ġ""" .
() })<
us b
Re load
Ġ0 2
sc rap
ss dp
ĠE L
Ġe pi
Test Application
), )<
time zones
ff d
EN O
Ġco ol
comp ressor
son gs
af c
cur dir
base string
Ġk s
Ġare as
pend ulum
bo unded
MA STER
Ġclass name
Ġ4 6
Ġ4 05
Ġsub type
Ġsub plot
Ġal most
PE P
da v
Client Test
Config Dict
25 1
25 3
ĠEx pected
ress if
ere quis
Ġdis card
check ed
ong le
ĠX ml
uc c
flow Error
dis closure
gn ome
Ġpart y
are as
Ġle m
') ],
ä¸ ļ
Ġtrans actions
Ġman ner
Request Error
ĠAPI View
tin ue
Ġ8 7
PO LY
14 0
50 6
ne ck
Class ic
55 4
temp orary
PL Y
Ġag reement
23 9
Ġhe ights
24 2
33 8
Id x
loss y
ĠUser Factory
custom ers
09 0
27 1
Ġport able
################################################################ #######<
Ġident ifies
Ġdb m
HTTP TestCase
Ġtool box
Ġwidth s
non linear
Ġ'. '.
Flow Net
77 6
addr s
ee e
PRO DUCT
39 6
Api Get
Ġ$ (
Ġview er
Ġview items
Ġrel path
79 2
report ing
GB oost
tra ding
CRE EN
IM UM
meta var
Authentication Exception
CLI P
Ġactiv ations
Ġbasic ally
Sign ed
ĠPre tty
ĠÐ ¾
âĢ ¦
button s
Ġperiod ic
Ġown ers
ä¹ Ī
Ġclip board
COUN TRY
ĠApi TypeError
ĠOr g
Ġlow est
ĠSE CON
Ġtransl ations
ĠSpec ify
Hook Tests
ĠFairseq Criterion
Ġ"{} "
ĠAS hape
trins ics
å· ²
RAN DOM
ĠSqlmap ConnectionException
REQUI RE
Ġpers isted
Ge o
Public API
ffff ffff
ĠExit Stack
Print s
æľŁ æĿĥ
Ġcred s
Ġcha ined
Ġreplic a
ĠTk inter
åĿĩ çº¿
Ġquad ratic
bul b
11111111 11111111
çĽ´ æİ¥
ĠPeter son
Dim ension
ĠEnc rypt
ĠMetricsAdvisor AdministrationClient
Ġsmtp lib
Provisioning State
Ġbu gs
Ġdeclar ations
Ġfirewall s
VOC AB
DEFIN ED
ĠDim ension
Ġinterpre ted
Ġæ¯ ı
rfx trx
ĠEsp ressif
yas g
ĠPROC ESS
sez nam
Viol ationError
ĠTestDefault Teacher
ĠPUB LIC
qrst uvw
EndToEnd Test
MICS FT
bDeprecated DialogTeacher
/ ]+)
5 14
8 64
@ {
A ge
C a
C pp
E V
F ollow
H int
H ybrid
K W
M IC
M ongo
N orth
P hot
R oom
S Q
S quare
T ake
V o
W O
b ument
b ls
c lo
e i
e ight
j st
j ina
p color
p pc
p andoc
t ub
t ado
z orpay
Ã Ł
Ġ æĺ¯
in lab
er m
re loader
Ġt g
ion g
ar ity
Ġp n
Ġp ools
Ġf tp
Ġf atal
Ġs i
Ġs ibling
Ġs uggested
Ġn u
ser act
un ay
Ġd ont
Ġd rf
Ġb tn
__ ')<
Ġw b
co uld
ĠC limate
ĠC IMultiDict
ra ses
Ġas giref
Ġdef orm
is lice
ad f
ad oop
ĠS ound
ĠS PACE
ch k
ĠT Z
ĠT ick
ĠA pr
ĠA lex
ĠL TD
ĠM D
ĠM ESSAGE
ĠP OS
Ġcon tribut
Ġcon verters
int y
Ġr rt
Ġg x
ĠF ollow
() ;<
Ġ0 5
ĠB unch
Ġby test
ome tries
=" {}
Ġdata gram
url encode
assert Dict
iv el
ff b
=' .
Ġj id
ĠCon tinuous
Ġtime zones
ĠRe quires
Client Factory
Ġpl aced
ren gth
Ġpre set
De leted
uc umber
iter ate
json rpc
print ing
ĠJ i
ĠJ inja
File Manager
tes seract
') ]
Ġsp rite
ref count
ps util
ED IT
command line
oth ers
loc ate
ĠBase Module
Ġinter est
Ġinter rupt
Ġ! /
Ġnode list
34 1
Ġgr p
ĠSo ot
ĠHttp OperationError
mod ifier
ĠImage Chops
][ -
Ġinstall s
DEFAULT S
Th ing
200 2
44 7
ds a
cn f
Ġform spree
ĠZ WaveMe
ĠTh readed
ĠRun s
kit chen
cr f
}} }}<
79 8
>` :
Ġrest ored
Ġcap ability
Ġcap ital
å¤ ±
Inc orrect
Com bin
Ġarch itectures
pare to
NotFound Exception
From File
Custom er
Ġeffect ive
prob abilities
ãģ Ļ
IB M
implement s
Lazy Object
Basic Auth
Mod ify
Rel ationship
Ġdimension ality
åĿ Ģ
wave form
Ġindent ation
HA VE
Ġround trip
ĠPh p
å¹ ´
ĠNew Type
ĠAL G
ĠDet ail
frozen set
Serial izable
oper ands
Scan Result
ĠParameter Container
paper less
ĠCommunication Identifier
ĠContent Type
ĠRange Index
Ġlearn er
thumbnail s
Tom asz
Hyper link
ĠOP TIONS
ĠAllow s
maintain ers
Ġpunct uation
DEP LOY
Ro I
ĠSK IP
SOFT WARE
ĠDraw ing
Ġsynt hetic
Ġtun ing
summar ize
assemb ly
Ġsimpl icity
Additional Info
ĠPur view
åĬŁ èĥ½
ĠWebSite ManagementClient
pay ments
ĠAltern atively
ĠRESO URCE
Ġabbre vi
Invariant ViolationError
Material ization
bument ations
) $
1 999
7 26
= ()):<
> ).
B i
B box
C op
C lock
C LS
C ANCEL
F ET
F ingerprint
G rammar
M X
N d
P B
S ha
S anic
Z ULIP
Z igbeeChannel
\ "]
] }"<
a ox
c db
c ameras
e se
e fa
g dp
k ay
k means
n om
r ms
u u
x log
Å Ĥ
Ġ Ø
Ġ ----
or ated
in format
at est
re ment
re current
re construct
mp c
Ġt elnet
ro ts
de a
Ġa ware
ar to
ar ms
ar imax
rom an
me ss
as freq
Ġo id
un stack
un privileged
Ġd uplicated
Ġb py
co ordinate
ĠC HE
is subclass
ĠS P
ĠS at
ĠS afari
ĠL udwig
Ġis atty
tr alytics
up sample
test dir
Ġif ace
ĠP a
and ir
name plate
et ches
Ġde dic
ĠF lags
Ġ* _
ĠI Q
ĠI MPORT
ĠI mplicit
able Conv
om ents
om ics
pl at
pl aintext
Ġst ash
nc y
Ġpy c
[...]
