{"<s>":0,"<pad>":1,"</s>":2,"<unk>":3,"<mask>":4,"!":5,"\"":6,"#":7,"$":8,"%":9,"&":10,"'":11,"(":12,")":13,"*":14,"+":15,",":16,"-":17,".":18,"/":19,"0":20,"1":21,"2":22,"3":23,"4":24,"5":25,"6":26,"7":27,"8":28,"9":29,":":30,";":31,"<":32,"=":33,">":34,"?":35,"@":36,"A":37,"B":38,"C":39,"D":40,"E":41,"F":42,"G":43,"H":44,"I":45,"J":46,"K":47,"L":48,"M":49,"N":50,"O":51,"P":52,"Q":53,"R":54,"S":55,"T":56,"U":57,"V":58,"W":59,"X":60,"Y":61,"Z":62,"[":63,"\\":64,"]":65,"^":66,"_":67,"`":68,"a":69,"b":70,"c":71,"d":72,"e":73,"f":74,"g":75,"h":76,"i":77,"j":78,"k":79,"l":80,"m":81,"n":82,"o":83,"p":84,"q":85,"r":86,"s":87,"t":88,"u":89,"v":90,"w":91,"x":92,"y":93,"z":94,"{":95,"|":96,"}":97,"~":98,"¡":99,"¢":100,"£":101,"¤":102,"¥":103,"¦":104,"§":105,"¨":106,"©":107,"ª":108,"«":109,"¬":110,"®":111,"¯":112,"°":113,"±":114,"²":115,"³":116,"´":117,"µ":118,"¶":119,"·":120,"¸":121,"¹":122,"º":123,"»":124,"¼":125,"½":126,"¾":127,"¿":128,"À":129,"Á":130,"Â":131,"Ã":132,"Ä":133,"Å":134,"Æ":135,"Ç":136,"È":137,"É":138,"Ê":139,"Ë":140,"Ì":141,"Í":142,"Î":143,"Ï":144,"Ð":145,"Ñ":146,"Ò":147,"Ó":148,"Ô":149,"Õ":150,"Ö":151,"×":152,"Ø":153,"Ù":154,"Ú":155,"Û":156,"Ü":157,"Ý":158,"Þ":159,"ß":160,"à":161,"á":162,"â":163,"ã":164,"ä":165,"å":166,"æ":167,"ç":168,"è":169,"é":170,"ê":171,"ë":172,"ì":173,"í":174,"î":175,"ï":176,"ð":177,"ñ":178,"ò":179,"ó":180,"ô":181,"õ":182,"ö":183,"÷":184,"ø":185,"ù":186,"ú":187,"û":188,"ü":189,"ý":190,"þ":191,"ÿ":192,"Ā":193,"ā":194,"Ă":195,"ă":196,"Ą":197,"ą":198,"Ć":199,"ć":200,"Ĉ":201,"ĉ":202,"Ċ":203,"ċ":204,"Č":205,"č":206,"Ď":207,"ď":208,"Đ":209,"đ":210,"Ē":211,"ē":212,"Ĕ":213,"ĕ":214,"Ė":215,"ė":216,"Ę":217,"ę":218,"Ě":219,"ě":220,"Ĝ":221,"ĝ":222,"Ğ":223,"ğ":224,"Ġ":225,"ġ":226,"Ģ":227,"ģ":228,"Ĥ":229,"ĥ":230,"Ħ":231,"ħ":232,"Ĩ":233,"ĩ":234,"Ī":235,"ī":236,"Ĭ":237,"ĭ":238,"Į":239,"į":240,"İ":241,"ı":242,"Ĳ":243,"ĳ":244,"Ĵ":245,"ĵ":246,"Ķ":247,"ķ":248,"ĸ":249,"Ĺ":250,"ĺ":251,"Ļ":252,"ļ":253,"Ľ":254,"ľ":255,"Ŀ":256,"ŀ":257,"Ł":258,"ł":259,"Ń":260,"ĠĠ":261,"--":262,"ĠĠĠĠ":263,"ĠĠĠ":264,"or":265,"----":266,"se":267,"><":268,"on":269,"in":270,"at":271,"er":272,"ĠĠĠĠĠĠĠ":273,"re":274,"st":275,"en":276,"mp":277,"Ġt":278,"Ġi":279,"--------":280,"ro":281,")<":282,"de":283,"ort":284,"Ġ=":285,"Ġa":286,"mport":287,"le":288,"\"\"":289,":<":290,"al":291,"ion":292,"ar":293,"he":294,"Ġc":295,"it":296,"čĊ":297,"an":298,"rom":299,"from":300,"lf":301,"self":302,"me":303,"ic":304,"Ġimport":305,"as":306,"ut":307,"Ġp":308,"Ġf":309,"):<":310,"ct":311,"----------------":312,"est":313,"Ġre":314,"ge":315,"ent":316,"ing":317,"Ġs":318,"ur":319,"lo":320,"##":321,"def":322,"es":323,"Ġ\"":324,",<":325,"ĠĠĠĠĠĠĠĠĠĠĠ":326,"\"<":327,"Ġthe":328,">#":329,"ed":330,"Ġin":331,"Ġo":332,"Ġn":333,"ser":334,"un":335,"ig":336,".<":337,"Ġself":338,"Ġd":339,"Ġb":340,"__":341,"il":342,"import":343,"ac":344,"ex":345,"Ġm":346,"pe":347,"Ġw":348,"co":349,"ation":350,"ass":351,"li":352,"ĠC":353,"ra":354,"Ġas":355,"Ġdef":356,"ot":357,"\"\"\"<":358,"ame":359,"is":360,"Ġ(":361,"ce":362,"ad":363,"ĠS":364,"ch":365,"ode":366,"ht":367,"ate":368,"ĠT":369,"Ġfor":370,"Ġ'":371,"pt":372,"ĠA":373,"####":374,"ul":375,"lass":376,"id":377,"ĠL":378,"ol":379,"ile":380,"py":381,"urn":382,"ue":383,"turn":384,"ver":385,"ata":386,"Ġan":387,"str":388,"th":389,"ĠĠĠĠĠĠĠĠ":390,"get":391,"Ġis":392,"Ġto":393,"age":394,"--------------------------------":395,"el":396,"um":397,"ab":398,"qu":399,"sert":400,"con":401,"ĠM":402,"Ġreturn":403,"Ġ#":404,"od":405,"ect":406,"one":407,"tr":408,"up":409,"set":410,"ath":411,"ype":412,"ter":413,"ĠN":414,"class":415,"ense":416,"ke":417,"val":418,"test":419,"icense":420,"()<":421,"\",":422,"ith":423,"Ġ[":424,"Ġh":425,"ack":426,"Ġif":427,"Ġof":428,"Ġl":429,"ap":430,"ĠP":431,"and":432,"iz":433,"ure":434,"]<":435,"(\"":436,"oc":437,"Ġ1":438,"fig":439,"==":440,"for":441,"ult":442,"Ġand":443,"name":444,"Ġ-":445,"ext":446,"\"\"\"":447,"Ġtest":448,"gs":449,"ist":450,"ight":451,"et":452,"ase":453,"',":454,"sion":455,"Ġcon":456,"Ġ2":457,"ve":458,"int":459,"im":460,"ĠD":461,"am":462,"per":463,"if":464,"Ġde":465,"Ġr":466,"Ġg":467,"ĠF":468,"ror":469,"ption":470,"ub":471,"ject":472,"Ġth":473,"all":474,"res":475,"ir":476,"der":477,"to":478,"Ġ.":479,"Ġ*":480,"ore":481,"ener":482,"('":483,"Ġassert":484,"ĠI":485,"path":486,"Ġ\"\"\"<":487,"\")<":488,"Ġlo":489,"ime":490,"form":491,"end":492,"able":493,"00":494,"om":495,"Ġ\"\"\"":496,"########":497,"pl":498,"odel":499,"Ġbe":500,"par":501,"ri":502,"()":503,"ay":504,"ction":505,"Ġ_":506,"pro":507,"._":508,"ĠNone":509,"us":510,"ial":511,"tp":512,"Ġst":513,"Ġ{":514,"data":515,"args":516,"Ġ__":517,"ĠLicense":518,"nc":519,"ment":520,"Ġex":521,"Ġ==":522,"Re":523,"(<":524,"mple":525,"Ġwith":526,"Ġ0":527,"so":528,"Ġpy":529,"put":530,"use":531,"Ġun":532,"Ġnot":533,"ow":534,"oo":535,"ine":536,"file":537,"util":538,"\":":539,"opy":540,"type":541,"red":542,"Er":543,"ĠG":544,"Error":545,"ta":546,"))<":547,"ict":548,"ib":549,"ated":550,"init":551,"Ġfile":552,"yp":553,"em":554,"')<":555,"ize":556,"lient":557,"sc":558,"ha":559,"http":560,"Ġpro":561,"ck":562,"ss":563,"ĠĠĠĠĠĠĠĠĠĠĠĠĠĠĠ":564,"gg":565,"ces":566,"Ġstr":567,"ON":568,"ant":569,"lib":570,"01":571,"right":572,"ĠO":573,"ft":574,"ĠE":575,"ator":576,"IT":577,"ll":578,"IN":579,"ma":580,"rue":581,"out":582,"atch":583,"nt":584,"Ġe":585,"ync":586,"po":587,"key":588,".\"\"\"<":589,"//":590,"version":591,"Ġos":592,"opyright":593,"art":594,"ĠB":595,"ER":596,"Ġres":597,"com":598,"ĠSe":599,"text":600,"ers":601,"\",<":602,"ity":603,"ork":604,"Ġ:":605,"Ġby":606,"value":607,"__(":608,"://":609,"Ġ+":610,"====":611,"ange":612,"ations":613,"ies":614,"thon":615,"ix":616,"ip":617,"Ġfrom":618,"ome":619,"ray":620,"Ġ--------------------------------":621,"=\"":622,"Ġdata":623,"our":624,"list":625,"ĠCopyright":626,"Ġv":627,"ule":628,"ock":629,"ag":630,"quest":631,"ob":632,"Ġy":633,"Test":634,"),":635,"ctor":636,"url":637,"ice":638,"Ġget":639,"ise":640,"Ġx":641,"assert":642,"config":643,"Ġnp":644,"Con":645,"Ġ----------------------------------------------------------------":646,"ace":647,"utils":648,"Ġse":649,"Ġ------------------------------------------------------------------------":650,"time":651,"Ġme":652,"low":653,"core":654,"iv":655,"Ġ)<":656,"ĠR":657,"ans":658,"env":659,"Ġor":660,"orch":661,"op":662,"Ġit":663,"kw":664,"\"]":665,"}<":666,"ff":667,"add":668,"ĠH":669,"cess":670,"'<":671,"ill":672,"ĠĠĠĠĠĠĠĠĠĠĠĠĠĠĠĠ":673,"alse":674,"Ġname":675,"ew":676,"ault":677,"app":678,"rit":679,"te":680,"ry":681,"():<":682,"='":683,"EN":684,"user":685,"[\"":686,"Ġar":687,"Ġ3":688,"Ġon":689,"model":690,"AT":691,"kwargs":692,"Ġ@":693,"uil":694,"ord":695,"ang":696,"Ġro":697,"odule":698,"Ġset":699,"wa":700,"heck":701,"vi":702,"ample":703,"ys":704,"Ġco":705,"ibut":706,"serv":707,"qual":708,"Ġ->":709,"ĠU":710,"enerated":711,"rint":712,"ly":713,"In":714,"dir":715,">\"\"\"<":716,"his":717,"port":718,"ive":719,"code":720,"pack":721,"ind":722,"ance":723,"https":724,"pon":725,"################":726,"Ġthis":727,"ES":728,"ĠW":729,"ĠSee":730,"ump":731,"col":732,"soft":733,">#<":734,"Ġthat":735,").":736,"ug":737,"ens":738,"read":739,"unction":740,"icro":741,"ire":742,"utf":743,"02":744,"ust":745,"fo":746,"..":747,"Ġuse":748,"icrosoft":749,"ument":750,"ĠMIT":751,"Ġwh":752,"thod":753,"),<":754,"rap":755,"Ġtyp":756,"--<":757,"Ġcode":758,"ĠV":759,"ook":760,"os":761,"load":762,"ource":763,"':":764,"attr":765,"und":766,"xt":767,"Ġunder":768,"Ġpar":769,"raise":770,"zure":771,"iel":772,"OR":773,"comp":774,"ask":775,"-<":776,"ĠMicrosoft":777,"ield":778,"cl":779,"ponse":780,"ache":781,"Ġj":782,"dex":783,"ool":784,"vent":785,"])<":786,"Ġ**":787,"pect":788,"uth":789,"],":790,"line":791,"ast":792,"True":793,"None":794,"ception":795,"ho":796,"Ġlicense":797,">@":798,"Ġtorch":799,"istant":800,"gging":801,"ary":802,"ns":803,"ings":804,"ĠCode":805,"Ġtype":806,"son":807,"Ġresult":808,"back":809,"Ġ`":810,"error":811,"ep":812,"reate":813,"io":814,"ĠThe":815,"Ġwill":816,"Ġ--------------------------------------------------------------------------<":817,"SE":818,"Ġ(<":819,"Ġtyping":820,"ree":821,"pec":822,"ential":823,"ĠCon":824,"uild":825,"num":826,"valid":827,"scri":828,"IC":829,">)<":830,"size":831,"Ġtime":832,"ax":833,"af":834,"Ġhome":835,"ec":836,"lot":837,"Ġcod":838,"dd":839,"Ġcoding":840,"ifi":841,"umpy":842,"AR":843,"ĠGener":844,"Ġconfig":845,"arn":846,"pre":847,"ty":848,"Ġsc":849,"Ġversion":850,"',<":851,"uto":852,"rain":853,"ĠRe":854,"vice":855,"ken":856,"uration":857,"ml":858,"cur":859,"Ex":860,"client":861,"Ġsup":862,"unt":863,"base":864,"sp":865,"ights":866,"ĠThis":867,"ign":868,"redential":869,"Ġroot":870,"Ġout":871,"ST":872,"Ġap":873,"Ġ201":874,"Ġcol":875,"date":876,"ard":877,"ĠAn":878,"Ġ<":879,"mo":880,"stance":881,"ther":882,"Ġk":883,"istr":884,"api":885,"gger":886,"ĠTrue":887,"ĠTest":888,"bin":889,"Ġare":890,"Type":891,"Ġ%":892,"own":893,"St":894,"Ġob":895,"Ġch":896,"Ġsys":897,"Ġprint":898,"not":899,"param":900,"ues":901,"hel":902,"cor":903,"ctory":904,"**":905,"work":906,"run":907,"Ġmodel":908,"else":909,"([":910,"ail":911,"CH":912,"ĠAll":913,"txt":914,"RE":915,"async":916,"pend":917,"bo":918,"Ġ-*":919,"Equal":920,"mat":921,"Ġraise":922,"Ġpytest":923,"formation":924,"pen":925,"object":926,"mand":927,"MA":928,"assistant":929,"Ġclass":930,"served":931,"ango":932,"oin":933,"ain":934,"ION":935,"Ġvalue":936,"vel":937,"array":938,"jango":939,"ates":940,"sh":941,"Ġlist":942,"========":943,"mpl":944,"org":945,"Ġlogging":946,"Ġint":947,"cept":948,"nect":949,"Ġreg":950,"rite":951,"dent":952,"with":953,"Ġ4":954,".__":955,"Ġpass":956,"ensor":957,"roup":958,"ittest":959,"Ġnumpy":960,"ME":961,"ssage":962,"ms":963,"uture":964,"rent":965,"tain":966,"dict":967,"Ġhomeassistant":968,">>":969,"format":970,"log":971,"Ġsub":972,"ause":973,"Ġal":974,"ĠDe":975,"pers":976,"Ġen":977,"Ġ..":978,"mon":979,"book":980,"assertEqual":981,"Ġproject":982,"ING":983,"ded":984,"Ġlen":985,"andom":986,"Ġelse":987,"PE":988,"Ġinformation":989,"head":990,"PI":991,"rame":992,"da":993,"Ġwork":994,"ses":995,"Pro":996,"ence":997,"ream":998,"Ġcan":999,"Ġkey":1000,"ition":1001,"Ġreserved":1002,"Ġrights":1003,"ound":1004,"try":1005,"ĠFalse":1006,"Client":1007,"Ġpath":1008,"Ġpl":1009,"IG":1010,"Ġasync":1011,"pi":1012,"LE":1013,"10":1014,"ication":1015,"Ġpython":1016,"parse":1017,"orp":1018,"Ġim":1019,"ĠPro":1020,"ark":1021,"CK":1022,"ake":1023,"ave":1024,"Ġwe":1025,"ptional":1026,"lin":1027,"Ġ[\"":1028,"ute":1029,"models":1030,"DE":1031,"fix":1032,"she":1033,"Ġother":1034,"Config":1035,"future":1036,"Lo":1037,"ĠĠĠĠĠ":1038,"izer":1039,"level":1040,"info":1041,"scription":1042,"Ġno":1043,"loat":1044,"values":1045,"Case":1046,"fer":1047,"ber":1048,"abel":1049,"plot":1050,"df":1051,"cal":1052,"ou":1053,"ari":1054,"ĠLicensed":1055,"nd":1056,"Ġcomp":1057,"Ġmay":1058,"arg":1059,"net":1060,"lob":1061,"\"]<":1062,"Ġ5":1063,"ifier":1064,"hape":1065,"join":1066,"ackage":1067,"oration":1068,"Ġurl":1069,"ww":1070,"25":1071,"tail":1072,"lock":1073,"len":1074,"fil":1075,"ĠCorp":1076,"arch":1077,"False":1078,"word":1079,"ents":1080,"ĠCorporation":1081,"Ġrequest":1082,"orm":1083,"Ġnum":1084,"Res":1085,"db":1086,"AN":1087,"Ġ{<":1088,"ĠCh":1089,"Ġ{\"":1090,"process":1091,"rans":1092,"stat":1093,"wait":1094,"raph":1095,"Ġazure":1096,"ĠEx":1097,"ameter":1098,"ĠIn":1099,"entry":1100,"\")":1101,"rect":1102,"202":1103,"reg":1104,"Ġgenerated":1105,"OP":1106,"Ġrun":1107,"uct":1108,"doc":1109,"we":1110,"sour":1111,"count":1112,"Ġdepend":1113,"ress":1114,"['":1115,"Ġdefault":1116,"ere":1117,"HT":1118,"ash":1119,"request":1120,"ler":1121,"pected":1122,"pr":1123,"En":1124,"Ġ[<":1125,"lic":1126,"ket":1127,"uld":1128,"64":1129,"lection":1130,"Data":1131,"arget":1132,"ory":1133,"ĠPy":1134,"min":1135,"nel":1136,"tails":1137,"ONF":1138,"aw":1139,"method":1140,"qui":1141,"ugin":1142,"man":1143,"ls":1144,"Ġ/":1145,"Ġcom":1146,"ren":1147,"item":1148,"Ġsource":1149,"Ġdis":1150,"sub":1151,"Ġte":1152,"unc":1153,"perations":1154,"Base":1155,"ypes":1156,"ery":1157,"12":1158,"Ġpre":1159,"Ap":1160,"Ġdate":1161,"Ġsuper":1162,"build":1163,"Ġdetails":1164,"ature":1165,"Ġdjango":1166,"ware":1167,"ĠAny":1168,"Ġab":1169,"Ġhttps":1170,"che":1171,"Ġuser":1172,"AL":1173,"ĠGenerator":1174,"input":1175,"server":1176,"Ġfunction":1177,"uple":1178,"ding":1179,"istribut":1180,"led":1181,"call":1182,"anges":1183,"Ġmodule":1184,"tent":1185,"start":1186,"check":1187,"irectory":1188,"YPE":1189,"usr":1190,"index":1191,"igr":1192,"ĠOptional":1193,"PD":1194,"Ġsh":1195,"ptions":1196,"Ġall":1197,"act":1198,"ithub":1199,"alue":1200,"default":1201,"De":1202,"Ġcheck":1203,"ide":1204,"map":1205,"License":1206,"serial":1207,"velo":1208,"Ġunittest":1209,"write":1210,"ong":1211,"Ġbeha":1212,"],<":1213,"Ġ*<":1214,"32":1215,"ics":1216,"instance":1217,"ename":1218,"#!":1219,"eg":1220,"ĠX":1221,"source":1222,"trans":1223,"Ident":1224,"Ġdoc":1225,"ost":1226,"Ġtext":1227,"ick":1228,"UT":1229,"Ġoutput":1230,"append":1231,"ach":1232,"point":1233,"mark":1234,"ud":1235,"output":1236,"github":1237,"html":1238,"Ġarg":1239,"olic":1240,"vior":1241,"Ġat":1242,"module":1243,"ĠAuto":1244,"pytest":1245,"open":1246,"ote":1247,"attribut":1248,"#!/":1249,"foo":1250,"hould":1251,"Ġadd":1252,"mplement":1253,"Ġz":1254,"Ġmock":1255,"Ser":1256,"2022":1257,"correct":1258,"sheet":1259,"Ġobject":1260,"result":1261,"la":1262,"state":1263,"plit":1264,"function":1265,"inter":1266,"Ġtop":1267,"ors":1268,"Ġbehavior":1269,"CHE":1270,"ich":1271,"cs":1272,"Ġused":1273,"Ġawait":1274,"ĠK":1275,"UR":1276,"Co":1277,"ager":1278,"Ġinput":1279,"Ġexpected":1280,"by":1281,"Ġcause":1282,"ID":1283,">__":1284,"},<":1285,"que":1286,"Model":1287,"yst":1288,"ite":1289,"string":1290,"Ġmethod":1291,"iron":1292,"Identifier":1293,"):":1294,"-----<":1295,"Rest":1296,"ify":1297,"image":1298,"UL":1299,"ĠList":1300,"})<":1301,"Ġup":1302,"TestCase":1303,"my":1304,"ual":1305,"tool":1306,"################################":1307,"Ġincorrect":1308,"auth":1309,"PDX":1310,"ĠSPDX":1311,"Ġ2013":1312,"Ġutf":1313,"Ġlost":1314,"gra":1315,"av":1316,"ĠChanges":1317,"andas":1318,"python":1319,"types":1320,"Ġregenerated":1321,"LO":1322,"ĠAutoRest":1323,"tings":1324,"umn":1325,"uc":1326,"ension":1327,"max":1328,"iver":1329,"TR":1330,"Ġtry":1331,"atform":1332,"met":1333,"mock":1334,"ey":1335,"Par":1336,"perty":1337,"Ġclient":1338,"Ġ[]<":1339,"``":1340,"flow":1341,"Ġso":1342,"ization":1343,"create":1344,"Ġspack":1345,"IGHT":1346,"ĠConfig":1347,"onents":1348,"Ġbase":1349,"andler":1350,"Ġjson":1351,"dis":1352,"Ġdo":1353,"())<":1354,"ĠProject":1355,"row":1356,"Ġdict":1357,"iter":1358,"Ġopen":1359,"Ġ}<":1360,"ublic":1361,"raw":1362,"peline":1363,"group":1364,"lay":1365,"no":1366,"NA":1367,"Ġ._":1368,"']":1369,"mplate":1370,"Ġspec":1371,"mt":1372,"AS":1373,"ystem":1374,"enc":1375,"eature":1376,"ĠĠĠĠĠĠĠĠĠĠĠĠĠĠĠĠĠĠĠ":1377,"np":1378,"ools":1379,"ENSE":1380,"Ġdatetime":1381,"const":1382,"patch":1383,"11":1384,"Ġnew":1385,"OT":1386,"json":1387,"Ġcall":1388,"di":1389,"ices":1390,"ational":1391,"ract":1392,"nn":1393,"uff":1394,"ICENSE":1395,"curity":1396,"equal":1397,"Ġshould":1398,"ĠInc":1399,"ull":1400,"To":1401,"Ġdepends":1402,"print":1403,"train":1404,"nection":1405,"Ġcopy":1406,"ner":1407,"ĠJ":1408,"velopers":1409,"kip":1410,"ak":1411,"ĠUn":1412,"vert":1413,"ĠOR":1414,"ql":1415,"File":1416,"tes":1417,"Ġcontext":1418,"Ġline":1419,"DO":1420,"Ġwhen":1421,"OPY":1422,"Ġrange":1423,"Ġ-----------------------------------------------------------------------------<":1424,"mis":1425,"Ġstate":1426,"ible":1427,"ster":1428,"message":1429,"ftware":1430,"gth":1431,"itle":1432,"Ġ-*-":1433,"lose":1434,"sent":1435,"Ġresponse":1436,"shape":1437,"().":1438,"ĠSt":1439,"Ġsha":1440,"bar":1441,"ale":1442,"ĠCOPY":1443,"var":1444,"Ġstat":1445,"page":1446,"Ġ-*-<":1447,"environ":1448,"ERS":1449,"mb":1450,"exception":1451,"Ġext":1452,"ustom":1453,"Ġcreate":1454,"aclass":1455,"Ġlog":1456,"coder":1457,"Man":1458,"Ġmat":1459,"the":1460,"main":1461,"eta":1462,"Package":1463,"Ġerror":1464,"Ġhass":1465,"(__":1466,"Ġ...":1467,"RIGHT":1468,"Ġus":1469,"gn":1470,"Ġapp":1471,"torch":1472,"Ġexcept":1473,"Ġ]<":1474,"Ġac":1475,"ĠSpack":1476,"response":1477,"ally":1478,"Ġinst":1479,"more":1480,"spec":1481,"event":1482,"CHECK":1483,"LC":1484,"CO":1485,"riter":1486,"Ġray":1487,"ĠSecurity":1488,"ulti":1489,"Ġpart":1490,"context":1491,"The":1492,"Ġimage":1493,"tern":1494,"GE":1495,"indow":1496,"ision":1497,"cre":1498,"pos":1499,"Exception":1500,"Ġhas":1501,"Ġ>":1502,"Ġ10":1503,"Ġdirectory":1504,"mit":1505,"Apache":1506,"Ġcur":1507,"are":1508,"Ġ['":1509,"ecut":1510,"ts":1511,"Ġper":1512,"rence":1513,"ĠTYPE":1514,"qa":1515,"ĠSim":1516,"Ġargs":1517,"This":1518,"ĠDict":1519,"space":1520,"256":1521,"Ġle":1522,"ĠNational":1523,"ĠCOPYRIGHT":1524,"Up":1525,"split":1526,"alueError":1527,"md":1528,"ĠLLC":1529,"ĠDevelopers":1530,"query":1531,"ĠLaw":1532,":`":1533,"gr":1534,"MAIN":1535,"ENT":1536,"ivermore":1537,"ĠLivermore":1538,"ĠLawrence":1539,"IL":1540,"NU":1541,"frame":1542,"')":1543,"annel":1544,"Ġ``":1545,"CHECKING":1546,"ĠQ":1547,"Ġyou":1548,"coding":1549,"ĠData":1550,"og":1551,"Py":1552,"Ġpandas":1553,"cond":1554,"tools":1555,"TP":1556,"']<":1557,"lect":1558,"Ġ>>":1559,"Ġtests":1560,"Ġhttp":1561,"Ġms":1562,"lint":1563,"Ġwhich":1564,"ariable":1565,"ture":1566,"Ġfiles":1567,"Ġnoqa":1568,"AB":1569,"Ġmessage":1570,"Ġisinstance":1571,"hass":1572,"sing":1573,"Ġread":1574,"ä¸":1575,"credential":1576,"={":1577,"lat":1578,"func":1579,"ert":1580,"play":1581,"headers":1582,"Ġsp":1583,"label":1584,"ref":1585,"be":1586,"CT":1587,"Ġfound":1588,"Ġne":1589,"ateg":1590,"air":1591,"Ġdtype":1592,"ps":1593,"amb":1594,"tocol":1595,"Ġlib":1596,"RO":1597,"ameters":1598,"ED":1599,"parser":1600,"box":1601,"AD":1602,"ister":1603,"gener":1604,"Ġfil":1605,"Ġstart":1606,"xy":1607,"Ġcollection":1608,"(),":1609,"ĠLICENSE":1610,"dim":1611,"andle":1612,"\".":1613,"Ġits":1614,"Ġend":1615,"ments":1616,"sync":1617,"Ġ>>>":1618,"Ġstring":1619,"token":1620,"components":1621,"command":1622,"Ġload":1623,"agement":1624,"ocket":1625,"ĠĠĠĠĠĠ":1626,"Ġmax":1627,"Set":1628,"({":1629,"Ġ+=":1630,"property":1631,"ĠGeneral":1632,"Ġcontain":1633,"List":1634,"NAME":1635,"opt":1636,"Ġformat":1637,"random":1638,"orage":1639,"imple":1640,"oke":1641,"inal":1642,"irst":1643,"idth":1644,"common":1645,"dataset":1646,"olicy":1647,"ttp":1648,"asses":1649,"Ġhave":1650,"oth":1651,"MP":1652,"'s":1653,"((":1654,"000":1655,"Str":1656,"down":1657,"ĠPublic":1658,"[:":1659,"return":1660,"Ġ(\"":1661,"testing":1662,"Ġtrans":1663,"www":1664,"cp":1665,"fa":1666,"ĠPython":1667,"ĠAr":1668,"Ġsize":1669,"))":1670,"Ġtw":1671,"device":1672,"float":1673,"project":1674,"loc":1675,"mage":1676,"clu":1677,"FA":1678,"yn":1679,"Ġ6":1680,"API":1681,"Ġindex":1682,"ess":1683,"entity":1684,"Ġ|":1685,"ĠIf":1686,"HO":1687,"ities":1688,"ambda":1689,"quired":1690,"Se":1691,"filename":1692,"].":1693,"sol":1694,"sum":1695,"Ġpylint":1696,"logger":1697,"ERSION":1698,"Ġdocument":1699,"\"])<":1700,"Ġax":1701,"Ġcre":1702,"ider":1703,"Ġrandom":1704,"arning":1705,"Ġbuild":1706,"Ar":1707,"ULT":1708,"16":1709,"update":1710,"ific":1711,"Ġopt":1712,"lease":1713,"ng":1714,"range":1715,"Ġvalues":1716,"Ġman":1717,"tro":1718,"place":1719,"ized":1720,"service":1721,"Ġid":1722,"amples":1723,"ok":1724,"Comp":1725,"als":1726,"Field":1727,"ran":1728,"istributed":1729,"files":1730,"plication":1731,"new":1732,"sed":1733,"obj":1734,"Ġonly":1735,"ward":1736,"ĠBase":1737,"igrations":1738,"Ġpatch":1739,"ĠCONF":1740,"Ġdisable":1741,"close":1742,"view":1743,"Ġmodels":1744,"rary":1745,"ML":1746,"rix":1747,"ends":1748,"iew":1749,"rc":1750,"ie":1751,"Ġli":1752,"Ġsupport":1753,"(_":1754,"upport":1755,"Ġhel":1756,"Configuration":1757,"ia":1758,"iven":1759,"inx":1760,"exceptions":1761,"Ġfloat":1762,"plugin":1763,"cache":1764,"================":1765,"Ch":1766,"Ġmust":1767,"sche":1768,"task":1769,"Ġtrain":1770,"sd":1771,"node":1772,"CONF":1773,"raises":1774,"Ġitem":1775,"Logger":1776,"UN":1777,"Ġtarget":1778,"setup":1779,"Ġusing":1780,"Ġinter":1781,"Ġcollections":1782,"13":1783,"__)<":1784,"Ġinstance":1785,"Ġattribut":1786,"Ġdf":1787,"ions":1788,"Ġbool":1789,"Ġpo":1790,"Request":1791,"sens":1792,"ries":1793,"ical":1794,"ld":1795,"ĠHT":1796,"Ġfield":1797,"Ġvalid":1798,"0000":1799,"host":1800,"ĠSer":1801,"Ġpd":1802,"isted":1803,"99":1804,"ont":1805,"sign":1806,"adata":1807,"Un":1808,"Ġu":1809,"ĠAp":1810,"filter":1811,"move":1812,"its":1813,"Ġ--":1814,"ĠAPI":1815,"Dict":1816,"20":1817,"ĠImport":1818,"metaclass":1819,"fixture":1820,"Ġgener":1821,"lean":1822,"ader":1823,"IO":1824,"EST":1825,"201":1826,"ĠY":1827,"Ġone":1828,"'))<":1829,"agster":1830,"upy":1831,"ATE":1832,"Ent":1833,"Ġmatch":1834,"params":1835,"entries":1836,"copy":1837,"Ass":1838,"Ġ\\":1839,"tin":1840,"itive":1841,"ormal":1842,"Ġany":1843,"Ġ8":1844,"'t":1845,"(*":1846,"tribut":1847,"cord":1848,"cls":1849,"Ob":1850,"US":1851,"old":1852,"ca":1853,"color":1854,"arent":1855,"For":1856,"status":1857,"Ġannot":1858,"Response":1859,"ody":1860,"DI":1861,"tric":1862,"field":1863,"fg":1864,"argument":1865,"rest":1866,"Ġ!":1867,"root":1868,"Ġcredential":1869,"Ġ{}<":1870,"''":1871,"sl":1872,"Ġnumber":1873,"Ġiter":1874,"okeh":1875,"Ġnode":1876,"Ġmod":1877,"package":1878,"Ġimplement":1879,"34":1880,"Ġdevice":1881,"older":1882,"target":1883,"items":1884,"dtype":1885,"istry":1886,"ting":1887,"Ġworksheet":1888,"])":1889,"=[":1890,"Ġtemp":1891,"configuration":1892,"Ġevent":1893,"Ġmore":1894,"local":1895,"hinx":1896,"Ġcurrent":1897,"sys":1898,"pipeline":1899,"Ġparser":1900,"mission":1901,"except":1902,"15":1903,"omain":1904,"graph":1905,"ĠValueError":1906,"irect":1907,"plotlib":1908,"Ġmake":1909,"face":1910,"Ġstream":1911,"Ġinit":1912,"Not":1913,"zer":1914,">_":1915,"ĠReturn":1916,"LI":1917,"CE":1918,"Ġred":1919,"ĠĠĠĠĠĠĠĠĠĠĠĠĠĠĠĠĠĠĠĠĠĠĠĠ":1920,"lement":1921,"ĠPath":1922,"Name":1923,"Ġdataset":1924,"Auth":1925,"Token":1926,"mpty":1927,"link":1928,"ression":1929,"Key":1930,"FI":1931,"04":1932,"SD":1933,"Ġ\"\"":1934,"table":1935,"PO":1936,"Ġtr":1937,"gram":1938,"seq":1939,"series":1940,"stract":1941,"options":1942,"Ġnn":1943,"mote":1944,"ning":1945,"ESS":1946,"redict":1947,"hes":1948,"idget":1949,"let":1950,"very":1951,"block":1952,"length":1953,"top":1954,"ĠHome":1955,"cli":1956,"ci":1957,"Ġsetup":1958,"icode":1959,"ference":1960,"lif":1961,"(\"/":1962,"Ġmin":1963,"Ġ!=":1964,"learn":1965,"Ġback":1966,"cel":1967,"Ġter":1968,"helpers":1969,"]:<":1970,"lsx":1971,"ists":1972,"ipy":1973,"unk":1974,"03":1975,"Ġkwargs":1976,"Credential":1977,"Ġcommand":1978,"over":1979,"Ġannotations":1980,"Operations":1981,"stream":1982,"Ġ('":1983,"quires":1984,"aml":1985,"Ġexp":1986,"bot":1987,"ines":1988,"ink":1989,"quence":1990,"Writer":1991,"az":1992,"().__":1993,"Python":1994,"pass":1995,".,":1996,"tect":1997,"content":1998,"Ġplt":1999,"action":2000,"Ġaff":2001,"solute":2002,"conf":2003,"getLogger":2004,"err":2005,"Ġpackage":2006,"çļ":2007,"FAULT":2008,"çļĦ":2009,"ĠOpen":2010,"~~":2011,"ous":2012,"abs":2013,"unittest":2014,"ified":2015,"\":<":2016,"Ġ{'":2017,"Ġlabel":2018,"del":2019,"Ġ202":2020,"ox":2021,"title":2022,"Ġtf":2023,"arnings":2024,"web":2025,"ĠUnion":2026,"Ġgr":2027,">\"\"\"":2028,"gmt":2029,"yle":2030,"Ġtree":2031,".\")<":2032,"56":2033,"ĠFace":2034,"order":2035,"manager":2036,"ants":2037,"Ġarray":2038,"vide":2039,"ĠGNU":2040,"encode":2041,"errors":2042,"present":2043,"Object":2044,"ript":2045,"ANT":2046,"search":2047,"ild":2048,"Enum":2049,"upt":2050,"Ġcv":2051,"cho":2052,"19":2053,"abc":2054,"Assistant":2055,"ili":2056,"ility":2057,"Ġthread":2058,"ĠRes":2059,"ating":2060,"Ġact":2061,"idd":2062,"ailable":2063,"ersion":2064,"sdk":2065,"ĠMock":2066,"ĠFacebook":2067,"match":2068,"Ġbut":2069,"ĠDO":2070,"\"),<":2071,"Ġover":2072,"{}":2073,"ayload":2074,"ification":2075,"batch":2076,"ummy":2077,"Ġdistributed":2078,"igration":2079,"mode":2080,"ï¼":2081,"dev":2082,"gz":2083,"Mock":2084,"Ġgiven":2085,"Ġdescription":2086,"Ġexample":2087,"ĠCo":2088,"ĠSimType":2089,"14":2090,"50":2091,"Call":2092,"ernel":2093,"FF":2094,"Ġyour":2095,"Ġserver":2096,"ommand":2097,"KE":2098,"ne":2099,"amp":2100,"azure":2101,"clude":2102,"actor":2103,"Ġ200":2104,"uid":2105,"\"))<":2106,"Tensor":2107,"tar":2108,"ĠPar":2109,"eb":2110,"Class":2111,"step":2112,"ful":2113,"Frame":2114,"wrap":2115,"Ġentry":2116,"Meta":2117,"ixin":2118,"names":2119,"ĠHomeAssistant":2120,"ĠSo":2121,"Ġsubscription":2122,"auto":2123,"Parser":2124,").__":2125,"bug":2126,"inst":2127,"Ġaffili":2128,"Ġaffiliates":2129,"angu":2130,"Ġsoftware":2131,"axis":2132,"Def":2133,"anguage":2134,"tmp":2135,"ĠImportError":2136,"ĠEnum":2137,"Ġcl":2138,"ĠHttp":2139,"column":2140,"off":2141,"tests":2142,"An":2143,"Entry":2144,"tainer":2145,"Module":2146,"post":2147,"settings":2148,"Ġio":2149,"script":2150,"****":2151,"wh":2152,"bed":2153,"stack":2154,"uffer":2155,"Ġabsolute":2156,")):<":2157,"used":2158,"ene":2159,"ĠNot":2160,"tf":2161,"ayer":2162,"of":2163,"alled":2164,"ensions":2165,"etwork":2166,"skip":2167,"55":2168,"duct":2169,"::":2170,"channel":2171,"struct":2172,"exp":2173,"Ġparse":2174,"vc":2175,"Ġmsg":2176,"lobal":2177,"ources":2178,"temp":2179,"bl":2180,"rop":2181,"lete":2182,"Me":2183,"lines":2184,"register":2185,"width":2186,"unct":2187,"Return":2188,"Entity":2189,"Col":2190,"img":2191,"AGE":2192,"Info":2193,"rand":2194,"ative":2195,"Ġsome":2196,"transform":2197,"ITY":2198,").<":2199,"Ġign":2200,"prefix":2201,"Pl":2202,"part":2203,"current":2204,"Ġargparse":2205,"Ġhomepage":2206,"example":2207,"Te":2208,"ian":2209,"Ġyield":2210,"PL":2211,"Ġsettings":2212,"mod":2213,"ison":2214,"fl":2215,"Ġargument":2216,"User":2217,"msg":2218,"cc":2219,"Ġorder":2220,"Ġlocal":2221,"Ġtask":2222,"Ġag":2223,"Ġmatplotlib":2224,"23":2225,"Trans":2226,"Ġem":2227,"do":2228,"objects":2229,"18":2230,"100":2231,"itor":2232,"eatures":2233,"Run":2234,"Ġrow":2235,"session":2236,"Ġhe":2237,"trics":2238,"asic":2239,"Ġtoken":2240,"ATA":2241,"ĠReturns":2242,"MO":2243,"backends":2244,"78":2245,"Ġdiv":2246,"ĠImage":2247,"Tests":2248,"operations":2249,"std":2250,"gine":2251,"platform":2252,"header":2253,"arison":2254,"keys":2255,"ĠCall":2256,"Ġauth":2257,"Handler":2258,"ik":2259,"EX":2260,"Ġworkbook":2261,"DOMAIN":2262,"ids":2263,"onent":2264,"only":2265,"ten":2266,"igh":2267,"mgmt":2268,"rypt":2269,"Ġdif":2270,"Ġmain":2271,"bu":2272,"Management":2273,"ĠHTTP":2274,"ches":2275,"Ġvol":2276,"generator":2277,"Ġtensor":2278,"05":2279,"save":2280,"08":2281,"ĠType":2282,"Ġdoes":2283,"numpy":2284,"Ġinte":2285,"Ġlicensed":2286,"ĠAdd":2287,"sample":2288,"apping":2289,"ui":2290,"delta":2291,"ique":2292,"28":2293,"ĠTuple":2294,"char":2295,"Ġsample":2296,"ĠSoftware":2297,"Ġcreated":2298,"\"):<":2299,"expect":2300,"LS":2301,"Ġ{}":2302,"Ġmigrations":2303,"encies":2304,"VERSION":2305,"Ġ)":2306,"Ġq":2307,"Al":2308,"Ġenv":2309,"Ġsubprocess":2310,"hook":2311,"Ġmath":2312,"req":2313,"tensor":2314,"Ġfind":2315,"credentials":2316,"Ġfirst":2317,"imal":2318,"Int":2319,"connect":2320,"PAT":2321,"ply":2322,"author":2323,"Ġsign":2324,"Event":2325,"Ġ7":2326,"static":2327,"Ġav":2328,"Ġapi":2329,"idx":2330,"Ġtemplate":2331,"Ġoptions":2332,"][":2333,"ĠAzure":2334,"ĠsetUp":2335,"Ġrequests":2336,"uilder":2337,"ĠSet":2338,"Ġcontent":2339,"ipeline":2340,"cv":2341,"Ġhere":2342,"airseq":2343,"ordin":2344,"essage":2345,"Ġprocess":2346,"Fa":2347,"riv":2348,"ypot":2349,"ted":2350,"Ġeach":2351,"Ġcor":2352,"ET":2353,"license":2354,"Implement":2355,"IP":2356,"501":2357,"nown":2358,"sole":2359,"Ġobj":2360,"Ġencoding":2361,"ĠAsync":2362,"dat":2363,"Ġwrite":2364,"otal":2365,"ubli":2366,"IS":2367,"ĠStr":2368,"View":2369,"Ġinstall":2370,"environment":2371,"ACK":2372,"ollow":2373,"ell":2374,"fore":2375,"make":2376,"oundation":2377,"Ġwarnings":2378,"Ġdagster":2379,"String":2380,"aise":2381,"Ġtwisted":2382,"round":2383,"hesis":2384,"Ġresource":2385,"Ġparam":2386,"Ġcolor":2387,"mem":2388,"Ġinto":2389,"resh":2390,"ĠFor":2391,"Ġlogger":2392,"ĠWork":2393,"Ġbatch":2394,"gle":2395,"Ext":2396,"aces":2397,"png":2398,"ManagementClient":2399,"bytes":2400,"=(":2401,"ron":2402,"ĠDOMAIN":2403,"Ġresults":2404,"umns":2405,"Ġflow":2406,"show":2407,"Ġfl":2408,"ĠFree":2409,"Ġwrap":2410,"other":2411,"lsxWriter":2412,"21":2413,"sha":2414,"Ġcls":2415,"decode":2416,"It":2417,"Ġpos":2418,"KEY":2419,"ypothesis":2420,"pat":2421,"ĠBSD":2422,"ead":2423,"can":2424,"ences":2425,"template":2426,"ĠXlsxWriter":2427,">]<":2428,"compat":2429,"Ġattribute":2430,"mask":2431,"unter":2432,"INT":2433,"Service":2434,"iler":2435,"Ġwhile":2436,"orted":2437,"lip":2438,"Ġplatform":2439,"Ġhelp":2440,"ank":2441,"docs":2442,"24":2443,"Stat":2444,"ariables":2445,"ency":2446,"Path":2447,"Ġtm":2448,"ector":2449,"ractor":2450,"now":2451,"ger":2452,"ators":2453,"unctools":2454,"Node":2455,"CON":2456,"Ġfilename":2457,"åı":2458,"ternal":2459,"cle":2460,"Ġelif":2461,"iled":2462,"33":2463,"indows":2464,"dist":2465,"ias":2466,"Id":2467,"Ġmode":2468,"way":2469,"ART":2470,"git":2471,"ializer":2472,"ĠCol":2473,"ĠUR":2474,"Mixin":2475,"Ġ9":2476,"ultip":2477,"resource":2478,"Policy":2479,"Ġsk":2480,"Ġ\"<":2481,"ttribut":2482,"ĠConfiguration":2483,"ined":2484,"inition":2485,"Ġterms":2486,"wit":2487,"TYPE":2488,"blob":2489,"Ġ\"/":2490,"Ġwithout":2491,"sensitive":2492,"Ġneed":2493,"Ġ100":2494,"pop":2495,"\"),":2496,"ĠIt":2497,"Ġdist":2498,"Ġgre":2499,"queue":2500,"xx":2501,"kens":2502,"icon":2503,"enter":2504,"06":2505,"State":2506,"Ġimg":2507,"Ġgroup":2508,"\\\\":2509,"Ġauto":2510,"Ġwas":2511,"Ġenum":2512,"ze":2513,"ara":2514,"Index":2515,"SI":2516,"dirname":2517,"stamp":2518,"17":2519,"vider":2520,"lector":2521,"Ġdim":2522,"PATH":2523,"loss":2524,"ton":2525,"Ġserial":2526,"Time":2527,"ux":2528,"gor":2529,"'):<":2530,"Pre":2531,"Ġinfo":2532,"sco":2533,"Get":2534,"Ġrequires":2535,"comple":2536,"\"},<":2537,"Ġfunctions":2538,"#<":2539,"86":2540,"Ġbokeh":2541,"ume":2542,"ven":2543,"ORT":2544,"Ġallow":2545,"gorith":2546,"ICE":2547,"store":2548,"Manager":2549,"Ġsche":2550,"Ġquery":2551,"URL":2552,"fe":2553,"ĠST":2554,"=('":2555,")]<":2556,"lambda":2557,"change":2558,"ĠArgs":2559,"orld":2560,"pk":2561,"ived":2562,"ĠUser":2563,"Ġval":2564,"TO":2565,"find":2566,"vars":2567,"ins":2568,"system":2569,"abled":2570,"plic":2571,"cat":2572,"Ġparameters":2573,"ownload":2574,"Copyright":2575,"uster":2576,"integ":2577,"parame":2578,"inary":2579,"'.":2580,"Ġunicode":2581,"Ġscipy":2582,"support":2583,"Ġaction":2584,"pol":2585,"Ġrequired":2586,"ĠAN":2587,"ĠIter":2588,"ĠTo":2589,"Ġlibrary":2590,"Ġqu":2591,"SA":2592,"Ġasyncio":2593,"ecute":2594,"Ġdivision":2595,"Ġfunctools":2596,"Ġfilter":2597,"password":2598,"pert":2599,"ERV":2600,"callback":2601,"ionary":2602,"Ġad":2603,"ĠKey":2604,"replace":2605,"Dataset":2606,"leep":2607,"Gener":2608,"Ġgraph":2609,"Ġoper":2610,"Ġchart":2611,"ingle":2612,"Result":2613,"Ġver":2614,"Ġimp":2615,"Ġcache":2616,"custom":2617,"ular":2618,"body":2619,"ped":2620,"07":2621,"lied":2622,"perties":2623,"pha":2624,"Ġshape":2625,"parent":2626,"uction":2627,"Ġfollow":2628,"fs":2629,"send":2630,"SS":2631,"Text":2632,"Ġservice":2633,"rl":2634,"cfg":2635,"trize":2636,"Insensitive":2637,"arr":2638,"Ġfunc":2639,"Ġupdate":2640,";<":2641,"Ġutils":2642,"uccess":2643,"Ġop":2644,"ason":2645,"plugins":2646,"job":2647,"(-":2648,"ph":2649,"yaml":2650,"FOR":2651,"exit":2652,"olicies":2653,"lid":2654,"parametrize":2655,"Ġheaders":2656,"aly":2657,"Ġweb":2658,"ATION":2659,"`<":2660,"schema":2661,"socket":2662,"Cl":2663,"ched":2664,"Ġgrr":2665,"vision":2666,"Ġaut":2667,"tuple":2668,"æķ":2669,"ffect":2670,"Ġstats":2671,"ecution":2672,"Ġdat":2673,"rder":2674,"registry":2675,"Ġtransform":2676,"09":2677,"ultiple":2678,"storage":2679,"EnumMeta":2680,"Code":2681,"Ġsix":2682,"InsensitiveEnumMeta":2683,"'),<":2684,"27":2685,"remote":2686,"amara":2687,"Ġsee":2688,"Ġfig":2689,"ĠCallable":2690,"Ġpr":2691,"DEFAULT":2692,"Ġrece":2693,"Ġind":2694,"quire":2695,"valu":2696,"Ġsend":2697,"ĠDE":2698,"={\"":2699,"åĪ":2700,"Ġpat":2701,"ickle":2702,"uch":2703,"Ġattr":2704,"Ġshow":2705,"ymb":2706,"\").":2707,"Ġexception":2708,"\"],":2709,"heet":2710,"last":2711,"ower":2712,"Ġerr":2713,"fn":2714,"Ġtesting":2715,"Th":2716,"vid":2717,"},":2718,"prec":2719,"trol":2720,"Ġsame":2721,"Ġtuple":2722,"andard":2723,"Ġoff":2724,"case":2725,"orn":2726,"lags":2727,"troll":2728,"ï¼Į":2729,"Ġchar":2730,"DIR":2731,"Ġsimple":2732,"Stream":2733,"utput":2734,"acy":2735,"folder":2736,"Val":2737,"Ġport":2738,"Ġpoint":2739,"exists":2740,"Ġtable":2741,"Ġblock":2742,"Add":2743,"TH":2744,"ĠAuth":2745,"address":2746,"ĠGenerated":2747,"itional":2748,"ferent":2749,"rel":2750,"################################################################":2751,"Ġ''":2752,"Raise":2753,">}<":2754,"logging":2755,"uite":2756,"Ġcase":2757,"strip":2758,"handler":2759,"light":2760,"board":2761,"ride":2762,"ampl":2763,"connection":2764,"Ġpage":2765,"Callback":2766,"ĠĠĠĠĠĠĠĠĠĠĠĠĠĠĠĠĠĠĠĠĠĠĠĠĠĠĠĠĠĠĠĠ":2767,"rivate":2768,"like":2769,"Ġsum":2770,"Ġorig":2771,"DATA":2772,"ASS":2773,"tw":2774,"AG":2775,"ble":2776,"Ġhash":2777,"gen":2778,"ym":2779,"loud":2780,"Ġpathlib":2781,"Ġmy":2782,"Ġconvert":2783,"unused":2784,"yper":2785,"----<":2786,"Ġscript":2787,"Ġprefix":2788,"LOG":2789,"Implemented":2790,"uda":2791,"uri":2792,"number":2793,"DB":2794,"but":2795,"TEST":2796,"Ġignore":2797,"Ġnon":2798,"ĠPl":2799,"mean":2800,"plt":2801,"username":2802,"Hel":2803,"PP":2804,"go":2805,"fter":2806,"Ġconfiguration":2807,"Ġzer":2808,"::<":2809,"Ġhost":2810,")))<":2811,"Ġbytes":2812,"ĠURL":2813,"Value":2814,"ä»":2815,"debug":2816,"36":2817,"sets":2818,"Ġstep":2819,"Ġdependencies":2820,"Ġlambda":2821,"Ġfull":2822,"\"],<":2823,"Ġconnection":2824,"oogle":2825,"200":2826,"Ġtypes":2827,"26":2828,"Ġtitle":2829,"Ġword":2830,"datetime":2831,"Ġloc":2832,"Ġfree":2833,"Ġconst":2834,"optim":2835,"ling":2836,"witch":2837,"EL":2838,"Ġ):<":2839,"Command":2840,"æķ°":2841,"Ġcustom":2842,"Check":2843,"ĠModel":2844,"expectations":2845,"dump":2846,"gument":2847,"modules":2848,"ĠString":2849,"Ġcupy":2850,"thread":2851,"nder":2852,"vis":2853,"wer":2854,"Ġplot":2855,"Ġ32":2856,"worksheet":2857,"Ġ\".":2858,"Ġcount":2859,"Ġframe":2860,"gex":2861,"loy":2862,"download":2863,"Ġcommon":2864,"Ġconans":2865,"classes":2866,"Group":2867,"Ġlength":2868,"Ġident":2869,"Ġsocket":2870,"ĠVERSION":2871,"esc":2872,"Reg":2873,"44":2874,"ĠWAR":2875,"Ġ>=":2876,"has":2877,"ping":2878,"processing":2879,"tag":2880,"rt":2881,"entities":2882,"poch":2883,"afe":2884,"Ġins":2885,"left":2886,"real":2887,"trib":2888,"ĠDjango":2889,"ush":2890,"cmd":2891,"Ġpubli":2892,"QU":2893,"document":2894,"liter":2895,"Qu":2896,"Ġurllib":2897,"Ġtempfile":2898,"Context":2899,"CaseInsensitiveEnumMeta":2900,"ose":2901,"ordinator":2902,"Ġed":2903,"style":2904,"Ġstatus":2905,"entication":2906,"Ġutil":2907,"AY":2908,"hash":2909,"none":2910,"__()<":2911,"handle":2912,"Ġfa":2913,"ilter":2914,"win":2915,"shed":2916,"ution":2917,"######":2918,"':<":2919,"Ġxp":2920,"ba":2921,"repr":2922,"resources":2923,"ugh":2924,"Ġerrors":2925,"(?":2926,"AM":2927,"37":2928,"Ġhtml":2929,"Ġstruct":2930,"math":2931,"words":2932,"29":2933,"FILE":2934,"river":2935,"Ġtwo":2936,"Ġthreading":2937,"long":2938,"Protocol":2939,"ĠNote":2940,"Ġplugin":2941,"csv":2942,"Ġshutil":2943,"metadata":2944,"ĠFile":2945,"ĠName":2946,"Image":2947,"medi":2948,"ved":2949,"Ġans":2950,"Item":2951,"ImplementedError":2952,"ĠDef":2953,"ocument":2954,"ĠTO":2955,"ivy":2956,"xml":2957,"ORD":2958,"mental":2959,")[":2960,"CC":2961,"gorithm":2962,"fields":2963,"Ġrepresent":2964,"Ġ\"__":2965,"Resource":2966,"results":2967,"wise":2968,"STR":2969,"uptools":2970,"Ġsystem":2971,"Ġcallback":2972,"ored":2973,"RES":2974,"Ġaxis":2975,"Ġlike":2976,"Ġtmp":2977,"scale":2978,"ategor":2979,"ade":2980,"alle":2981,"You":2982,"mail":2983,"serialization":2984,"ds":2985,"pc":2986,"Ġdb":2987,"ĠSp":2988,"licenses":2989,"CR":2990,"src":2991,"Ġret":2992,"Raises":2993,"Line":2994,"Ġmodify":2995,"zip":2996,"description":2997,"'''<":2998,"domain":2999,"encoding":3000,"Ġaccess":3001,"Ġhandle":3002,"Ġ20":3003,"limit":3004,"directory":3005,"verse":3006,"ĠException":3007,"install":3008,"uce":3009,"Ġå":3010,"[:,":3011,"normal":3012,"her":3013,"oint":3014,"ĠAR":3015,"Ġ--------":3016,"ĠĠĠĠĠĠĠĠĠĠĠĠĠĠĠĠĠĠĠĠĠĠĠ":3017,"ĠID":3018,"Ġnames":3019,"Ġalso":3020,"Ġmethods":3021,"Ġsent":3022,"88":3023,"`.<":3024,"HTTP":3025,"Ġcompat":3026,"Ġcomple":3027,"Ġmulti":3028,"Ġfast":3029,"dif":3030,"vided":3031,"openapi":3032,"conv":3033,"TokenCredential":3034,"empty":3035,"Server":3036,"aa":3037,"Ġmsrest":3038,"Ġbet":3039,"factory":3040,"ĠWe":3041,"lai":3042,"ross":3043,"abspath":3044,"cn":3045,"compile":3046,"Ġtool":3047,"__(<":3048,"Ġwrit":3049,"USER":3050,"ait":3051,"ĠANY":3052,"Ġ),<":3053,"conds":3054,"cret":3055,"ĠNo":3056,"Ġsql":3057,"iod":3058,"Ġform":3059,"ĠConfigEntry":3060,"Ġref":3061,"\"{":3062,"TI":3063,"WS":3064,"30":3065,"ECT":3066,"proxy":3067,"(**":3068,"sql":3069,"[-":3070,"ĠZ":3071,"ialize":3072,"active":3073,">)":3074,"eded":3075,"stractmethod":3076,"Plugin":3077,"literals":3078,"remove":3079,"assertTrue":3080,"assertRaises":3081,"Ġuseful":3082,"bb":3083,"ĠTh":3084,"Ġcore":3085,"uiltin":3086,"Ġnext":3087,"Ġdifferent":3088,"Ġoptim":3089,"Transform":3090,"erge":3091,"Ġses":3092,"Ġgenerate":3093,"Http":3094,"Is":3095,"contrib":3096,"GER":3097,"MS":3098,"Ġwidth":3099,"matrix":3100,"END":3101,"tree":3102,"Ġitertools":3103,".\"<":3104,"Ġ'''<":3105,"Ġsession":3106,"rid":3107,"ĠCheck":3108,"22":3109,"Ġ&":3110,"classmethod":3111,"__<":3112,"ariant":3113,"lative":3114,"/<":3115,"ready":3116,"grad":3117,"Ġafter":3118,"ured":3119,"Ġattributes":3120,"SON":3121,"66":3122,"loop":3123,"Ġstd":3124,"rank":3125,"gment":3126,"thing":3127,"Ġloss":3128,"Ġmet":3129,"paths":3130,"URE":3131,"master":3132,"chart":3133,"dm":3134,"Ġhand":3135,"75":3136,"OL":3137,"CA":3138,"Ġexist":3139,"ween":3140,"Array":3141,"Factory":3142,"imports":3143,"Ġavailable":3144,"]]":3145,"non":3146,"fail":3147,"ĠRun":3148,"depend":3149,"insert":3150,"Ġoperations":3151,"layers":3152,"ValueError":3153,"labels":3154,"Ġsl":3155,"Ġ'.":3156,"keep":3157,"ĠExcel":3158,"email":3159,"ayout":3160,"Ġfields":3161,"Ac":3162,"first":3163,"missions":3164,"Ġ12":3165,"Ġarguments":3166,"35":3167,"fd":3168,"location":3169,"ĠNotImplementedError":3170,"Ġthen":3171,"Ġimplementation":3172,"Connection":3173,"iddle":3174,"udio":3175,"ater":3176,"Ġmask":3177,"olution":3178,"ttribute":3179,"Ġpublished":3180,"Clause":3181,"Ġdocumentation":3182,"ĠVersion":3183,"æľ":3184,"edDict":3185,"Flow":3186,"ymbol":3187,"see":3188,"migrations":3189,"sphinx":3190,"etch":3191,"ench":3192,"layout":3193,"sg":3194,"access":3195,"Ġintegr":3196,"Ġfairseq":3197,"mpt":3198,"less":3199,"=[\"":3200,"Ġparams":3201,"RANT":3202,"lp":3203,"Ġmem":3204,"cuda":3205,"ĠText":3206,"Ġdir":3207,"Ġprovided":3208,"management":3209,"attribute":3210,"mary":3211,"Ġchange":3212,"intern":3213,"ĠĠĠĠĠĠĠĠĠ":3214,"aut":3215,"next":3216,"stop":3217,"Ġbot":3218,"Message":3219,"Sp":3220,"Ġentity":3221,"ĠAnd":3222,"Ġobjects":3223,"Ġconnect":3224,"Ġeven":3225,"Version":3226,"Sheet":3227,"ĠTrans":3228,"posit":3229,"layer":3230,"Qt":3231,"}\"<":3232,"TION":3233,"sv":3234,"########################################################################":3235,"itions":3236,"Ġta":3237,"ĠWorkbook":3238,"multi":3239,"datasets":3240,"ters":3241,"Ġcodecs":3242,"ĠWARRANT":3243,"({'":3244,"sm":3245,"ITHO":3246,"ITHOUT":3247,"Ġskip":3248,"agic":3249,"Ġpassword":3250,"Log":3251,"ixed":3252,"Ġcolumn":3253,"Ġbased":3254,"77":3255,"pth":3256,"points":3257,"ssible":3258,"starts":3259,"Status":3260,"ances":3261,"Env":3262,"ABLE":3263,"Le":3264,"home":3265,"Ġbefore":3266,"addr":3267,"zone":3268,"ĉĉ":3269,"Ġge":3270,"covery":3271,"ĠAT":3272,"Ġprovide":3273,"ATTR":3274,"ĠExample":3275,"Ġlevel":3276,"istribution":3277,"\"}<":3278,"bool":3279,"'])<":3280,"Ġpadd":3281,"VAL":3282,"Ġimplied":3283,"cd":3284,"wd":3285,"Ġgit":3286,"ability":3287,"pository":3288,"pdf":3289,"ee":3290,"hell":3291,"payload":3292,"Ġlast":3293,"gb":3294,"kit":3295,"Ġtri":3296,"Ġdetect":3297,"lower":3298,"Azure":3299,"true":3300,"embed":3301,"ategory":3302,"gress":3303,"hello":3304,"ĠFoundation":3305,"Ġcontin":3306,"delete":3307,"idden":3308,"gre":3309,"ĠLo":3310,"Ġcontains":3311,"TE":3312,"reak":3313,"Ġpip":3314,"Ġpredict":3315,"Ġdvc":3316,"ulate":3317,"ĠOrder":3318,"Ġregister":3319,"Make":3320,"çĶ":3321,"serve":3322,"features":3323,"QL":3324,"../":3325,"SU":3326,"ĠComp":3327,"Ġprogram":3328,"istribute":3329,"PRO":3330,"Source":3331,"cent":3332,"ĠTime":3333,"Ġlanguage":3334,"Spec":3335,"tx":3336,"Ġmo":3337,"~~~~":3338,"\\.":3339,"argv":3340,"DF":3341,"39":3342,"convert":3343,"Ġwhere":3344,"aded":3345,"Ġagain":3346,"Sub":3347,"fit":3348,"lex":3349,"ĠInt":3350,"Ġsearch":3351,"predict":3352,"Function":3353,"ession":3354,"expected":3355,"ĠMA":3356,"}\")<":3357,"tax":3358,"Inter":3359,"Ġtimedelta":3360,"Ġsingle":3361,"ĠYou":3362,"ĠMat":3363,">):<":3364,"tags":3365,"Comparison":3366,"ration":3367,"Ġenvironment":3368,"ocab":3369,"Encoder":3370,"spe":3371,"Ġ16":3372,"Ġkeys":3373,"stats":3374,"oh":3375,"account":3376,"rapy":3377,"Ġsm":3378,"ither":3379,"Migration":3380,"38":3381,"ient":3382,"sensor":3383,"les":3384,"Ġ<=":3385,"([\"":3386,"Ġhow":3387,"profile":3388,"Ġparent":3389,"ĠEn":3390,"({\"":3391,"arange":3392,"Ġparlai":3393,"bers":3394,"fc":3395,"child":3396,"product":3397,"uffix":3398,"attributes":3399,"sleep":3400,"SET":3401,"startswith":3402,"select":3403,"radi":3404,"imum":3405,"application":3406,"til":3407,"Ġwant":3408,"BU":3409,"ope":3410,"enum":3411,"ĠApache":3412,"validation":3413,"buf":3414,"helper":3415,"Ġraw":3416,"metrics":3417,"weight":3418,"Ġchannel":3419,"render":3420,"Ġparameter":3421,"ually":3422,"Api":3423,"cr":3424,"buffer":3425,"ynam":3426,"54":3427,"sn":3428,"internal":3429,"uber":3430,"ComparisonTest":3431,"pyplot":3432,"Parameter":3433,"Ġdel":3434,"ĠATTR":3435,"Ġfollowing":3436,"repo":3437,"Per":3438,"Ġ$":3439,"Format":3440,"Ġ\\<":3441,"release":3442,"olve":3443,"ĠMy":3444,"Ġview":3445,"pool":3446,"allel":3447,"ives":3448,"Var":3449,"Ġcalled":3450,"Ġclasses":3451,"ĠDefault":3452,"cast":3453,"Ġmm":3454,"events":3455,"ĠBokeh":3456,"Ġkernel":3457,"]))<":3458,"åħ":3459,":',":3460,"bit":3461,"Ġhandler":3462,"uble":3463,"packages":3464,"record":3465,"chema":3466,"transl":3467,"'),":3468,"Ġdomain":3469,"ĠNOT":3470,"Ġreceived":3471,"ucket":3472,"loader":3473,"Loader":3474,"iss":3475,"ĠTe":3476,"grid":3477,"Ġredistribute":3478,"Process":3479,"ASE":3480,"element":3481,"pg":3482,"ĠMe":3483,"ĠHttpRequest":3484,"}}":3485,"Ġfoo":3486,"achine":3487,"ĠDataFrame":3488,"verage":3489,"ĠMigration":3490,"derr":3491,"ĠEvent":3492,"curs":3493,"called":3494,"Ġvar":3495,"serializer":3496,"container":3497,"SO":3498,"CONFIG":3499,"Ġes":3500,"Extractor":3501,"Ġrel":3502,"qdm":3503,"rior":3504,"ideo":3505,"76":3506,"alc":3507,"Ġgreat":3508,"VE":3509,"Ġnormal":3510,"login":3511,"ear":3512,"na":3513,"pb":3514,"(),<":3515,"NOT":3516,"PythonPackage":3517,"sim":3518,"ically":3519,"tom":3520,"Ġgetattr":3521,"rule":3522,"uous":3523,"timeout":3524,"ĠUse":3525,"Ġfail":3526,"INE":3527,"HE":3528,"arm":3529,"Input":3530,"grouped":3531,"staticmethod":3532,"Ġ\"\"<":3533,"FO":3534,"rate":3535,"Ġvalidate":3536,"seed":3537,"PR":3538,"pu":3539,"Ġmodules":3540,"Ġintegration":3541,"some":3542,"ndarray":3543,"netes":3544,"ubernetes":3545,"Sh":3546,"Ġreturns":3547,"backend":3548,"App":3549,"79":3550,"solid":3551,"Ġ2020":3552,"Ġglob":3553,"Ġdownload":3554,"Ġmark":3555,"protocol":3556,"...":3557,"__(**":3558,"Ġconf":3559,"ivar":3560,"********":3561,"ender":3562,"norm":3563,"Ġlines":3564,"ĠTests":3565,"Ġsave":3566,"proto":3567,"48":3568,"è¯":3569,"Ġcomponents":3570,"Ġselect":3571,"59":3572,"istory":3573,"Ġspecific":3574,"invalid":3575,"Ġtraining":3576,"Ġbetween":3577,"Filter":3578,"ĠAl":3579,"available":3580,"offset":3581,"Ġmon":3582,"SH":3583,"framework":3584,"#######<":3585,"Warning":3586,"pes":3587,"Ġdev":3588,"Ġdisplay":3589,"VER":3590,"Ġdirect":3591,"enchmark":3592,"æĺ":3593,"Ġrender":3594,"Ġcontextlib":3595,"Ġmetadata":3596,"ĠMulti":3597,"Ġcert":3598,"Ġ-------------------------------------------------------------------------<":3599,"è¿":3600,"åĲ":3601,"Ġinclude":3602,"ĠIterable":3603,"CL":3604,"fr":3605,"ĠExt":3606,"MER":3607,"ier":3608,"stdout":3609,"Ġthan":3610,"Widget":3611,"memory":3612,"Dis":3613,"Ġnetwork":3614,"most":3615,"Ġcontinue":3616,"option":3617,"ĠClient":3618,"ĠWITHOUT":3619,"images":3620,"'})<":3621,"ZE":3622,"mar":3623,"ploy":3624,"Ġencode":3625,"Ġmatrix":3626,"ensure":3627,"dot":3628,"orig":3629,"Ġoption":3630,"ĠHTML":3631,"apt":3632,"sort":3633,"pose":3634,"Ġpop":3635,"Ġbl":3636,"ungrouped":3637,"Ġthese":3638,"aved":3639,"'],":3640,"Async":3641,"---<":3642,"lu":3643,"ä½":3644,"controll":3645,"sched":3646,"engine":3647,"ones":3648,"With":3649,"Ġbox":3650,"Ġsens":3651,"Back":3652,"cb":3653,"ĠTODO":3654,"Ġforward":3655,"sig":3656,"MODE":3657,"leg":3658,"ãĢ":3659,"columns":3660,"pred":3661,"allen":3662,"ĠĠĠĠĠĠĠĠĠĠĠĠĠĠĠĠĠĠĠĠĠĠĠĠĠĠĠ":3663,"Ġglobal":3664,"Ġheight":3665,"Ġ----------<":3666,"ĠFOR":3667,"Ġzip":3668,"iddleware":3669,">`":3670,"una":3671,"UTH":3672,"Ġrest":3673,"Ġstatsmodels":3674,"Ġ15":3675,"irt":3676,"Ġidx":3677,"Ġlabels":3678,"ish":3679,"umber":3680,"zeros":3681,"erate":3682,"aceback":3683,"42":3684,"sk":3685,"metric":3686,"signal":3687,"GI":3688,"struction":3689,"ai":3690,"izers":3691,"report":3692,"Ġpayload":3693,"Ġdt":3694,"Ġnamed":3695,"component":3696,"subscription":3697,"rec":3698,"nan":3699,"users":3700,"ĠDEFAULT":3701,"Ġlink":3702,"Ġtrue":3703,"cogn":3704,"Net":3705,"Ġinitial":3706,"Desc":3707,"duc":3708,"Ġempty":3709,"Ġvis":3710,"äº":3711,"Ġrunning":3712,"services":3713,"ranch":3714,"Ġlong":3715,"channels":3716,"WORD":3717,"ores":3718,"day":3719,"Ġimports":3720,"trial":3721,"Ġtag":3722,"Ġfigure":3723,"NESS":3724,"ĠParameters":3725,"Ġright":3726,"\"][\"":3727,"ĠOpenAPI":3728,"GB":3729,"No":3730,"Tree":3731,"uler":3732,"Ġeither":3733,"ORS":3734,"cipe":3735,"zy":3736,"obs":3737,"49":3738,"Ġsorted":3739,"gent":3740,"Ġgo":3741,"network":3742,"Ġ},<":3743,"Ġremove":3744,"æĸ":3745,"ĠĠĠĠĠĠĠĠĠĠ":3746,"Init":3747,"ĠApp":3748,"By":3749,"Ġclean":3750,"asset":3751,"rag":3752,"Ġtimeout":3753,"Ġ2012":3754,"ĠResource":3755,"abstractmethod":3756,"Dummy":3757,"remental":3758,"ĠPer":3759,"Ġdec":3760,"NO":3761,"ohn":3762,"side":3763,"ippe":3764,"Definition":3765,"ef":3766,"loor":3767,"ift":3768,"issing":3769,"allenge":3770,"Sc":3771,"Create":3772,"feature":3773,"irtual":3774,"/\"<":3775,"Ġpickle":3776,"validate":3777,"Ġextensions":3778,"ops":3779,"Ġsim":3780,"LICENSE":3781,"execut":3782,"Ġunique":3783,"Ġschema":3784,"ulation":3785,"udy":3786,"tents":3787,"states":3788,"Ġbeen":3789,"58":3790,"success":3791,"Ġspecified":3792,"Ġendpoint":3793,"oid":3794,"simple":3795,"Ġsplit":3796,"ĠCreate":3797,"HOST":3798,"bind":3799,"uter":3800,"Ġrecord":3801,"tokens":3802,"vas":3803,"tech":3804,"Ġbar":3805,"Output":3806,"ves":3807,"window":3808,"ateway":3809,"hed":3810,"ĠQt":3811,"OUT":3812,"rough":3813,"Ġaddress":3814,"tasks":3815,"Ġ~":3816,"Ġdefined":3817,"401":3818,"termin":3819,"Char":3820,"fu":3821,"constants":3822,"Ġsklearn":3823,"lr":3824,"mun":3825,"got":3826,"trie":3827,"Ġvariables":3828,"ced":3829,"Ġthem":3830,"ĠRE":3831,"lick":3832,"Found":3833,"Ġresp":3834,"yntax":3835,"Task":3836,"ĠTensor":3837,"ĠPART":3838,"ĠGet":3839,"ILITY":3840,"As":3841,"Ġ'=":3842,"POSE":3843,"estim":3844,"TER":3845,"Ġfin":3846,"nodes":3847,"timestamp":3848,"bound":3849,"Valid":3850,"Ġcap":3851,"Ġnow":3852,"Ġlayer":3853,"Ġ2017":3854,"Work":3855,"done":3856,"allow":3857,"any":3858,"ĠHttpResponse":3859,"Ġoriginal":3860,"Ġpost":3861,"writ":3862,"tributors":3863,"agicMock":3864,"lim":3865,"MPL":3866,"###############################################################################<":3867,"PY":3868,"chemy":3869,"allclose":3870,"ialog":3871,"ĠToken":3872,"Ġthere":3873,"TIME":3874,"inv":3875,"hether":3876,"Ġrelease":3877,"Ġ\"_":3878,"Ġsupported":3879,"Ġ\"--":3880,"ueue":3881,"Ġscale":3882,"sources":3883,"ampler":3884,"dig":3885,"flags":3886,"ĠInvalid":3887,"Ġagainst":3888,"generated":3889,"Layer":3890,"ĠModule":3891,"Ġmap":3892,"ker":3893,"ĠCommand":3894,"pytorch":3895,"ABILITY":3896,"Table":3897,"archive":3898,"rows":3899,"Ġlook":3900,"{}\".":3901,"TypeError":3902,"ĠColumn":3903,"]]<":3904,"tra":3905,"acket":3906,"Ġkivy":3907,"help":3908,"Ġpaths":3909,"Ġheader":3910,"lements":3911,"unique":3912,"Ġbody":3913,"cell":3914,"Ġrdf":3915,"Ġoptional":3916,"iancho":3917,"è®":3918,"mpro":3919,"DEV":3920,"ULAR":3921,"Storage":3922,"ategy":3923,"ĠAndres":3924,"mac":3925,"ĠRiancho":3926,"Ġreport":3927,"Reader":3928,"Ġet":3929,"ily":3930,"Argument":3931,"django":3932,"Ġmultiple":3933,"Ġbinary":3934,"ĠAs":3935,"cpan":3936,"FORM":3937,"tz":3938,"shared":3939,"dc":3940,"Ġhigh":3941,"Hello":3942,"ĠWARRANTY":3943,"CP":3944,"precated":3945,">================":3946,"Ġtotal":3947,"45":3948,"GR":3949,"js":3950,"Ġcond":3951,"Ġcfg":3952,"Ġcmd":3953,"Ġhope":3954,"Ġkeep":3955,"Ġextra":3956,"eval":3957,"typ":3958,"URPOSE":3959,"disable":3960,"scopes":3961,"Mode":3962,"policy":3963,"Ġ.<":3964,"Map":3965,"clean":3966,"ole":3967,"å¤":3968,"Ġbreak":3969,"ĠFIT":3970,"Serializer":3971,"Ġitems":3972,"GET":3973,"See":3974,"Ġemail":3975,"ĠSub":3976,"parameters":3977,"azy":3978,"Ġprotocol":3979,"Ġapplication":3980,"Handle":3981,"ures":3982,"oolean":3983,"Schema":3984,"annot":3985,"ĠDis":3986,"ĠRequest":3987,"Ġcontainer":3988,"Loc":3989,"decor":3990,"Ġwarr":3991,"Ġstyle":3992,"illa":3993,"mplates":3994,"Update":3995,"Ġwarrant":3996,"PRE":3997,"hub":3998,"Ġpk":3999,"Ġstore":4000,"46":4001,"80":4002,"epoch":4003,"required":4004,"DataFrame":4005,"Series":4006,"ĠPARTIC":4007,">..":4008,"urls":4009,"card":4010,"Ġwarranty":4011,"CHANT":4012,"bose":4013,"une":4014,"ĠPURPOSE":4015,"!$":4016,"Ġclose":4017,"assed":4018,"ech":4019,"amer":4020,"score":4021,"pip":4022,"ĠFITNESS":4023,"CHANTABILITY":4024,"Invalid":4025,"Ġneeded":4026,"kernel":4027,"alys":4028,"Ġuuid":4029,"known":4030,"ç»":4031,"binary":4032,"acter":4033,"ĠPARTICULAR":4034,"basic":4035,"arge":4036,"Device":4037,"tty":4038,"COL":4039,"ĠOrderedDict":4040,"examples":4041,"tains":4042,"Ġtags":4043,"æį":4044,"Ġreason":4045,"ĠIN":4046,"counter":4047,"]+":4048,"perim":4049,"activ":4050,"UM":4051,"URCE":4052,"ĠStringIO":4053,"bc":4054,"imer":4055,"__\":<":4056,"ja":4057,"Ġleft":4058,"alysis":4059,"PORT":4060,"ested":4061,"OS":4062,"Ġspe":4063,":$":4064,"ĠSequence":4065,"ibility":4066,"Ġlimit":4067,".*":4068,"UE":4069,"ĠDocument":4070,"Ġdictionary":4071,"LOGGER":4072,"çĶ¨":4073,"gt":4074,"section":4075,"Ġalpha":4076,"ĠJohn":4077,"factor":4078,"Ġenumerate":4079,"Ġelement":4080,"Ġ2021":4081,"Ġpattern":4082,"GNU":4083,"effect":4084,"height":4085,"Ġpossible":4086,"full":4087,"sup":4088,"display":4089,"cpu":4090,"Ad":4091,"ince":4092,"Ġold":4093,"Decoder":4094,"dated":4095,"Ġfeature":4096,"Ġaccount":4097,"oot":4098,"chunk":4099,"olver":4100,"Inc":4101,"database":4102,"Ġtqdm":4103,"Ġdecode":4104,"ITE":4105,"Dep":4106,"fill":4107,"ĠSeries":4108,"ebook":4109,"åĽ":4110,"/{":4111,"nb":4112,"ĠMc":4113,"=<":4114,"Ġfix":4115,"On":4116,"mut":4117,"sec":4118,"CS":4119,"Long":4120,"uuid":4121,"processor":4122,"Ġcast":4123,"click":4124,"ĠARM":4125,"Ġdefaultdict":4126,"velop":4127,"ĠCON":4128,"Ġobtain":4129,"\"].":4130,"Ġimages":4131,"transport":4132,"aint":4133,"widget":4134,"Ġjust":4135,"cii":4136,"pkg":4137,"rllib":4138,"Ġmean":4139,"imp":4140,"zen":4141,"98":4142,"Ġoperator":4143,"Ġdon":4144,"condition":4145,"Ġyaml":4146,"Action":4147,"Ġinstead":4148,"encoder":4149,"MAX":4150,"Ġsignal":4151,"ERVICE":4152,"Ġfinal":4153,"ely":4154,"æĪ":4155,"Ġfeatures":4156,"ulated":4157,"Ġchunk":4158,"Ġevents":4159,"BO":4160,"cy":4161,"route":4162,"Ġrelative":4163,"utes":4164,"Ġloop":4165,"ignment":4166,"generate":4167,"Ġautom":4168,"ipe":4169,"mk":4170,"track":4171,"endpoint":4172,"anfile":4173,"aster":4174,"40":4175,"Ġ\"\\":4176,"__,":4177,"ferences":4178,"Ġactual":4179,"beta":4180,"reset":4181,"execute":4182,"ĠQu":4183,"Ġcorrect":4184,"samples":4185,"inf":4186,"Box":4187,"mcn":4188,"Ġcolumns":4189,"Ġabc":4190,"mcnamara":4191,"aex":4192,"total":4193,"rad":4194,"uilt":4195,"console":4196,"Ġaw":4197,"aging":4198,"tick":4199,"Ġsrc":4200,"Ġtokens":4201,"31":4202,"Ġinterface":4203,"Ġsaved":4204,"OK":4205,"idual":4206,"Ġexc":4207,"Ġabout":4208,"ALL":4209,"Ġwait":4210,"antic":4211,"MERCHANTABILITY":4212,"Core":4213,"parsers":4214,"Ġinspect":4215,"along":4216,"exc":4217,"bs":4218,"Ġoffset":4219,"ynamic":4220,"CRE":4221,"ness":4222,"ĠBy":4223,"ĠAuthor":4224,"functional":4225,"Ġthey":4226,"angle":4227,"ĠMcN":4228,"bstract":4229,"aries":4230,"too":4231,"SIZE":4232,"Ġstorage":4233,"Author":4234,"ĠMcNamara":4235,"ground":4236,"Ġ\"-":4237,"Ġ51":4238,"expr":4239,"Support":4240,"TRA":4241,"ĠSTATE":4242,"Ġ[(":4243,"ĠDo":4244,"policies":4245,"Ġjmcnamara":4246,"configure":4247,"_{":4248,"tt":4249,"})":4250,"dings":4251,"gu":4252,"stage":4253,"IM":4254,"drop":4255,"DS":4256,"assertIs":4257,"ctx":4258,"cook":4259,"Ġscrapy":4260,"workbook":4261,"sa":4262,"axes":4263,"fp":4264,"Ġrule":4265,"Com":4266,"PUT":4267,"Ġpolicies":4268,"ĠDep":4269,"how":4270,"Ġhasattr":4271,"meta":4272,"Ġass":4273,"ignore":4274,"_(":4275,"Logging":4276,"Ġcomponent":4277,"missing":4278,"NS":4279,"ocker":4280,"Tuple":4281,"blem":4282,"Pool":4283,"Graph":4284,"cause":4285,"edia":4286,"Ġpartial":4287,"Wrap":4288,"Ġdatabase":4289,"96":4290,"Lib":4291,"eed":4292,"Ġinclu":4293,"properties":4294,"Query":4295,"AP":4296,"sq":4297,"med":4298,"Ġreplace":4299,"Ġstack":4300,"Ġevery":4301,"akes":4302,"Ġqueue":4303,"Ġph":4304,"loads":4305,"Network":4306,"Train":4307,"__.":4308,"Ġbackend":4309,"global":4310,"Suite":4311,"Ġnamespace":4312,"apache":4313,"KEN":4314,"dtypes":4315,"comparison":4316,"vartype":4317,"ograph":4318,"builder":4319,"igger":4320,"Ġvariable":4321,"([[":4322,"zero":4323,"acl":4324,"arguments":4325,"(\"/\")<":4326,"rowser":4327,"tokenizer":4328,"ĠTw":4329,"dapt":4330,"Ġprovides":4331,"rozen":4332,"requests":4333,"cape":4334,"Ġusers":4335,"Foundation":4336,"uint":4337,"Ġ\"%":4338,"dit":4339,"IR":4340,"Ġcalc":4341,"Ġfn":4342,"ĠAc":4343,"peration":4344,"Ġdeep":4345,"runner":4346,"Aut":4347,"------------------------":4348,"Ġow":4349,"Ġreturned":4350,"two":4351,"He":4352,"setdefault":4353,"024":4354,"Batch":4355,"oston":4356,"scope":4357,"ilar":4358,"Ġmetric":4359,"subplot":4360,"ManagementClientConfiguration":4361,"PU":4362,"Method":4363,"57":4364,"Transformer":4365,"ied":4366,"ĠFrank":4367,"Ġmemory":4368,"Ġarch":4369,"2110":4370,"Size":4371,"ERR":4372,"atal":4373,"ifth":4374,"rst":4375,"cover":4376,"anel":4377,"lazy":4378,"ironment":4379,"diff":4380,"ĠDate":4381,"collection":4382,"iohttp":4383,"DummyObject":4384,"unch":4385,"âĸ":4386,"amera":4387,"inja":4388,"Ġtrack":4389,"ĠUSA":4390,"Ġcreation":4391,"1301":4392,"Thread":4393,"atter":4394,"scal":4395,"ssl":4396,"Ġsphinx":4397,"Ġ'-":4398,"ĠMessage":4399,"ificate":4400,"driver":4401,"ĠFloor":4402,"ĠFifth":4403,"Ġstop":4404,"verter":4405,"term":4406,"())":4407,"theme":4408,"Ġ02110":4409,"ĠFranklin":4410,"ĠBoston":4411,"Ġ------------------------------------<":4412,"entic":4413,"Ġembed":4414,"reshold":4415,"UP":4416,"requires":4417,"Ġsequence":4418,"Ġansible":4419,"\"}":4420,"\\<":4421,"baz":4422,"EXT":4423,"Ġ//":4424,"Any":4425,"tod":4426,"Ġsn":4427,"indices":4428,"Ġbound":4429,"Ġ'<":4430,"aws":4431,">'''<":4432,"detect":4433,"figure":4434,"ĠWeb":4435,"Ġtextwrap":4436,"groups":4437,"misc":4438,"ACKAGE":4439,"AC":4440,"Read":4441,"brain":4442,"pare":4443,"è¡":4444,"Ġreq":4445,"dumps":4446,"Ġsure":4447,"defined":4448,">-":4449,"alpha":4450,"Ġjoin":4451,"jit":4452,"Ġalready":4453,"css":4454,"Generator":4455,"alert":4456,"EP":4457,"Ġdire":4458,"acade":4459,"reshape":4460,"ĠExpr":4461,"views":4462,"ĠService":4463,"Ġ255":4464,"ĠTypeError":4465,"Ġ#<":4466,"keyp":4467,"Ġgen":4468,"Ġperform":4469,"include":4470,"bf":4471,"Ġpypi":4472,"Struct":4473,"dec":4474,"ĠAB":4475,"Ġctx":4476,"'].":4477,"deploy":4478,"ascii":4479,"cupy":4480,"Ġtensorflow":4481,"hand":4482,"projects":4483,"ĠSphinx":4484,"Ġthrough":4485,"Ġbecause":4486,"dt":4487,"Ġensure":4488,"izes":4489,"Ġweight":4490,"47":4491,"ĠCustom":4492,"safe":4493,"zilla":4494,"Ġæ":4495,"short":4496,"serialize":4497,"ategorical":4498,"Default":4499,"media":4500,"codecs":4501,"respon":4502,"Ġchild":4503,"fake":4504,"agent":4505,"Ġwrapper":4506,"System":4507,"ĠJSON":4508,"ãĢĤ":4509,"linear":4510,"VENT":4511,"Metric":4512,"cert":4513,"}.":4514,"Ġstrings":4515,"etry":4516,"export":4517,":`~":4518,"68":4519,"ĠIS":4520,"patcher":4521,"Files":4522,"Ġrows":4523,"div":4524,"language":4525,"ĠIndex":4526,"Ġwriting":4527,"Ġcover":4528,"ĠMatrix":4529,"seconds":4530,"Ġbuiltin":4531,"ixel":4532,"ĠMan":4533,"ĠVal":4534,"reen":4535,"Ġpoints":4536,"ĠInter":4537,"LOW":4538,"Authentication":4539,"ffic":4540,"Ġuses":4541,"Ġzerver":4542,"site":4543,"Ġur":4544,"BASE":4545,"Options":4546,"ĠAns":4547,"NotFound":4548,"90":4549,"Ġreal":4550,"ä¸Ģ":4551,"Ġpassed":4552,"ather":4553,"Ġarr":4554,"private":4555,"ttributeError":4556,"Date":4557,"Ġvariant":4558,"single":4559,"ĠCO":4560,"raint":4561,"font":4562,"ended":4563,"Ġ'/":4564,"timeError":4565,"SSL":4566,"ĠNode":4567,"ĠFast":4568,"tmpdir":4569,"unit":4570,"oost":4571,"apps":4572,"Ġdoesn":4573,"åŃ":4574,"Ġ2019":4575,"SCHE":4576,"ae":4577,"viders":4578,"Mem":4579,"aged":4580,"æį®":4581,"orator":4582,"Ġmessages":4583,"ROOT":4584,"Ġfont":4585,"warn":4586,"parameter":4587,"\"\\":4588,")])<":4589,"Ġevalu":4590,"gments":4591,"Ġremo":4592,"uring":4593,"peat":4594,"Ġ50":4595,"sumer":4596,"Ġsetuptools":4597,"ĠWh":4598,"ĠInput":4599,"ENS":4600,"Ġextension":4601,"Ġip":4602,"extra":4603,"ĠReg":4604,"periment":4605,"Ġcontaining":4606,"Engine":4607,"My":4608,"lers":4609,"ano":4610,"extensions":4611,"Excel":4612,"shot":4613,"Ġextract":4614,"Det":4615,"vol":4616,"Ġ2018":4617,"123":4618,"ä¸ª":4619,"SC":4620,"Codec":4621,"IF":4622,"pad":4623,"admin":4624,"Ġalgorithm":4625,"Ġfill":4626,"Ġctypes":4627,"Ġwindow":4628,"cluster":4629,"si":4630,"('/":4631,"Ref":4632,"Ġcons":4633,"acher":4634,"FIX":4635,"fmt":4636,"Ġway":4637,"âĸĪ":4638,"DIT":4639,"RPackage":4640,"ĠLine":4641,"warning":4642,"ident":4643,"Ġ30":4644,"integration":4645,"IES":4646,"cap":4647,"ina":4648,"Ġexists":4649,"Ġ\"{":4650,"based":4651,"Ġnumbers":4652,"Session":4653,"ĠĠĠĠĠĠĠĠĠĠĠĠĠ":4654,"Ġvideo":4655,"messages":4656,"Build":4657,"Or":4658,"secret":4659,"cope":4660,"Ġ'--":4661,"astype":4662,"kb":4663,"Ġpool":4664,"Ġpipeline":4665,"ptim":4666,"Ġusername":4667,"Ġsensor":4668,"Red":4669,"-------<":4670,"acon":4671,"Ġgover":4672,"Conv":4673,"iag":4674,"Ġseries":4675,"stderr":4676,"ueprint":4677,"forward":4678,"Ġexecut":4679,"Ġprob":4680,"NING":4681,"Ġexecute":4682,"Ġ_,":4683,"Property":4684,"Ġrunner":4685,"internet":4686,"Ġoptuna":4687,"DES":4688,"cf":4689,"åĩ":4690,"plan":4691,"Ġjob":4692,"CLI":4693,"å®":4694,"apy":4695,"INFO":4696,"Store":4697,"colors":4698,"Types":4699,"Backend":4700,"NN":4701,"PASS":4702,"Ġreference":4703,"Ġwidget":4704,"Ġ[[":4705,"provider":4706,"LED":4707,"Tr":4708,"Ġnodes":4709,"ike":4710,"alchemy":4711,"Ġpprint":4712,"ural":4713,"Container":4714,"video":4715,"ital":4716,"ĠStream":4717,"pandas":4718,"Ġdatasets":4719,")),":4720,"Ġ11":4721,"park":4722,"faces":4723,"ĠDec":4724,"Open":4725,"inputs":4726,"Ġ1000":4727,"ĠEX":4728,"Const":4729,"actions":4730,"pd":4731,"trained":4732,"hex":4733,"ĠForm":4734,"scipy":4735,"ka":4736,"xlsx":4737,"Ġstandard":4738,"randn":4739,"etadata":4740,"fin":4741,"gl":4742,"IGN":4743,"Color":4744,"aclasses":4745,"ĠCom":4746,"ĠLog":4747,"Ġshort":4748,"cloud":4749,"ality":4750,"thedocs":4751,"Ġshell":4752,"otools":4753,"world":4754,"enabled":4755,"prop":4756,"3456":4757,"changed":4758,"Ġpol":4759,"ret":4760,"Ġsig":4761,"istics":4762,"Ġsecond":4763,"shell":4764,"ynch":4765,"namespace":4766,"imit":4767,"Ġdest":4768,"Ġsktime":4769,"]):<":4770,"Ġfactor":4771,"Ġtheir":4772,"Ġ'''":4773,"quare":4774,"Hub":4775,"rb":4776,"Ġmost":4777,"Ġkind":4778,"Ġmanager":4779,"dash":4780,"setuptools":4781,"Ġoverride":4782,"Ġfp":4783,"ĠPIL":4784,"CRIP":4785,"Ġcrypt":4786,"excel":4787,"Cre":4788,"Form":4789,"Integ":4790,"IE":4791,"atio":4792,"press":4793,"scar":4794,"60":4795,"ned":4796,"orary":4797,"Ġmerge":4798,"ĠApplication":4799,"VALID":4800,"Iter":4801,"DA":4802,"If":4803,"ium":4804,"rf":4805,"Ġremote":4806,"Ġsort":4807,"servation":4808,"Ġ'__":4809,"ĠTestCase":4810,"Ġlocation":4811,"Do":4812,"ĠLO":4813,"terns":4814,"typing":4815,"draw":4816,"Ġconv":4817,"vious":4818,"bucket":4819,"diag":4820,"Ġour":4821,"Wrapper":4822,"extend":4823,"ONE":4824,"Ġgevent":4825,"edge":4826,"ĠMo":4827,"AND":4828,"ĠResponse":4829,"95":4830,"Agent":4831,"alice":4832,"ography":4833,"utor":4834,"Ġbin":4835,"ways":4836,"=-":4837,"symbol":4838,"Ġsuch":4839,"Ġinstalled":4840,"Ġflask":4841,"apply":4842,"commit":4843,"Loss":4844,"sage":4845,"unicode":4846,"Ġconsole":4847,"Ġactiv":4848,"pattern":4849,")),<":4850,"Ġ...<":4851,"override":4852,"Ġcluster":4853,"Ġhashlib":4854,"End":4855,"roid":4856,"ĠMagicMock":4857,"position":4858,"Ġboth":4859,"strict":4860,"eric":4861,"Ġtra":4862,"istic":4863,"reader":4864,"Ġimportlib":4865,"Runner":4866,"gan":4867,"Ġclick":4868,"ĠMapping":4869,"Ġstage":4870,"ugment":4871,"ynchron":4872,"Ġdecor":4873,"mproxy":4874,"ĠError":4875,"Ġinvalid":4876,"IONS":4877,"Formatter":4878,"Provider":4879,"ĠPlugin":4880,"BUG":4881,"Norm":4882,"Ġbasic":4883,"(\"\\":4884,"Failed":4885,"Ġedit":4886,"Incremental":4887,"Element":4888,"Ġapply":4889,"LP":4890,"tesIO":4891,"Block":4892,"Ġwhether":4893,"ĠMO":4894,"emon":4895,"Search":4896,"Ġtraceback":4897,"WN":4898,"ZURE":4899,"road":4900,"Ġvia":4901,"ctories":4902,"æķ°æį®":4903,"Ġunit":4904,"Ġformatted":4905,"topic":4906,"ĠTwisted":4907,"Ġnorm":4908,"Ġvaex":4909,"commands":4910,"exist":4911,"Entities":4912,"TY":4913,"eno":4914,"libs":4915,"Cache":4916,"Ġ\",":4917,"after":4918,"Linear":4919,"ĠLab":4920,"ĠMeta":4921,"zz":4922,"Ġhead":4923,"ĠLoc":4924,"Ġ2022":4925,">##":4926,"Sign":4927,"vari":4928,"extension":4929,"ĠGraph":4930,"ĠOb":4931,"utorial":4932,">*":4933,"Msg":4934,"bn":4935,"Ġcel":4936,"Ġregistry":4937,"ä¸Ń":4938,"ĠOutput":4939,"latten":4940,"Sensor":4941,"gnu":4942,"Ġpermissions":4943,"bad":4944,"lang":4945,"Ġ''<":4946,"compiler":4947,"steps":4948,"Ġpad":4949,"Ġpermission":4950,"inc":4951,"fast":4952,"freq":4953,"windows":4954,"Rule":4955,"children":4956,"iform":4957,"Ġ],<":4958,"oop":4959,"tention":4960,"almost":4961,"Ġdash":4962,"Ġ.._":4963,"eq":4964,"Ġdocs":4965,"compute":4966,"ferred":4967,"tk":4968,"msrest":4969,"Level":4970,"Ġpadding":4971,"ĠSimple":4972,"(?:":4973,"Ġsam":4974,"Ġautomat":4975,"Ġinputs":4976,"EntitiesCallback":4977,"ĠSource":4978,"worker":4979,"ĠAddEntitiesCallback":4980,"LL":4981,"Web":4982,"tion":4983,"æł":4984,"det":4985,"signed":4986,"ornia":4987,"sparse":4988,"ĠPre":4989,"ometry":4990,"Ġadded":4991,"Multi":4992,"RA":4993,"SP":4994,"Ġrequire":4995,"logs":4996,"vec":4997,"du":4998,"att":4999,"Ġcell":5000,"fetch":5001,"åº":5002,"clip":5003,"vocab":5004,"Ġshared":5005,"Ġ2006":5006,"'],<":5007,"Feature":5008,"Label":5009,"lab":5010,"roll":5011,"Ġignored":5012,"101":5013,"interface":5014,"ragma":5015,"`,":5016,"Ġresources":5017,"Ġdirectly":5018,"æĺ¯":5019,"++":5020,"anic":5021,"SCHEMA":5022,"ĠĠĠĠĠĠĠĠĠĠĠĠĠĠĠĠĠĠ":5023,"READ":5024,"qt":5025,"this":5026,"complete":5027,"center":5028,"ving":5029,"force":5030,"initial":5031,"aus":5032,"alg":5033,"Ġfolder":5034,"keyword":5035,"....":5036,"``.<":5037,"expression":5038,"Ġposition":5039,"Autotools":5040,"43":5041,"Down":5042,"HEAD":5043,"ious":5044,"dummy":5045,"desc":5046,"sin":5047,"hain":5048,"ĠRed":5049,"Ġleg":5050,"1000":5051,"WAR":5052,"writer":5053,"many":5054,"gpu":5055,"ĠÐ":5056,"enu":5057,"live":5058,"Ġstatic":5059,"Ġauthor":5060,"Ġstdout":5061,"AutotoolsPackage":5062,"cout":5063,"Content":5064,"89":5065,"uf":5066,"selector":5067,"ConfigEntry":5068,"ABC":5069,"dates":5070,"sOperations":5071,"aper":5072,"google":5073,"parts":5074,"attrs":5075,"ado":5076,"oci":5077,"Ġinteger":5078,"Ġzero":5079,"Ġbuffer":5080,"ĠSerializer":5081,"Ġgrid":5082,"alyt":5083,"Ġtools":5084,"From":5085,"UB":5086,"Sim":5087,"null":5088,"Ġmit":5089,"Ġcalls":5090,"Ġdistutils":5091,"slot":5092,"Ġprompt":5093,"Ġiss":5094,"ases":5095,"Ġxml":5096,"Ġurlparse":5097,"calls":5098,"ENTITY":5099,"53":5100,"EM":5101,"Ġincre":5102,"dest":5103,"ircle":5104,"Ġlock":5105,"crete":5106,"\"})<":5107,"Column":5108,"Ġrelated":5109,"Ġdebug":5110,"enums":5111,"aintain":5112,"').":5113,"MIN":5114,"ĠTransform":5115,"Ġpkg":5116,"ĠAnsible":5117,"Ġanother":5118,"ggreg":5119,"LoggingPolicy":5120,"Ġcertbot":5121,"functions":5122,"fb":5123,"rdf":5124,"Ġnet":5125,"dataclass":5126,"AUTH":5127,"Ġpolicy":5128,"exec":5129,"ĠĠĠĠĠĠĠĠĠĠĠĠ":5130,"providers":5131,"assertFalse":5132,"Ġfd":5133,"67":5134,"inux":5135,"apshot":5136,"Execution":5137,"checkpoint":5138,"Template":5139,"ategories":5140,"ERROR":5141,"SQL":5142,"Util":5143,"]])<":5144,"hip":5145,"utc":5146,"ĠCredential":5147,"Ġexit":5148,"/.":5149,"Ġisort":5150,"Example":5151,"LSX":5152,"inner":5153,"Ġreverse":5154,"Ġhypothesis":5155,"ĠPlatform":5156,"dagster":5157,"Ġ})<":5158,"ividual":5159,"(['":5160,"egative":5161,"named":5162,"ĠĠĠĠĠĠĠĠĠĠĠĠĠĠ":5163,"Ġdelete":5164,"dims":5165,"partition":5166,"Ax":5167,"âĢ":5168,"rece":5169,"ĠHypothesis":5170,"ClientConfiguration":5171,"controllers":5172,"sen":5173,"regex":5174,"Compare":5175,"ĠIterator":5176,"riority":5177,"nl":5178,"Ġoutputs":5179,"Ġcredentials":5180,"semb":5181,"ged":5182,"ams":5183,"Ġexamples":5184,"Required":5185,"ĠConan":5186,"Ġdataclasses":5187,":%":5188,"DR":5189,"ram":5190,"Ġpylearn":5191,"Ġ'%":5192,"price":5193,"partial":5194,"once":5195,"Ġbeing":5196,"Builder":5197,"Ġds":5198,"2021":5199,"åĬ":5200,"ĠFunction":5201,"Ġproperties":5202,"HttpLoggingPolicy":5203,"ĠARMHttpLoggingPolicy":5204,"chain":5205,"Ġverbose":5206,"Ġmitmproxy":5207,"Ġblob":5208,"region":5209,"Ġusage":5210,"DEVICE":5211,"ĠArgument":5212,"iki":5213,"written":5214,"Ġ64":5215,"Ġmetrics":5216,"ĠExcelComparisonTest":5217,"Ġpackages":5218,"schedule":5219,"SER":5220,"æĹ":5221,"ĠNO":5222,"Ġgot":5223,"interval":5224,"free":5225,"switch":5226,"extract":5227,"Custom":5228,"jpg":5229,"rtype":5230,"ĠField":5231,"plate":5232,"Ġwords":5233,"Ġrepr":5234,"gui":5235,"nost":5236,"uplic":5237,"ttributes":5238,"TOKEN":5239,"ĠKeyError":5240,"distributed":5241,"fft":5242,"hi":5243,"Ġinv":5244,"Ġdraw":5245,"Ġproduct":5246,"pair":5247,"sw":5248,"Ġcook":5249,"('.":5250,"Instance":5251,"Ġdocuments":5252,"uptuous":5253,"velopment":5254,"Ġ[-":5255,"Ġapplic":5256,"Ġkornia":5257,"ĠValid":5258,"ites":5259,"Ġsuffix":5260,"ĠUp":5261,"ĠRef":5262,"LM":5263,"Ġdeprecated":5264,"ĠMockConfigEntry":5265,"power":5266,"Ġmx":5267,"Ġvoluptuous":5268,"ĠFastAPI":5269,"crypt":5270,"strings":5271,"alytics":5272,"yph":5273,"Ġtargets":5274,"Ġtasks":5275,"Ġdeepcopy":5276,"PASSWORD":5277,"!<":5278,"mm":5279,"mul":5280,"åľ":5281,"ĠContainer":5282,"FL":5283,"ru":5284,"Ġspace":5285,"Ġpopulated":5286,"MODEL":5287,"pnet":5288,"loaded":5289,"readonly":5290,"orb":5291,"sequence":5292,"andid":5293,"Ġcopying":5294,"Ġneeds":5295,"cols":5296,"upported":5297,"97":5298,"just":5299,"imation":5300,"Expr":5301,"distance":5302,"Ġcomplete":5303,"Auto":5304,"warnings":5305,"vers":5306,"COM":5307,"fh":5308,"ĠFl":5309,"ription":5310,"ĠDeserializer":5311,"Ġserializer":5312,"button":5313,"Ġpaddle":5314,"utton":5315,"ĠLe":5316,"ĠLib":5317,"Ġencoder":5318,"Ġperiod":5319,"IST":5320,"Pr":5321,"At":5322,"SV":5323,"Ġside":5324,"Ġmissing":5325,"subprocess":5326,"ugg":5327,"scan":5328,"Ġoperation":5329,"OFF":5330,"]),":5331,"ws":5332,"arrow":5333,"Ġsepar":5334,"dirs":5335,"Ġmultiprocessing":5336,"NECT":5337,"car":5338,"ĠOn":5339,"Ġpair":5340,"Ġnull":5341,"Teacher":5342,"FT":5343,"Ġcompute":5344,"complex":5345,"ats":5346,"ĠInfo":5347,"clear":5348,"ProtocolEntity":5349,"å¯":5350,"ĠInst":5351,"Ġedge":5352,"So":5353,"Ġcho":5354,"Ġeffect":5355,"ipelineClient":5356,"IVE":5357,"(\".":5358,"perator":5359,"latest":5360,"Address":5361,"ducer":5362,"-%":5363,"BL":5364,"getitem":5365,"assertIn":5366,"curacy":5367,"Ġcorrespon":5368,"munication":5369,"Ġdrop":5370,"prob":5371,"aff":5372,"XLSX":5373,"Ġfreq":5374,"ĠSc":5375,"Application":5376,"byte":5377,"Ġproxy":5378,"ĠTestCompare":5379,"ExcelComparisonTest":5380,"XLSXFiles":5381,"ĠTestCompareXLSXFiles":5382,"MET":5383,"expand":5384,"Ġnamedtuple":5385,"Ġtyper":5386,"ancel":5387,"ĠMake":5388,"ifact":5389,"ĠĠĠĠĠĠĠĠĠĠĠĠĠĠĠĠĠ":5390,"Ġexport":5391,"POINT":5392,"uctor":5393,"vector":5394,"Ġtheme":5395,"linalg":5396,"ĠLaborator":5397,"ropy":5398,"coordinator":5399,"Ġlat":5400,"DEBUG":5401,"NUM":5402,"ĠEnv":5403,"rgb":5404,"library":5405,"Ġhelper":5406,"Ġconstants":5407,"bbox":5408,"------<":5409,"Ġawx":5410,"ĠAd":5411,"Ġstride":5412,"ĠTypeVar":5413,"TF":5414,"Ġ-------<":5415,"Ġcle":5416,"Ġmaintain":5417,"STAT":5418,"translation":5419,"Ġown":5420,"85":5421,"MENT":5422,"ãģ":5423,"Ġrepo":5424,"Ġsetting":5425,"2017":5426,"ĠFinal":5427,"255":5428,"Access":5429,"?<":5430,"icle":5431,"Ġ42":5432,"outputs":5433,"Returns":5434,"Ġespnet":5435,"NOTE":5436,"Random":5437,"router":5438,"training":5439,"high":5440,"kind":5441,"selection":5442,"ĠDataset":5443,"ĠLaboratories":5444,"Float":5445,"jor":5446,"éĢ":5447,"Ġworks":5448,"Initialize":5449,"Can":5450,"cwd":5451,"Ġfs":5452,"Ġcheckpoint":5453,"Ġmany":5454,"coutSuite":5455,"history":5456,"suffix":5457,"till":5458,"Ġestim":5459,"heel":5460,"LAT":5461,"Ġcsv":5462,"Ġsamples":5463,"ationError":5464,"Dec":5465,"Lock":5466,"ared":5467,"åį":5468,"Ġdask":5469,"ĠClass":5470,"ination":5471,"require":5472,"Ġ'_":5473,"ĠOS":5474,"Ġautomatically":5475,"CMake":5476,"ä¹":5477,"Ġpred":5478,"Ġexceptions":5479,"mult":5480,"Ġbranch":5481,"Ġ[(\"":5482,"VA":5483,"evalu":5484,"ava":5485,"alet":5486,"Ġ'\\":5487,"endor":5488,"unknown":5489,"JSON":5490,"lap":5491,"isode":5492,"ords":5493,"Ġgenerator":5494,"plicit":5495,"Layout":5496,"requ":5497,"Ġdig":5498,"IZ":5499,"Ġwin":5500,"rot":5501,"Ġmedi":5502,"ĠTestClient":5503,"Ġpresent":5504,"41":5505,"utdown":5506,"Ġworld":5507,"Ġeas":5508,"ĠWindows":5509,"({<":5510,"localhost":5511,"issues":5512,"70":5513,"=\"\"":5514,"gon":5515,"}/":5516,"ARY":5517,"ĠReserved":5518,"[[":5519,"å°":5520,"Ġsince":5521,"Ġsubject":5522,"è¡Į":5523,"QA":5524,"Ġmult":5525,"lias":5526,"Ġelements":5527,"supported":5528,"Ġdataclass":5529,"builtin":5530,"Ġdefinition":5531,"ĠIP":5532,"Ġexpect":5533,"éĩ":5534,"redis":5535,"mbed":5536,")]":5537,"tle":5538,"></":5539,"alth":5540,"ĠScoutSuite":5541,"initions":5542,"\")]<":5543,"Ġaxes":5544,"69":5545,"Ġdone":5546,"Challenge":5547,"role":5548,"All":5549,"PAR":5550,"Ġexecution":5551,"br":5552,"glob":5553,"sor":5554,"acc":5555,"400":5556,"Ġwo":5557,"Exp":5558,"troller":5559,"merge":5560,"{\"":5561,"Ġfit":5562,"127":5563,"128":5564,"Ġexpression":5565,"nowled":5566,"dl":5567,"public":5568,"cos":5569,"ysql":5570,"webhook":5571,"dvc":5572,"Ġclip":5573,"Ġpublic":5574,"ĠBo":5575,"Head":5576,"variable":5577,"Ġenable":5578,"Ġdevelopers":5579,"Ġseconds":5580,"Ġkubernetes":5581,"AF":5582,"Range":5583,"pus":5584,"calc":5585,"Ġsuccess":5586,"()[":5587,"Ġvector":5588,"Ġcomment":5589,"LIB":5590,"ĠRuntimeError":5591,"Ġdown":5592,"coco":5593,"Ġangr":5594,"weights":5595,"ĠĠĠĠĠĠĠĠĠĠĠĠĠĠĠĠĠĠĠĠ":5596,"Ġallowed":5597,"Ġindices":5598,"Simple":5599,"variables":5600,"LOC":5601,"Union":5602,"Window":5603,"Ġbbox":5604,"Ġsentence":5605,"Metadata":5606,"mot":5607,"verify":5608,"control":5609,"='@":5610,"acters":5611,"cpp":5612,"luon":5613,"çĽ":5614,"mpi":5615,"Ġpragma":5616,"usage":5617,"Ġstreamlink":5618,"duce":5619,"Ġwithin":5620,"Ġgraphene":5621,"And":5622,"Ġdump":5623,"ĠAttributeError":5624,"Ġhook":5625,"tyle":5626,"ĠRead":5627,"Ġcommands":5628,"'\\":5629,"war":5630,"Ġbuilt":5631,"ĠRights":5632,"EVENT":5633,"åĮ":5634,"alk":5635,"Ġ*,":5636,"Ġworker":5637,"ko":5638,"ĠIPython":5639,"Ġweights":5640,"MPLE":5641,"345678":5642,"cesses":5643,"enable":5644,"escape":5645,"Ġscapy":5646,"Ġparts":5647,"Temp":5648,"Optional":5649,"itu":5650,"forms":5651,"Ġplay":5652,"RGB":5653,"Ġel":5654,"iasm":5655,"renc":5656,"ĠAss":5657,"Ġworking":5658,"sqrt":5659,"PC":5660,"Ġflags":5661,"Ġreset":5662,"REQU":5663,"ĠTokenCredential":5664,"Ġversions":5665,"summary":5666,"herit":5667,"87":5668,"AA":5669,"Link":5670,"quote":5671,"================================":5672,"xxxx":5673,"Ġdecimal":5674,"keypatch":5675,"nowledge":5676,"Ġ14":5677,"irm":5678,"ULL":5679,"ea":5680,"Ġsection":5681,"Ġregion":5682,"ĠABC":5683,"DU":5684,"Ġgoogle":5685,"Ġverify":5686,"raction":5687,"outer":5688,"egin":5689,"</":5690,">[":5691,"FIL":5692,"arDown":5693,"(\"-":5694,"ĠDummy":5695,"ĠIO":5696,"Ġfactory":5697,"audio":5698,"templates":5699,"START":5700,"Ġchanges":5701,"shap":5702,"Ġmk":5703,"Ġproperty":5704,"Ġparsed":5705,"mbers":5706,"XX":5707,"âķ":5708,"running":5709,"ACT":5710,"isto":5711,"ĠArray":5712,"structor":5713,"Ġcontributors":5714,"Ġseed":5715,"Ġcommit":5716,"Ġslt":5717,"false":5718,"Ġgl":5719,"Ġ60":5720,"filters":5721,"ĠĠĠĠĠĠĠĠĠĠĠĠĠĠĠĠĠĠĠĠĠĠĠĠĠĠ":5722,"Ġremoved":5723,"âĸĪâĸĪ":5724,"Ġcryptography":5725,"Document":5726,"Ġmapping":5727,"ĠTEST":5728,"getvalue":5729,"00000000":5730,"Pass":5731,"Ġoscar":5732,"pipe":5733,"TRAIN":5734,"hot":5735,"Ġaiohttp":5736,"Ġduring":5737,"Ġbyte":5738,"canvas":5739,"Ġfailed":5740,"execution":5741,"Reference":5742,"ariate":5743,":]<":5744,"Part":5745,"PER":5746,"onitor":5747,"Ġcli":5748,"codes":5749,"Ġkeyword":5750,"COUN":5751,"refresh":5752,"Library":5753,"CRIPTION":5754,"echo":5755,"game":5756,"holder":5757,"Ġactive":5758,"Foo":5759,"ĠRandom":5760,"ifiers":5761,"ĠServer":5762,"Ġtheano":5763,"ulator":5764,"ĠNumber":5765,"refs":5766,"nostics":5767,"Torch":5768,"should":5769,"ĠProtocol":5770,"Ġcomput":5771,"pp":5772,"plus":5773,"vendor":5774,"Ġpower":5775,"Ġmeta":5776,"ivariate":5777,"Ġaccept":5778,"anlp":5779,"asure":5780,"Ġ\"..":5781,"notebook":5782,"``<":5783,"Ġwarning":5784,"Ġdefines":5785,"LIST":5786,"auss":5787,"tol":5788,"Ġtz":5789,"Ġ#:":5790,"Ġexec":5791,"Sequence":5792,"ilerplate":5793,"65":5794,"tour":5795,"prox":5796,"rules":5797,"84":5798,"LU":5799,"cm":5800,"cer":5801,"gmail":5802,"tv":5803,"Ð¾":5804,"Ġts":5805,"transformer":5806,"CMakePackage":5807,"Ġmiasm":5808,"Ġlinear":5809,"ĠState":5810,"ĠAsyncTokenCredential":5811,"Ġscope":5812,"Ġcannot":5813,"TRY":5814,"Ġfastapi":5815,"(\\":5816,"]],":5817,"ĠCre":5818,"ĠNetwork":5819,"ifest":5820,"spider":5821,"Ġ).":5822,"amma":5823,"Ġprofile":5824,"before":5825,"optimizer":5826,"Ġetc":5827,"untry":5828,"identity":5829,"quential":5830,"Ġ{})<":5831,"IND":5832,"Ġwhat":5833,"ĠCodec":5834,"riterion":5835,"Ġreactor":5836,"Ġoptimizer":5837,"Ġser":5838,"LOCK":5839,"Interface":5840,"\"/":5841,"Wh":5842,"æī":5843,"ĠSystem":5844,"ĠTrain":5845,"runtime":5846,"Ġsending":5847,"Render":5848,"sock":5849,"yml":5850,"CONNECT":5851,"Ġindic":5852,"Ġcelery":5853,"frames":5854,"Ġtermin":5855,"\".<":5856,"mapping":5857,"pickle":5858,"ĠTable":5859,"Control":5860,"Inst":5861,"Ġopenapi":5862,"Ġallows":5863,"Url":5864,"ĠPR":5865,"Ġbelow":5866,"nsupported":5867,"Queue":5868,"STRING":5869,"Ġsqlalchemy":5870,"ArgumentParser":5871,")?":5872,"impl":5873,"Ġfuture":5874,"Ġart":5875,"ĠDecimal":5876,">$":5877,"Point":5878,"ĠApi":5879,"parer":5880,"Ġadditional":5881,"specific":5882,"ampling":5883,"GL":5884,"pid":5885,"wiki":5886,"inds":5887,"Ġwould":5888,"question":5889,"Connect":5890,"Ġspecify":5891,"yan":5892,"ĠFlow":5893,"ä¸º":5894,"generic":5895,"DIS":5896,"flag":5897,"SOURCE":5898,"Ġdirectories":5899,"Ġssl":5900,"ornado":5901,"category":5902,"study":5903,"Ġdot":5904,"Ġ1024":5905,"integer":5906,"ral":5907,"delet":5908,"ĠSql":5909,"omial":5910,"2020":5911,"wrapper":5912,"Act":5913,"duration":5914,"padd":5915,"depth":5916,"Ġ13":5917,"...,":5918,"LECT":5919,"_,":5920,"bus":5921,"inger":5922,"upper":5923,"Ġdiscovery":5924,"HOME":5925,"endswith":5926,"customize":5927,"Ġfetch":5928,"amily":5929,"001":5930,"Order":5931,"SY":5932,"relative":5933,"Ġlayout":5934,"Ġplugins":5935,"92":5936,"strap":5937,"Ġsched":5938,"IAL":5939,"Ġswitch":5940,"============":5941,"Ġmatches":5942,"Ð°":5943,"Ġcatal":5944,"celer":5945,"Ġcontents":5946,"Ġpybrain":5947,"~~~~~~~~":5948,"bd":5949,"Ġsymbol":5950,"Ġlocalstack":5951,"ĠLoad":5952,"roadcast":5953,"USE":5954,"external":5955,"ĠPY":5956,"anti":5957,"Cond":5958,"ORE":5959,"structure":5960,"Ġflag":5961,"Ġgroups":5962,"ayment":5963,"ippet":5964,"=['":5965,"UID":5966,"irs":5967,"PIPE":5968,"Ġrepository":5969,"proc":5970,"ĠConv":5971,"spaces":5972,"Ġabsl":5973,"ring":5974,"six":5975,"Ġmmcv":5976,"Ðµ":5977,"Ġcontrol":5978,"Ġenabled":5979,"Option":5980,"PES":5981,"ĠOr":5982,"deep":5983,"deps":5984,"cha":5985,"asyncio":5986,"Coordinator":5987,"solver":5988,"ï¼ļ":5989,"rong":5990,"Ġ128":5991,"ird":5992,"Ġ%(":5993,"decorator":5994,"IB":5995,"ĠBinary":5996,"Convert":5997,"where":5998,"Ġexisting":5999,"reference":6000,"demo":6001,"exe":6002,"irection":6003,"executable":6004,"Ġlow":6005,"CCESS":6006,"ĠHttpResponseError":6007,"scalar":6008,"Ġcow":6009,"()))<":6010,"Ġcallable":6011,"ĠQueue":6012,"copyright":6013,"assets":6014,"acing":6015,"ectors":6016,"Ġdesc":6017,"ĠĠĠĠĠĠĠĠĠĠĠĠĠĠĠĠĠĠĠĠĠĠĠĠĠ":6018,"ĠColor":6019,"Vault":6020,"Ġabs":6021,"aconda":6022,"Ġscore":6023,"liance":6024,"igned":6025,"linspace":6026,"ĠStat":6027,"created":6028,"Ġhandwritten":6029,"conn":6030,"Ġgym":6031,"lists":6032,"randint":6033,"****************":6034,"bias":6035,"ygon":6036,"Ġentities":6037,"ĠBuild":6038,"scribe":6039,"quee":6040,"We":6041,"ĠDevice":6042,"ecutor":6043,"Ġdistance":6044,"Ġfinally":6045,"CLIENT":6046,"Buffer":6047,"ĠĠĠĠĠĠĠĠĠĠĠĠĠĠĠĠĠĠĠĠĠ":6048,"Ġalways":6049,"Ġapps":6050,"Ġpoetry":6051,"graphql":6052,"Ġbutton":6053,"åħ¥":6054,"300":6055,"oriz":6056,"second":6057,"revision":6058,"===<":6059,"__(*":6060,"Ġotherwise":6061,"->":6062,"Fix":6063,"Ġdistribution":6064,"Ġ256":6065,"Ġ`._":6066,"CLASS":6067,"Microsoft":6068,"given":6069,"Ġfake":6070,"idev":6071,"Sec":6072,"mil":6073,"decoder":6074,"setter":6075,"Ġequal":6076,"plotting":6077,"dependency":6078,"segment":6079,"ĠSh":6080,"\"]:<":6081,"ĠNamed":6082,"ENSOR":6083,"/{}\".":6084,"tab":6085,"Ġbuilder":6086,"Ġrepresentation":6087,"Ġcowidev":6088,"ND":6089,"cut":6090,"getenv":6091,"ĠInit":6092,"ĠPyQt":6093,"}.<":6094,"Ġdefine":6095,"ĠSearch":6096,"wagger":6097,"Load":6098,"ĠKubernetes":6099,"slug":6100,"ĠObject":6101,"Ġcy":6102,"Start":6103,"ĠInteg":6104,"ippets":6105,"handlers":6106,"ane":6107,"Ġbit":6108,"trace":6109,"Fore":6110,"Import":6111,"LD":6112,"reddit":6113,"Named":6114,"Ġchain":6115,"istributions":6116,"ĠRo":6117,"Ġatt":6118,"THON":6119,"queeze":6120,"irror":6121,"Platform":6122,"member":6123,"cursor":6124,"NotFoundError":6125,"ExecutionEngine":6126,"51":6127,"Mat":6128,"ĠTr":6129,"ĠGroup":6130,"targets":6131,"Ġcases":6132,"fuck":6133,"gpl":6134,"implement":6135,"ĠMod":6136,"progress":6137,"Ġlearning":6138,"AsyncTokenCredential":6139,")).":6140,"Ġpg":6141,"----------------------------<":6142,"Middleware":6143,"USERNAME":6144,"comment":6145,"ĠHel":6146,"]).":6147,"aio":6148,"ĠDATA":6149,"erson":6150,"agents":6151,"Ġcounter":6152,"Ġtimes":6153,"Ġtimestamp":6154,"Ġvalidation":6155,"devices":6156,"ĠSE":6157,"listener":6158,"ively":6159,"ĠAnaconda":6160,"ROM":6161,"LINE":6162,"][\"":6163,"Ġretrie":6164,"ummary":6165,"mag":6166,"Be":6167,"Bot":6168,"ube":6169,"urllib":6170,"itude":6171,"hidden":6172,"onsh":6173,"monstr":6174,"Ġlogic":6175,"ifications":6176,"2018":6177,")\"<":6178,"Variable":6179,"rpc":6180,"vs":6181,"inator":6182,"ĠSERVICE":6183,"rive":6184,"Ġvirtual":6185,"ublish":6186,"controller":6187,"Ġdriver":6188,"Ġforms":6189,"Export":6190,"Ġseq":6191,"Ġurh":6192,"pace":6193,"rupt":6194,"Ġsleep":6195,"tables":6196,"presentation":6197,"ACE":6198,"Number":6199,"categories":6200,"final":6201,"mer":6202,"Ġ\"[":6203,"Ġdiag":6204,"tact":6205,"ĠImports":6206,"feed":6207,"Space":6208,"Ġpipenv":6209,"404":6210,"Sampler":6211,"Target":6212,"cmake":6213,"gres":6214,"abil":6215,"contains":6216,"filepath":6217,"double":6218,"ĠWhen":6219,"Ġfmt":6220,"ished":6221,"','":6222,"Ġsupports":6223,"Lazy":6224,"eries":6225,"Ġ((":6226,"oose":6227,"Ġautos":6228,"Registry":6229,"apture":6230,"ç±":6231,"ĠBatch":6232,"ivity":6233,"Processor":6234,"PACKAGE":6235,"ao":6236,"}\".":6237,"¨¡":6238,"Ġast":6239,"setUp":6240,"==<":6241,"afka":6242,"DEF":6243,"player":6244,"IX":6245,"NE":6246,"bos":6247,"Ġnd":6248,"moves":6249,"methods":6250,"ĠSimCC":6251,"SL":6252,"period":6253,"ĠThese":6254,"ĠOpenM":6255,"Ġdiff":6256,"ront":6257,"learning":6258,"Ġdemonstr":6259,"Ġrate":6260,"Ġepoch":6261,"found":6262,"Ġscan":6263,"span":6264,"uffle":6265,"Ġloader":6266,"ĠBytesIO":6267,")(":6268,"52":6269,"Windows":6270,"ĠGeneric":6271,"Profile":6272,"Ġcompiler":6273,"Ġprevious":6274,"Ġcompatibility":6275,"homeassistant":6276,"radius":6277,"cursive":6278,"Count":6279,"Ġ....":6280,"Ġfixture":6281,"/\")<":6282,"gi":6283,"Ġent":6284,"udit":6285,"rcnn":6286,"termine":6287,"Cur":6288,"ikip":6289,"Ġbuf":6290,"ĠNum":6291,"Ġlarge":6292,"permissions":6293,"scheme":6294,"black":6295,"Ġdimensions":6296,"PROC":6297,"GISTR":6298,"slots":6299,"AML":6300,"IMA":6301,"Ġmp":6302,"ĠAct":6303,"MLab":6304,"aussian":6305,"SK":6306,"branch":6307,"hypothesis":6308,"look":6309,"Ġforce":6310,"POST":6311,"Usage":6312,"Ġproblem":6313,"versions":6314,"RED":6315,"Ġmanually":6316,"AGS":6317,":\\":6318,"åĢ":6319,"reed":6320,"matplotlib":6321,"=_":6322,"reason":6323,"Record":6324,"TIMEOUT":6325,"rency":6326,"Page":6327,"æŀ":6328,"defs":6329,"Ġrand":6330,"Environment":6331,"ĠOpenMMLab":6332,".\",<":6333,"Ġsync":6334,"concat":6335,"Ġdepth":6336,"HTML":6337,"Ġshown":6338,"Collection":6339,"Ġerrno":6340,"ek":6341,"vices":6342,"Ġcategory":6343,"ivers":6344,"original":6345,"PREFIX":6346,"500":6347,"Blob":6348,"Ġpe":6349,"Ġsafe":6350,"ĠInd":6351,"Ġnote":6352,"Ġjupy":6353,"Ġ{}\".":6354,"åľ¨":6355,"å¼":6356,"ctest":6357,"Ġinternal":6358,"ĠSO":6359,"Ġcould":6360,"Ġnormalize":6361,":')<":6362,"_<":6363,"itools":6364,"Ġ--------------------------------------------------------------------------------------------<":6365,"toolkit":6366,"Tokenizer":6367,"Ġtrial":6368,"Ġdevices":6369,"ä½¿":6370,"ĠInfoExtractor":6371,"BSD":6372,"vals":6373,"Ġtransl":6374,"'{":6375,"Len":6376,"tune":6377,"xf":6378,"come":6379,"counts":6380,"ServiceClient":6381,"Tag":6382,"Ġwell":6383,"Ġdefaults":6384,"TYPES":6385,"å½":6386,"Ġvert":6387,"Ġregex":6388,"Ġplace":6389,"``,":6390,"ĠLinear":6391,"ikipedia":6392,"BACK":6393,"New":6394,"hing":6395,"nist":6396,"added":6397,"sertion":6398,"ĠContributors":6399,"boot":6400,"Sched":6401,"\\'":6402,"repository":6403,"('--":6404,"TIONS":6405,"los":6406,"prompt":6407,"Ġvarious":6408,"Memory":6409,"PT":6410,"ĠSpec":6411,"redirect":6412,"Project":6413,"Ġcontextmanager":6414,"Compute":6415,"Preparer":6416,"COLOR":6417,"TEXT":6418,"æĿ":6419,"ending":6420,"Ġsignature":6421,"Description":6422,"rng":6423,"Proxy":6424,"ĠCOPYING":6425,"Ġcharacter":6426,"Hook":6427,"Ġpack":6428,"apitools":6429,"iff":6430,"Ġprovider":6431,"STATE":6432,"Abstract":6433,"Basic":6434,"Ġput":6435,"formed":6436,"Ġconstruct":6437,"Ġlet":6438,"Ġagent":6439,"Ġmaintainers":6440,"Ġ[],":6441,"ĠOptions":6442,"Ġengine":6443,"constant":6444,"tolist":6445,"Ġjina":6446,"openapitools":6447,"ĠOpenapi":6448,"radient":6449,"Ġboxes":6450,"CUR":6451,"SERVICE":6452,"Ġserve":6453,"ĠAttributes":6454,"verters":6455,"perly":6456,"resolve":6457,"grade":6458,"+)":6459,"72":6460,"raries":6461,"Ġbias":6462,"Ġlater":6463,"Rece":6464,"ĠGH":6465,"Ġeps":6466,"moid":6467,"rawler":6468,"lm":6469,"getattr":6470,"tries":6471,"ĠUN":6472,"ventory":6473,"Ġtimezone":6474,"realm":6475,"Ġsmall":6476,"Attribute":6477,"Mo":6478,"oauth":6479,"Ġtake":6480,"mount":6481,"dispatcher":6482,"Ġwritten":6483,"Ġchannels":6484,"BER":6485,"ç½":6486,"è¾":6487,"ãĢĤ<":6488,"Ġmedia":6489,"comm":6490,"MPipelineClient":6491,"ĠSimTypeLong":6492,"JECT":6493,"sorted":6494,"sep":6495,"Ġexternal":6496,"without":6497,"Timeout":6498,"AuthenticationPolicy":6499,"'re":6500,">(":6501,"Host":6502,"MIT":6503,"alias":6504,"Ġface":6505,"iso":6506,"protect":6507,"hostname":6508,"lt":6509,"Ġnb":6510,"Ġcorresponding":6511,"]),<":6512,"ked":6513,"squeeze":6514,"alt":6515,"Ġ\"#":6516,"Ġborb":6517,"Ġresolve":6518,"ipher":6519,"Ġvari":6520,"LOAD":6521,"Ġavoid":6522,"Ġincluded":6523,"ĠAccess":6524,"å¯¹":6525,"__))<":6526,"ĠRES":6527,"ChallengeAuthenticationPolicy":6528,"74":6529,"}}<":6530,"çº":6531,"Ġbig":6532,"ORY":6533,"Ġ2015":6534,"[:-":6535,"alette":6536,"COUNT":6537,"APP":6538,"]:":6539,"ero":6540,"ĠBe":6541,"ĠtearDown":6542,"ILD":6543,"ĠAsyncAR":6544,"autom":6545,"DP":6546,"direct":6547,"}:":6548,"(\"%":6549,"Ġexpr":6550,"ĠItem":6551,"begin":6552,"middleware":6553,"Ġentries":6554,"----------------------------------------------------------------":6555,"Ġ_<":6556,"charmap":6557,"sqlmap":6558,"imitives":6559,"ynchronous":6560,"ĠBoilerplate":6561,"Job":6562,"accept":6563,"Ġ[])<":6564,"Ġinstances":6565,"TING":6566,"Stack":6567,"Ġraised":6568,"Ġleast":6569,"Ġreadthedocs":6570,"when":6571,"'}<":6572,"aced":6573,"Ġstderr":6574,"Ġcatalyst":6575,"ä½¿çĶ¨":6576,"delay":6577,"ĠAbstract":6578,"ĠDagster":6579,"ĠFairseq":6580,"ĠStandard":6581,"Widgets":6582,"Ġcondition":6583,"Bar":6584,"]*":6585,"Ġrich":6586,"\"][":6587,"iteral":6588,"Ġreader":6589,"Ġ\"\")<":6590,"ganization":6591,"Mod":6592,"Rel":6593,"same":6594,"variant":6595,"{{":6596,"alf":6597,"Ġday":6598,"threshold":6599,"endency":6600,"Ġimplements":6601,"iker":6602,"lem":6603,"Ġlb":6604,"ayers":6605,"cessed":6606,"Ġfunctionality":6607,"Ġreduce":6608,"Ġdetectron":6609,"Ġsamcli":6610,"](":6611,"moniker":6612,"93":6613,"IV":6614,"klearn":6615,"watch":6616,"Ġ=>":6617,"icip":6618,"edu":6619,"izing":6620,"validator":6621,"Ġcompliance":6622,"GISTRY":6623,"ĠPipeline":6624,"Database":6625,"Ġmodified":6626,"Ġcoreml":6627,"CharField":6628,"(\"\"":6629,").\"\"\"<":6630,"ä¼":6631,"alcon":6632,"ars":6633,"__':<":6634,"ATED":6635,"Ġimplemented":6636,"ĠCounter":6637,"/)<":6638,"dns":6639,"fname":6640,"nlp":6641,"ÑĤ":6642,"ĠSQL":6643,"usters":6644,"MAP":6645,"hs":6646,"multiple":6647,"Ġsolution":6648,"lider":6649,"ĠAUTH":6650,"ĠPo":6651,"Ġ\"\"\"\\<":6652,"012":6653,"ĠConfigType":6654,"cached":6655,"dependencies":6656,"Optim":6657,"Ġwarn":6658,"uman":6659,"ĠFake":6660,"hare":6661,"ucce":6662,"FFFF":6663,"Ġsimilar":6664,"WIT":6665,"contents":6666,"ĠBack":6667,"83":6668,"WE":6669,"hood":6670,"ecast":6671,"Ġcompare":6672,"Ġconstant":6673,"Ġlight":6674,"Ġcolors":6675,"failure":6676,"orizont":6677,"Ġtakes":6678,"imary":6679,"DED":6680,"Local":6681,"Ġmxnet":6682,"Tool":6683,"uniform":6684,"Ġscal":6685,"!\")<":6686,"asource":6687,"ĠContext":6688,"preter":6689,"\");<":6690,"Ġhelpers":6691,"Ġquote":6692,"Ġinside":6693,"Mapping":6694,"Ġdummy":6695,"iko":6696,"twisted":6697,"ridge":6698,"Ġtoo":6699,"ience":6700,"parallel":6701,"Classifier":6702,"gorithms":6703,"Ġattrs":6704,"Ġcharacters":6705,".')<":6706,"ough":6707,"Ġuri":6708,"osite":6709,"Resources":6710,"Ġhandling":6711,"Ġcoremltools":6712,"AWS":6713,"Embed":6714,"UPD":6715,"WIN":6716,"ised":6717,"corded":6718,"arrays":6719,"UND":6720,"Ġauthentication":6721,"ortran":6722,"lert":6723,"åı¯":6724,"æľī":6725,"shaped":6726,"Ġpipe":6727,"Ġexplicit":6728,"Ġparsing":6729,"LEN":6730,"åĨ":6731,"Ġwere":6732,"spam":6733,"Parse":6734,"sentence":6735,"scriptor":6736,"ĠTransformer":6737,"alo":6738,"CHAR":6739,"Ġweak":6740,"bert":6741,"slice":6742,"Account":6743,"TEMPL":6744,"executor":6745,"Tw":6746,"æ³":6747,"ĠBAS":6748,"ndim":6749,"checkout":6750,"green":6751,"ĠQuery":6752,"repeat":6753,"Recipe":6754,"Ġconfigure":6755,"notify":6756,"ailure":6757,"BaseModel":6758,"Ġupdated":6759,"capt":6760,"Ġmmf":6761,"åĽ¾":6762,"Ġdecorator":6763,"alloc":6764,"decorators":6765,"Ġincluding":6766,"istogram":6767,"AME":6768,"RR":6769,"browser":6770,"eys":6771,"spack":6772,"analy":6773,"Ġdst":6774,"ipping":6775,"Ġcombin":6776,"special":6777,"Ed":6778,"Off":6779,"itect":6780,"conanfile":6781,"Ġconn":6782,"Ġstudy":6783,"ĠConnection":6784,"boke":6785,"2019":6786,"Ġidentifier":6787,"Ġgoverned":6788,"Directory":6789,"xiv":6790,"ĠHe":6791,"monitor":6792,"ĠExamples":6793,"Ġruntime":6794,"Ġmaximum":6795,"patterns":6796,"super":6797,"geometry":6798,"Ġ17":6799,"ĠValue":6800,"Ġlive":6801,"ighb":6802,"Ġmonkeypatch":6803,"dapter":6804,"ĠConanFile":6805,"BY":6806,"Ġaround":6807,"define":6808,"ointer":6809,"Settings":6810,"Ġcurrently":6811,":-":6812,"Like":6813,"which":6814,"Ġcached":6815,"Pipeline":6816,"smo":6817,"ĠAt":6818,"ĠPlease":6819,"Ġcoordinator":6820,"seek":6821,"=%":6822,"Some":6823,"erature":6824,"plain":6825,"ategies":6826,"ĠĠĠĠĠĠĠĠĠĠĠĠĠĠĠĠĠĠĠĠĠĠĠĠĠĠĠĠ":6827,"choice":6828,"ç±»":6829,"Gui":6830,"arxiv":6831,"ĠVariables":6832,"Ġdimension":6833,"oise":6834,"rev":6835,"strategy":6836,"android":6837,"('%":6838,"Ġlower":6839,"Ġkb":6840,"patched":6841,"Ġstructure":6842,"FC":6843,"Ġbind":6844,"Ġstates":6845,"icks":6846,"Ġhex":6847,"åıĸ":6848,"related":6849,"CRET":6850,"Write":6851,"stock":6852,"Report":6853,"scene":6854,"digest":6855,"bokeh":6856,"94":6857,"edit":6858,"editor":6859,"Ġonce":6860,"HER":6861,"LY":6862,"Ġbeta":6863,"Ġhidden":6864,"Ġ-=":6865,"using":6866,"dataframe":6867,"ĠThey":6868,"Ġ2016":6869,"2016":6870,"protobuf":6871,"fficient":6872,"II":6873,"bone":6874,"vm":6875,"Ġai":6876,"Ġ25":6877,"cessary":6878,"collect":6879,"Generic":6880,"ä»¥":6881,"requency":6882,"__.__":6883,"Ġgrad":6884,"('-":6885,"Ġassoci":6886,"Ġapplicable":6887,",)<":6888,"vault":6889,"}\\":6890,"units":6891,"cont":6892,"Ġprop":6893,"pectation":6894,"udo":6895,"aker":6896,"Algorithm":6897,"*.":6898,"Socket":6899,"year":6900,"ĠGo":6901,"ĠOperations":6902,"ĠBlob":6903,"shutdown":6904,"awn":6905,"Ġlogin":6906,"ERVAL":6907,"embedding":6908,"Ġspeech":6909,"docker":6910,"ulip":6911,"æ¨¡":6912,"ĠPandas":6913,"abilities":6914,"Tri":6915,"Vis":6916,"Ð¸":6917,"Ġtar":6918,"meth":6919,"Ġsuite":6920,"Ġmachine":6921,"ĠGPL":6922,"Ġsegment":6923,"linux":6924,"Ġmanim":6925,"wards":6926,"bottom":6927,"Ġwrapped":6928,"Ġmove":6929,"Deprec":6930,"ever":6931,"(\"--":6932,"ORAGE":6933,"63":6934,"82":6935,"hu":6936,"Ġproto":6937,"uggest":6938,"91":6939,"Mgmt":6940,"Ġtab":6941,"Ġfeed":6942,"opts":6943,"closed":6944,"invoke":6945,"AZURE":6946,"RITE":6947,"gy":6948,"ratio":6949,"odoc":6950,"updated":6951,"Ġexpress":6952,"ĠExprInt":6953,"ortoise":6954,"Ġcenter":6955,"asket":6956,"Ġsqlmap":6957,"Ġassume":6958,">\\":6959,"pm":6960,"recogn":6961,"__),":6962,"ifies":6963,"pline":6964,"Ġprev":6965,"Helper":6966,"ticks":6967,"Normal":6968,"mysql":6969,"æµ":6970,"chor":6971,"ATCH":6972,"docstring":6973,"={'":6974,"polation":6975,"61":6976,"Ġmac":6977,"Ġangle":6978,"relu":6979,"UpdateCoordinator":6980,"Ġbuiltins":6981,"3456789":6982,"Bu":6983,"Plot":6984,"rm":6985,"Ġ',":6986,"istent":6987,"ryption":6988,"osition":6989,"Ġ2014":6990,"sgi":6991,"bounds":6992,"GS":6993,"Match":6994,"Ġthefuck":6995,"resnet":6996,"Script":6997,"ĠSome":6998,"Ġhanlp":6999,"ĠPrivate":7000,"######<":7001,"deployment":7002,"åĢ¼":7003,"orizontal":7004,"Dialog":7005,"atches":7006,"lihood":7007,"cons":7008,"Ġ19":7009,"Ġloaded":7010,"ips":7011,"REGISTRY":7012,"000000":7013,"SENSOR":7014,"nested":7015,"pan":7016,"Ġrepl":7017,"Ġder":7018,"ĠSensor":7019,"Ġlisted":7020,"ĠChar":7021,"ressor":7022,"Ġterm":7023,"Extension":7024,"Ġprice":7025,"gers":7026,"Ġrefer":7027,"ĠPackage":7028,"allback":7029,"ressed":7030,"ONG":7031,"Ġparallel":7032,"STEM":7033,"fully":7034,"Values":7035,"Makefile":7036,"HAS":7037,"SERV":7038,"è½":7039,"Ġsite":7040,"quences":7041,"major":7042,"CODE":7043,"ĠĠĠĠĠĠĠĠĠĠĠĠĠĠĠĠĠĠĠĠĠĠĠĠĠĠĠĠĠ":7044,"INTERVAL":7045,"dashboard":7046,"Integer":7047,"73":7048,"Ans":7049,"ĠĠĠĠĠĠĠĠĠĠĠĠĠĠĠĠĠĠĠĠĠĠ":7050,"1234":7051,"Ġcreating":7052,"Ġpages":7053,"VAIL":7054,"pub":7055,"iling":7056,"imshow":7057,"markdown":7058,"blue":7059,"ĠFormat":7060,"ĠEnvironment":7061,"/%":7062,"suite":7063,"wb":7064,"Executor":7065,"checks":7066,"ĠStorage":7067,"Notification":7068,"cookie":7069,"Ġclear":7070,"aunch":7071,"Ġcross":7072,"aystack":7073,"Ġabstractmethod":7074,"Ġspecial":7075,"Ġframework":7076,"Ġboto":7077,"åĿ":7078,"ĠAWS":7079,"times":7080,"native":7081,"wt":7082,"utable":7083,"Ġgc":7084,"Ġvocab":7085,"Unit":7086,"ĠExtractor":7087,"Stop":7088,"fire":7089,"rs":7090,"security":7091,"Ġsw":7092,"Ġxonsh":7093,"timezone":7094,"ĠVariable":7095,"Ġcollect":7096,"Ġwraps":7097,"../../":7098,"Only":7099,"æĹ¶":7100,"hyper":7101,"å¾":7102,"Ġenviron":7103,"Ġtk":7104,"Ġbest":7105,"converters":7106,"Based":7107,"scheduler":7108,"TEMPLATE":7109,"Kernel":7110,"olved":7111,"ARD":7112,"Ġappend":7113,"Ġredirect":7114,"links":7115,"visible":7116,"çŃ":7117,"è´":7118,"('\\":7119,"Ġlogs":7120,"wave":7121,"abcdef":7122,"ankcs":7123,"FORMS":7124,"Header":7125,"oom":7126,"exclude":7127,"cov":7128,"Common":7129,"MES":7130,"nx":7131,"Ġcop":7132,"members":7133,"Ġassign":7134,"reduce":7135,"Ġgettext":7136,"------------------------------------------------------------------------":7137,"cross":7138,"kivy":7139,"Ġsa":7140,"ellow":7141,"Ġpyqt":7142,"ĠConvert":7143,"sertionError":7144,"you":7145,"align":7146,"oto":7147,"Ġ'{":7148,"resses":7149,"bove":7150,"shift":7151,"DataSource":7152,"pages":7153,"lookup":7154,"62":7155,"Fixed":7156,"}{":7157,"Ġda":7158,"coords":7159,"scores":7160,"Contains":7161,"Ġrobot":7162,"corder":7163,"1111":7164,"cedure":7165,"çī":7166,"Ġkw":7167,"ste":7168,"Ġindent":7169,"Ġinstruction":7170,"ĠAir":7171,"ĠPlot":7172,"percent":7173,"ĠBl":7174,"Ġvim":7175,"mbic":7176,"={<":7177,"php":7178,"ĠLocal":7179,"ĠNOQA":7180,"Max":7181,"Operation":7182,"ç®":7183,"lev":7184,"Ġfalse":7185,"Tester":7186,"transpose":7187,"rawl":7188,"Args":7189,"Channel":7190,"skipif":7191,"documents":7192,"Grid":7193,"ks":7194,"optional":7195,"uv":7196,"Ġ18":7197,"scatter":7198,"ĠRO":7199,"Ġrole":7200,"URES":7201,"PLAT":7202,"ordinates":7203,"TA":7204,"ä¿":7205,"Ġpixel":7206,"returns":7207,"scripts":7208,">:":7209,"CV":7210,"Non":7211,"Sn":7212,"mu":7213,"Ġfrozen":7214,"ĠDB":7215,"Ġrng":7216,"rightness":7217,"ĠVis":7218,"undle":7219,"dictionary":7220,"ĠChange":7221,"sentences":7222,"Ġgreen":7223,")}<":7224,"^^":7225,"ĠBox":7226,"defaults":7227,"does":7228,"Trainer":7229,"DITIONS":7230,"ugmentation":7231,"dense":7232,"Ġra":7233,"ssh":7234,"ĠOF":7235,"outine":7236,"deletion":7237,"spark":7238,"Ġvery":7239,"icorn":7240,"ĠSession":7241,"Ġconanfile":7242,"mozilla":7243,"([<":7244,"Ġabstract":7245,"connected":7246,"eras":7247,"deprecated":7248,"cost":7249,"ĠCase":7250,"Ġpositive":7251,"ymbolic":7252,"front":7253,"Ġsimp":7254,"Ġlayers":7255,"ĠPol":7256,"æĸĩ":7257,"AI":7258,"Ġabove":7259,"acker":7260,"ĠPolicy":7261,"permission":7262,"ĠRay":7263,"Ġtopic":7264,"structs":7265,"ĠMethod":7266,",),":7267,"2000":7268,"Gateway":7269,"VAR":7270,"drive":7271,"tutorial":7272,"éĹ":7273,"emo":7274,"ä¸į":7275,"ĠThread":7276,"ĠLOG":7277,"Button":7278,"DER":7279,"Ġ:<":7280,"chat":7281,"SELECT":7282,"transforms":7283,"]+)":7284,"zzable":7285,"Download":7286,"push":7287,"Ġtornado":7288,"asarray":7289,"workers":7290,"Ġmocker":7291,"signature":7292,"share":7293,"callbacks":7294,"Ġsigma":7295,"/.<":7296,"PN":7297,"ĠNon":7298,"datapath":7299,"Regex":7300,"Ġpytext":7301,"maked":7302,"Ġones":7303,"Ġknown":7304,"Ġraises":7305,"Ġactions":7306,"renderer":7307,"Min":7308,"endar":7309,"ĠXML":7310,"iterator":7311,"Ġarrays":7312,"Admin":7313,"subplots":7314,"facade":7315,"çİ":7316,"Ġmis":7317,"quant":7318,"loading":7319,"clause":7320,"ADDR":7321,"Ġtransforms":7322,"æĸ¹":7323,"BE":7324,"cred":7325,"wall":7326,"ĠCategorical":7327,"ĠDownload":7328,"allowed":7329,"HA":7330,"Mark":7331,"qs":7332,"}'.":7333,"Ġé":7334,"Ġoc":7335,"Ġbad":7336,"setattr":7337,"ĠGen":7338,"ached":7339,"SECRET":7340,"orpus":7341,"Ġdependency":7342,"Ġchecks":7343,"ĠIncremental":7344,"blueprint":7345,"åĪĨ":7346,"semble":7347,"big":7348,"Ġfixed":7349,"([])<":7350,"PPORT":7351,"mediate":7352,"FE":7353,"ament":7354,"Ġuntil":7355,"vides":7356,"ĠMozilla":7357,"makedirs":7358,"UDE":7359,"bine":7360,"Ġpur":7361,"Ġinner":7362,"isfile":7363,"ĠPACKAGE":7364,"terminal":7365,"Ġ##":7366,"Ġdetermine":7367,"scm":7368,"ĠOne":7369,"Ġ------------------------------------------------":7370,"normalize":7371,"Dtype":7372,"ky":7373,"iness":7374,"roy":7375,"ĠCLI":7376,"stride":7377,"Ġlaw":7378,"Ġ<<":7379,"([-":7380,"Ġbottom":7381,"something":7382,"NET":7383,"recipe":7384,"Ġturn":7385,"lio":7386,"configs":7387,"eps":7388,"Ġ40":7389,"ĠKIND":7390,"Comple":7391,"boxes":7392,"Ġminimal":7393,"ĠTemplate":7394,"ĠCONDITIONS":7395,"bal":7396,"ENV":7397,"ĠConsole":7398,"basename":7399,"Ġprepare":7400,"Identity":7401,"VAILABLE":7402,"RDF":7403,"å¸":7404,"acity":7405,"allery":7406,"ĠWrite":7407,"Ġvisit":7408,"Ġcorrectly":7409,"padding":7410,"Binary":7411,"Ġwav":7412,"\",)<":7413,"Ġrank":7414,"Ġmeans":7415,"Callable":7416,"IncrementalDecoder":7417,"benchmark":7418,"pixel":7419,"ris":7420,"ons":7421,"Ġinsert":7422,"ĠTask":7423,"Ġprogress":7424,"obile":7425,"Ġdocstring":7426,"dialog":7427,"ĴĮ":7428,"Ġcopyright":7429,"Ġanalysis":7430,"ĠMark":7431,"INPUT":7432,"Ġsubclass":7433,"SUB":7434,"PS":7435,"bre":7436,"lst":7437,"instruction":7438,"itter":7439,"Ġff":7440,"Ġfu":7441,"Ġnotebook":7442,"ICES":7443,"Ġtemplates":7444,"ABLED":7445,"RUN":7446,"sy":7447,"____":7448,"ĠChannel":7449,"Ġcomplex":7450,"Exit":7451,"Namespace":7452,"Ġagreed":7453,"ĠWARRANTIES":7454,"DESCRIPTION":7455,"dantic":7456,"entence":7457,"ĠMem":7458,"(\"_":7459,"irc":7460,"hou":7461,"ouch":7462,"primitives":7463,"small":7464,"ĠCompute":7465,"crim":7466,"Ġvisual":7467,"Over":7468,"RC":7469,"Ġsources":7470,"ĠEnt":7471,"Ġsever":7472,"tep":7473,"ARCH":7474,"Strategy":7475,"Ġadmin":7476,"Ġfaust":7477,"snapshot":7478,"Ġgoverning":7479,"ĠBASIS":7480,"%(":7481,"SPE":7482,"elements":7483,"è¦":7484,"otes":7485,"ĠLabel":7486,"()]<":7487,"failed":7488,"white":7489,"Alter":7490,"Out":7491,"bi":7492,"vo":7493,"âĶ":7494,"experiment":7495,"raft":7496,"ĠMPL":7497,"ĠConst":7498,"ignKey":7499,"ĠProcess":7500,"ĠAuthors":7501,"Ġorigin":7502,"Ġgood":7503,"[^":7504,"gin":7505,"ationWarning":7506,"clar":7507,"ANG":7508,"ä¸ĭ":7509,"ĠParse":7510,"Ġtables":7511,"optimize":7512,"Descript":7513,"Ġissue":7514,"One":7515,"Ġpi":7516,"Ġlr":7517,"ĠVer":7518,"cleanup":7519,"bosity":7520,"Sample":7521,"Ġsb":7522,"Ġlin":7523,"Ġrtol":7524,"ABu":7525,"'''":7526,"jobs":7527,"ĠThere":7528,"definition":7529,"workflow":7530,"lenium":7531,"Ġcursor":7532,"Hypothesis":7533,"Ã©":7534,"metry":7535,"Ġdescri":7536,"ĠFilter":7537,"Ġstill":7538,"ĠRequired":7539,"argin":7540,"serializers":7541,"marker":7542,"ä¸Ģä¸ª":7543,"Axes":7544,"è¦ģ":7545,"wikipedia":7546,"Ġattemp":7547,"Params":7548,"fixtures":7549,"Ġserializers":7550,"poly":7551,"MD":7552,"ertificate":7553,"Ġinitialize":7554,"Pol":7555,"UI":7556,"hour":7557,"compare":7558,"logy":7559,"aving":7560,"duction":7561,"van":7562,"Ð½":7563,"istration":7564,"Ġaddr":7565,"Gets":7566,"Ġplease":7567,"Ġhyper":7568,"Ġsecret":7569,"Proto":7570,"Ġutilities":7571,"ENDPOINT":7572,"embeddings":7573,"todo":7574,"CU":7575,"ially":7576,"Ġmade":7577,"haz":7578,"Ġselection":7579,"background":7580,"foobar":7581,"Ġtransport":7582,"'.<":7583,"Wait":7584,"ĠCan":7585,"Ġgpytorch":7586,"Ġstored":7587,"Ġexact":7588,"currency":7589,"Ġruns":7590,"Ġmanual":7591,"IncrementalEncoder":7592,"ĠUpdate":7593,">#:":7594,"ĠSign":7595,"ĠTF":7596,"ĠHead":7597,"Ġrot":7598,"area":7599,"othing":7600,"Ġinterval":7601,"Of":7602,"au":7603,"Ġround":7604,"folio":7605,"Ġpredictions":7606,"71":7607,"Please":7608,"uix":7609,"vt":7610,"onic":7611,"Ġ\"{}":7612,"Ġregular":7613,"Ġhello":7614,"Ġ---<":7615,"Classification":7616,"Ġrepresents":7617,"VALUE":7618,"Ġtd":7619,"Ġcloud":7620,"Ġmight":7621,"ĠAction":7622,"Ġthree":7623,"props":7624,"wav":7625,"STORAGE":7626,"filesystem":7627,"Ġwebsocket":7628,"Ġselected":7629,"mkdir":7630,"Ġterminal":7631,"Op":7632,"machine":7633,"ros":7634,"gether":7635,"lide":7636,"launch":7637,"ĠĠĠĠĠĠĠĠĠĠĠĠĠĠĠĠĠĠĠĠĠĠĠĠĠĠĠĠĠĠĠĠĠĠĠĠĠ":7638,"days":7639,"ĠOSError":7640,"eng":7641,"Ġactor":7642,"testutils":7643,"ĠDatabase":7644,"blank":7645,"Ġdemonstrates":7646,"ĠAUTHORS":7647,"NLP":7648,"sr":7649,"abstract":7650,"ĠPh":7651,"episode":7652,"blocks":7653,"zeug":7654,"Ġrepresenting":7655,"ingerprint":7656,")\")<":7657,"BIN":7658,"bold":7659,"inel":7660,"ĠAS":7661,"ĠDoc":7662,"issue":7663,"Ġconsider":7664,"flatten":7665,"kzeug":7666,"Ġ'#":7667,"Ġdemo":7668,"()):<":7669,"ĠBlock":7670,"Ġsolid":7671,"Signal":7672,":]":7673,"setting":7674,"opensource":7675,"ĠNOTE":7676,"cookies":7677,"uit":7678,"Ġsparse":7679,"Ġsheet":7680,"Ġdevelopment":7681,"interfaces":7682,"Short":7683,"room":7684,"Ġll":7685,"timedelta":7686,"Ġidentity":7687,"chunks":7688,"sired":7689,"æİ":7690,"Ġ,":7691,"ĠTri":7692,"trigger":7693,"Ġgame":7694,"Ġthose":7695,"resize":7696,"ĠOptim":7697,"Ġeval":7698,"ĠRaise":7699,"matcher":7700,"ĠExtension":7701,">`_":7702,"Works":7703,"mix":7704,"panel":7705,"yal":7706,"Ġcal":7707,"Ġrv":7708,"ĠFoo":7709,"ĠVector":7710,"ICATION":7711,"ynomial":7712,"UNK":7713,"Ġtransformers":7714,"Dir":7715,"Num":7716,"Skip":7717,"mixin":7718,"}')<":7719,"Ġgu":7720,"ĠOver":7721,"Ġsomething":7722,"/\",":7723,">{":7724,"ah":7725,"fun":7726,"standard":7727,"meg":7728,"Ġprivate":7729,"Ġscene":7730,"Ġworkflow":7731,"033":7732,"Ġincremental":7733,"td":7734,"Ġmaster":7735,"ĠKeyVault":7736,"Ġfailure":7737,"!!":7738,"mas":7739,"seg":7740,"icate":7741,"Ġmd":7742,"figsize":7743,"ĠGoogle":7744,"ansible":7745,"waitable":7746,"widgets":7747,"IZER":7748,"gray":7749,"ired":7750,"å¹":7751,"ario":7752,"Ġfalcon":7753,"estion":7754,"Ġanswer":7755,"celery":7756,"Ġassociated":7757,"'^":7758,"Av":7759,"timer":7760,"Ġasset":7761,"ĠNew":7762,"Ġhatch":7763,"Ġ21":7764,"Child":7765,"topics":7766,"Ġtmpdir":7767,"origin":7768,"Ġspeed":7769,"Has":7770,"Single":7771,"ĠCloud":7772,"ection":7773,"MAC":7774,"graphene":7775,"websocket":7776,"stdin":7777,"Ġtuples":7778,"dp":7779,"priority":7780,"tic":7781,"lish":7782,"isf":7783,"Ġbackground":7784,"uplicate":7785,"`.":7786,"cancel":7787,"dynamic":7788,"mpeg":7789,"Ġsanic":7790,"Ġinf":7791,"__).":7792,"Unknown":7793,"Ġmatching":7794,"Ġsummary":7795,"Ġsteps":7796,"Ġlinks":7797,"Ġconditions":7798,"LR":7799,"ern":7800,"Unless":7801,"Double":7802,"81":7803,"Ġ\"'":7804,"under":7805,"lier":7806,"ĠCl":7807,"Ġnothing":7808,"Product":7809,"Ġui":7810,"Results":7811,"speed":7812,"½æķ°":7813,"dedent":7814,"iguous":7815,"ptr":7816,"owsup":7817,"avg":7818,"Ġshare":7819,"COVER":7820,"Ġpartition":7821,"contextmanager":7822,"Ġchanged":7823,"iecut":7824,"ftime":7825,"Ġyear":7826,"nsure":7827,"logical":7828,"Ġopenage":7829,"Selector":7830,"Created":7831,"Bl":7832,"EC":7833,"squ":7834,"Ġsy":7835,"ĠMax":7836,"tri":7837,"ĠWorld":7838,"ĠStart":7839,"existing":7840,"andidates":7841,"Bus":7842,"Use":7843,"tl":7844,"Ġrepro":7845,"ula":7846,"Ġexpand":7847,"flush":7848,"Transport":7849,"Ġdelta":7850,"vd":7851,"anis":7852,"Ġdeploy":7853,"ASK":7854,"ESSAGE":7855,"lify":7856,"itecture":7857,">\"<":7858,"sizes":7859,"answer":7860,"formatter":7861,"Ġiterable":7862,"sqlite":7863,"guide":7864,"ĠFlask":7865,"detail":7866,"lembic":7867,"Ġhistory":7868,"ĠPLAT":7869,"andbox":7870,"ĠGPU":7871,"inite":7872,"ICS":7873,"Ġconfigured":7874,"Ġlists":7875,"Ġgeneral":7876,"Ġauthentic":7877,"hooks":7878,"PYTHON":7879,"DULE":7880,"LazyTensor":7881,"ov":7882,"virtual":7883,"åĴĮ":7884,"orer":7885,"Ġalias":7886,"ragment":7887,"indent":7888,"Parallel":7889,"ĠĠĠĠĠĠĠĠĠĠĠĠĠĠĠĠĠĠĠĠĠĠĠĠĠĠĠĠĠĠ":7890,"autograd":7891,"avi":7892,"operation":7893,"pause":7894,"oring":7895,"Ġinherit":7896,"Ġalong":7897,"nets":7898,"actual":7899,"crets":7900,"Ġhostname":7901,"Hash":7902,"ares":7903,"roken":7904,"classification":7905,"ĠPO":7906,"amil":7907,"Ġnose":7908,"Ġdocutils":7909,"encoded":7910,"Worker":7911,"ĠOnly":7912,"CF":7913,"Mask":7914,"distribution":7915,"xp":7916,"UNCT":7917,"postgres":7918,"ĠAsyncMock":7919,"threads":7920,"Temporary":7921,">``":7922,"?://":7923,"bits":7924,"dst":7925,"vest":7926,"Ġfname":7927,"Ġsets":7928,"vie":7929,"\")[":7930,"StringIO":7931,"Ġlbry":7932,"KER":7933,"mi":7934,"}\"":7935,"ĠAx":7936,"ĠAZURE":7937,"verbose":7938,"ĠPool":7939,"screen":7940,"trials":7941,"Endpoint":7942,"TINGS":7943,"IME":7944,"Ne":7945,"¦Ĥ":7946,"Ġfe":7947,"Ġdefer":7948,"Ġ28":7949,"logo":7950,"ikit":7951,"Fl":7952,"Ĥ¹":7953,"Ġtortoise":7954,"Ġmu":7955,"Ġanaly":7956,"Ġthreshold":7957,"Ġproc":7958,"Converter":7959,"flict":7960,"HttpResponse":7961,"TreeNode":7962,"NOWN":7963,"rdfvalues":7964,"criminator":7965,"iecutter":7966,"Bool":7967,"[...,":7968,"Ġaudio":7969,"ĠFrom":7970,"Ġep":7971,"Ġsuppress":7972,"owner":7973,"dicts":7974,"Ġdouble":7975,"Ġreading":7976,"incip":7977,"Install":7978,"Descriptor":7979,"${":7980,">################################":7981,"LER":7982,"ming":7983,"Ġyet":7984,"compress":7985,"matches":7986,"disabled":7987,"arest":7988,"cpus":7989,"ĠLibrary":7990,"Password":7991,"Cor":7992,"circle":7993,"Ġ\")<":7994,"Ġwriter":7995,"Ġwindows":7996,"umbn":7997,"hared":7998,"numbers":7999,"Std":8000,"ANCE":8001,"discovery":8002,"Ġnecessary":8003,"Detail":8004,"umbnail":8005,"erkzeug":8006,"imize":8007,"Ġspider":8008,"slt":8009,"Ġutility":8010,"ĠIndividual":8011,"MagicMock":8012,"Null":8013,"Rob":8014,"anity":8015,"ensim":8016,"cording":8017,"Ġblocks":8018,"Spider":8019,"bitrary":8020,"åĩº":8021,"ĠEntity":8022,"atial":8023,"Ġbs":8024,"coverage":8025,"Ġscores":8026,"999":8027,"Div":8028,"ony":8029,"rosa":8030,"utation":8031,"lopen":8032,"ably":8033,"Ġ[]":8034,"ooey":8035,"ĠEN":8036,"Ġvul":8037,"Stage":8038,"CACHE":8039,"Ġperformance":8040,"Constants":8041,"ÑĢ":8042,"dep":8043,"lemetry":8044,"Ġ(-":8045,"uses":8046,"oooo":8047,"ĠĠĠĠĠĠĠĠĠĠĠĠĠĠĠĠĠĠĠĠĠĠĠĠĠĠĠĠĠĠĠ":8048,"([^":8049,"secure":8050,"GTH":8051,"IA":8052,"iq":8053,"ctic":8054,"urnament":8055,"ĠMes":8056,"Ġdecoder":8057,"Ġxrange":8058,"readthedocs":8059,"URN":8060,"Change":8061,"Ġredash":8062,"instances":8063,"Ġpatterns":8064,"hazmat":8065,"CLO":8066,"Ter":8067,"acer":8068,"annotations":8069,"æĪĲ":8070,"collections":8071,":\",":8072,"Facade":8073,"MT":8074,"Unsupported":8075,"rr":8076,"}'<":8077,"Ġsq":8078,"Ġbus":8079,"Ġhaystack":8080,"izable":8081,"INST":8082,"Ġcost":8083,"ventions":8084,"RECT":8085,"Properties":8086,"Ġtrigger":8087,"expectation":8088,"åĪ°":8089,"è¿Ľ":8090,"assette":8091,"Location":8092,"las":8093,"xs":8094,"Ġcr":8095,"profiles":8096,"ookie":8097,"Enter":8098,"aking":8099,"Ġprocessing":8100,"Ġchunks":8101,"Ġembedding":8102,"CONNECTION":8103,"bootstrap":8104,"bet":8105,"è§":8106,"Ġpdf":8107,"ĠSample":8108,"Ġcodec":8109,"ĠPyTorch":8110,"Ġ\"\",":8111,"chars":8112,"Ġdevtools":8113,"ĠApple":8114,"-{":8115,"boost":8116,"Ġ()<":8117,"forge":8118,"ĠFloat":8119,"validators":8120,"corpus":8121,"dimension":8122,"Sequential":8123,"limiter":8124,"raints":8125,"Ġeasy":8126,"HypothesisWorks":8127,"Fin":8128,"best":8129,"gree":8130,"mobject":8131,"wsgi":8132,"enario":8133,"Ġobservation":8134,"Ġ80":8135,"Ġauthors":8136,"åĮĸ":8137,"Ġ\"..\",":8138,"Fixture":8139,">=":8140,"LAY":8141,"neg":8142,"Ġbrowser":8143,"riend":8144,"agne":8145,"daemon":8146,"Ġopts":8147,"ĠComple":8148,"visor":8149,"........":8150,"-----------------------------------------------------------------------------<":8151,"Vector":8152,"kv":8153,"must":8154,"Ġ}":8155,"Ġtutorial":8156,"(\"#":8157,"Ġ23":8158,"CHAN":8159,"Ġ500":8160,"AMD":8161,"keras":8162,"Ġdirection":8163,"mq":8164,"mart":8165,"rich":8166,"æĶ":8167,"incre":8168,"Ġsyntax":8169,"codings":8170,"absolute":8171,"Ġstrip":8172,"hoice":8173,"dispatch":8174,"TERN":8175,"ĠArguments":8176,"andidate":8177,"STATUS":8178,">):":8179,"Clip":8180,"means":8181,"otonic":8182,"isson":8183,"ulk":8184,"olation":8185,"pypi":8186,"Ġyowsup":8187,"backward":8188,"Ġiterator":8189,"relation":8190,"Ġllnl":8191,"LIN":8192,"here":8193,"pow":8194,"æĮ":8195,"ATOR":8196,"regular":8197,"responses":8198,"Ġstarting":8199,"Ġscheme":8200,"Ġquant":8201,"Ġsqlite":8202,"Ġencoded":8203,"Ġcaplog":8204,"Ġjupytext":8205,"reverse":8206,"stim":8207,"lies":8208,"adapt":8209,"extractor":8210,"notification":8211,"regression":8212,"OPEN":8213,"Ġaccuracy":8214,"ĠAPIs":8215,"asurement":8216,"separ":8217,"details":8218,"Ġnegative":8219,"unload":8220,"ĠLayout":8221,"ocial":8222,"Ġ{{":8223,"Ġunits":8224,"ĠHash":8225,"runc":8226,"ĠLogger":8227,"åĩ½æķ°":8228,"FLAGS":8229,"\"><":8230,"BB":8231,"cnt":8232,"Ġer":8233,"deprec":8234,"trins":8235,"Ġdeque":8236,"Ġitself":8237,"Ġknow":8238,"LEV":8239,"mtree":8240,"latex":8241,"Sets":8242,"sampledata":8243,"BUILD":8244,"ierarch":8245,"\\'\"]":8246,"Optimizer":8247,"ç¬":8248,"Ġsock":8249,"opper":8250,"Ġsetattr":8251,"manual":8252,"Ġteam":8253,"']['":8254,"Ġsensors":8255,"FORMAT":8256,"guard":8257,"Condition":8258,"ĠEDIT":8259,"ĠRule":8260,"ĠProduct":8261,"\")])<":8262,"Seg":8263,"TS":8264,"WOR":8265,"ĠCli":8266,"Ġexperiment":8267,"ĠGlobal":8268,"Ġregression":8269,"subclass":8270,"accounts":8271,"translator":8272,"Distribution":8273,"Ver":8274,"Ġfront":8275,"ĠSU":8276,"ggle":8277,"Ġcalling":8278,"Ġresponses":8279,"compatible":8280,"Ġblank":8281,"512":8282,"gateway":8283,"rep":8284,"ali":8285,"Ġcar":8286,"Ġimported":8287,"Ġsmo":8288,"etc":8289,"Ġ512":8290,"Ġids":8291,"Implementation":8292,"Permission":8293,"ç½®":8294,"1024":8295,"Home":8296,"uk":8297,"Ġretry":8298,"Ġbucket":8299,"astic":8300,"REAM":8301,"ĠDev":8302,"ĠJob":8303,"Ġformatter":8304,"ĠTeam":8305,"legend":8306,".)<":8307,"MULT":8308,"å·":8309,"Ġbegin":8310,"ĠBar":8311,"agraph":8312,"ĠConnect":8313,"Ġprime":8314,"ymmetric":8315,"Ġidentify":8316,"Ġescape":8317,"activate":8318,"dropout":8319,"ĠExtractorError":8320,"Row":8321,"dag":8322,"sampler":8323,"stmt":8324,"idy":8325,"upload":8326,"until":8327,"ordered":8328,"Ġparameterized":8329,"ĠSubscription":8330,"Renderer":8331,"Ġautosklearn":8332,"?)":8333,"Mult":8334,"Ã¤":8335,"algorithm":8336,"lour":8337,"pts":8338,"Ġdelay":8339,"resp":8340,"Ġ:,":8341,"subject":8342,"realpath":8343,"ĠTimestamp":8344,"Ġrules":8345,"ios":8346,"ĠAwaitable":8347,"proval":8348,"Ġprec":8349,"placeholder":8350,"records":8351,"volume":8352,"Ġpick":8353,"Ġduration":8354,"Ġhard":8355,"apped":8356,"Ġscreen":8357,"Ġstreamalert":8358,"epochs":8359,"Ġcalculate":8360,"requirements":8361,"è¾ĵ":8362,")*":8363,"Light":8364,"çĤ¹":8365,"aps":8366,"Ġconcat":8367,"Ġ24":8368,"ĠKE":8369,"noise":8370,"integers":8371,"Ġindividual":8372,"Ġprediction":8373,"ymlink":8374,"direction":8375,"ovid":8376,"Ġtre":8377,"alog":8378,"icular":8379,"Ġnested":8380,"Ġwerkzeug":8381,"construct":8382,"oclient":8383,"SERVER":8384,"camera":8385,"miko":8386,"square":8387,"Ġamount":8388,"trip":8389,"ĠHas":8390,"Ġupper":8391,"Ġordered":8392,"RESULT":8393,"Role":8394,"çĲ":8395,"Ġcmap":8396,"Ġconversion":8397,"Ġ</":8398,"OTO":8399,"MOCK":8400,"antiate":8401,",))<":8402,"Failure":8403,"alignment":8404,"isco":8405,"ationship":8406,"Ġcos":8407,"uess":8408,"Ġinterfaces":8409,"KeyCredential":8410,"Ġoverwrite":8411,"Allow":8412,"Ġconverted":8413,"Ġwanted":8414,"Ġactivation":8415,"px":8416,"Ġslow":8417,"Ġmakes":8418,"Ġ()":8419,"Ġdesired":8420,"trainer":8421,"Ġtrainer":8422,"ĠWorksheet":8423,"Ġfilters":8424,"Length":8425,"FS":8426,"JS":8427,"cdf":8428,"é¢":8429,"ĠStyle":8430,"ĠGit":8431,"Ġselenium":8432,"ensity":8433,"preview":8434,"sklearn":8435,"Ġcookie":8436,"0123456789":8437,"Predict":8438,"Pipe":8439,"Send":8440,"VID":8441,"dr":8442,"dask":8443,"fm":8444,"Ġcamera":8445,"igure":8446,"iful":8447,"ĠUnivers":8448,"EDURES":8449,"Assign":8450,"åĪĹ":8451,"autiful":8452,"Ġclosed":8453,"PROCEDURES":8454,"ĠSOURCE":8455,"incipal":8456,"MM":8457,"MY":8458,"}'":8459,"Ġpa":8460,"Ġpaper":8461,"posed":8462,"Ġkeras":8463,"domains":8464,"Ġslice":8465,"Ġdetection":8466,"Ġzipfile":8467,"diagnostics":8468,"DEFINE":8469,"Ġweakref":8470,"setLevel":8471,"Ġ22":8472,"Ġrgb":8473,"inity":8474,"ĠRemove":8475,"pie":8476,"manifest":8477,"InfoExtractor":8478,"Ġsentences":8479,"æŀľ":8480,"Ġrect":8481,"Ġbenchmark":8482,"Ġrm":8483,"arts":8484,"Pointer":8485,"ond":8486,"asing":8487,"Ġpid":8488,"Ġsur":8489,"ĠNe":8490,"Ġselector":8491,"Ġ400":8492,"StreamReader":8493,"assertIsInstance":8494,"çº¿":8495,"ĠHeaders":8496,"10000":8497,"DING":8498,"Split":8499,"void":8500,"Ġlazy":8501,"Ġarea":8502,"specs":8503,"Select":8504,"ĠYAML":8505,"evaluate":8506,"Fast":8507,"OF":8508,"RAN":8509,"TC":8510,"wheel":8511,"Ġdynamic":8512,"Conan":8513,"servations":8514,"MEDI":8515,"Ġzone":8516,"StreamWriter":8517,"ĠTemp":8518,"Ġlookup":8519,"Embedding":8520,"ç®Ĺ":8521,"Style":8522,"tract":8523,"Ġcb":8524,"ilation":8525,"parsing":8526,"usic":8527,"ookup":8528,"Ġappe":8529,"Ġactually":8530,"loyment":8531,"MESSAGE":8532,"vul":8533,"ĥı":8534,"Ġsquare":8535,"ĠSorted":8536,"ĠAL":8537,"filer":8538,"Ġloading":8539,"Ġcleanup":8540,"UPDATE":8541,"MakefilePackage":8542,"BLE":8543,"Keys":8544,"flat":8545,"jo":8546,"may":8547,"menu":8548,"}\",":8549,"Ġcran":8550,"Ġredis":8551,"Ġma":8552,"ĠNa":8553,"ands":8554,"ENTRY":8555,"notpip":8556,"ipynb":8557,"ĠCallback":8558,"Ġdirname":8559,"Validator":8560,"Empty":8561,"hat":8562,"Ġti":8563,"ĠLock":8564,"olume":8565,"ĠDNS":8566,"Ġratio":8567,"grams":8568,"Ġlocale":8569,"Port":8570,"ĠCor":8571,"ĠMin":8572,"Ġgluon":8573,"ĠOther":8574,"åĽŀ":8575,"Axis":8576,"REQUEST":8577,"ĠBinarySensor":8578,"Ġcopied":8579,"OM":8580,"VIS":8581,"mirror":8582,"ç§":8583,"attern":8584,"Ġproperly":8585,"igrate":8586,"åıĤ":8587,"magic":8588,"IOR":8589,"Note":8590,"Tra":8591,"xl":8592,"outube":8593,"Ġjinja":8594,"groupby":8595,"posix":8596,"Ġlibraries":8597,"Component":8598,"Ġthreads":8599,"ExprId":8600,"METHO":8601,"NC":8602,"ags":8603,"payment":8604,"unix":8605,"Ġlit":8606,"Ġcontroller":8607,"ĠDense":8608,"Ġexclude":8609,"ĠBasic":8610,"assertNot":8611,"ĠDictionary":8612,"Ġ${":8613,"DeviceClass":8614,"ADDRESS":8615,"Alert":8616,"Email":8617,"large":8618,"åĥı":8619,"Ġmime":8620,"ĠSci":8621,"ĠDet":8622,"('_":8623,"']:<":8624,"Alchemy":8625,"Stats":8626,"Ġhandles":8627,"æłĩ":8628,"æµĭ":8629,"Font":8630,"LONG":8631,"ä¾":8632,"Ġreward":8633,"otion":8634,"ĠLanguage":8635,"Ġtodo":8636,"imitive":8637,"Ġimplementations":8638,"streams":8639,"Ġcompatible":8640,"dependent":8641,"Ġbinascii":8642,"ACCESS":8643,"Domain":8644,"]]:<":8645,"ji":8646,"Ġcer":8647,"amo":8648,"Remove":8649,"listdir":8650,"isect":8651,"Conf":8652,"manage":8653,"Ġdoctest":8654,"locale":8655,">============":8656,"Clean":8657,"IFI":8658,"Monitor":8659,"UD":8660,"boolean":8661,"igital":8662,"Ġhub":8663,"authors":8664,"Ġspacy":8665,"Ġminimum":8666,"Ġqueryset":8667,"ĠColumnDataSource":8668,"Ġlegend":8669,".'<":8670,"Loop":8671,"ĠSkip":8672,"abort":8673,"ĠPage":8674,"Ġgradient":8675,"ITUDE":8676,"callable":8677,"wrapped":8678,"patches":8679,"Ġ\"/\".":8680,"Ġndarray":8681,"Dat":8682,"Video":8683,"atisf":8684,"ctypes":8685,"ĠMonitor":8686,"hole":8687,"Delete":8688,"leted":8689,"tempdir":8690,"visual":8691,"Ġoptimization":8692,"Ġevaluate":8693,"Ġspeechbrain":8694,"Missing":8695,"distributions":8696,"frozen":8697,"rat":8698,"inp":8699,"Ġrecomm":8700,"peg":8701,"ĠCur":8702,"ĠAgent":8703,"ama":8704,"ĠRGB":8705,"quival":8706,"Ġincludes":8707,"OUTPUT":8708,">\"":8709,"Doc":8710,"assign":8711,"()).":8712,"Ġobs":8713,"ĠURI":8714,"attery":8715,"Ġè":8716,"andit":8717,"program":8718,"ĠBot":8719,"ailability":8720,"pired":8721,"Ġatol":8722,"Regression":8723,"Ġfails":8724,"åº¦":8725,"ublisher":8726,"ĠKEY":8727,"Media":8728,"pod":8729,"Ñģ":8730,"alm":8731,"urity":8732,"isdir":8733,"ĠUTF":8734,"Serial":8735,"NAMES":8736,"Ġacross":8737,"Ġformatting":8738,"Ġ\\\\":8739,"ĠResult":8740,"Ġ{},":8741,"Ġshows":8742,"QUE":8743,"ĠMetrics":8744,"Ġmkdir":8745,"Evalu":8746,"cum":8747,"pull":8748,"rome":8749,"esser":8750,"Ġ\"{}\".":8751,"setitem":8752,"Standard":8753,"REG":8754,"Ġdisk":8755,"LOB":8756,"Ġless":8757,"USAGE":8758,"INTER":8759,"Ġfilenames":8760,"Ġreceive":8761,"Ġblocking":8762,"ĠQtCore":8763,"ĠMOCK":8764,"Body":8765,"fan":8766,"Ġ),":8767,"onical":8768,"exog":8769,"oney":8770,"ĠBenchmark":8771,"Ġjobs":8772,"Ġtorchvision":8773,"Ġparticular":8774,"Ġseparate":8775,"600":8776,"Dist":8777,"RAY":8778,"ĥ½":8779,"definitions":8780,"Ġden":8781,"ĠSIM":8782,"contain":8783,"0001":8784,"ypoint":8785,"formats":8786,"Ġalgorithms":8787,"Ġaccording":8788,"Ġflake":8789,"ĠMultiIndex":8790,"activity":8791,"ĠValidationError":8792,"itespace":8793,"ĠGPLv":8794,"Shell":8795,"bg":8796,"dcc":8797,"yy":8798,"ĠPRO":8799,"theta":8800,"similar":8801,">================================":8802,"fpn":8803,"ĠNamedTuple":8804,"çĲĨ":8805,"Boolean":8806,"Rout":8807,"åŀ":8808,"sender":8809,"oment":8810,"ople":8811,"ĠWS":8812,"indexes":8813,"ĠAsset":8814,"HEADER":8815,"Bottom":8816,")/":8817,"GEN":8818,"SIG":8819,"operator":8820,"qon":8821,"des":8822,"ĠDistributed":8823,"Ġpydantic":8824,"month":8825,"Ġshapely":8826,"SSH":8827,"Ġcertificate":8828,"LENGTH":8829,"capture":8830,"æŃ":8831,"çł":8832,"Ġ'{}":8833,"conventions":8834,"ĠWindow":8835,"Ġintegers":8836,"Adapter":8837,"Func":8838,"Dictionary":8839,"installed":8840,"utcnow":8841,"Ġoccur":8842,"/',":8843,"OB":8844,"åī":8845,"ç¤":8846,"Ġboolean":8847,"formdata":8848,"Ġfilepath":8849,"ĠWRITE":8850,"moize":8851,"Ġkit":8852,"upyter":8853,"SUPPORT":8854,"ĠColumnMap":8855,"anticore":8856,"Ġedges":8857,"ĠSqlmap":8858,"ĠRESULT":8859,"Answer":8860,"ued":8861,"roker":8862,"Ġaggreg":8863,"Ġ\"(":8864,"Ġdns":8865,"amel":8866,"iders":8867,"ĠMachine":8868,"ĠRemote":8869,"Ġcompile":8870,"Enable":8871,"Generate":8872,"styles":8873,"Ġbetter":8874,"marizer":8875,"Ġschedule":8876,"await":8877,"dll":8878,"tex":8879,"unsqueeze":8880,"Ġhc":8881,"ĠOAuth":8882,"ĠEach":8883,"Ġrespon":8884,"matmul":8885,"fixed":8886,"Ġcheckout":8887,"UTF":8888,"2013":8889,"Scale":8890,"aloader":8891,"ĠCliRunner":8892,"ĠUniversity":8893,"mime":8894,"Ġps":8895,"Ġrecogn":8896,"Ġselfdrive":8897,"Ġdocker":8898,"ilon":8899,"ĠLight":8900,"that":8901,"consumer":8902,"ĠPAT":8903,"imread":8904,"Ġthings":8905,"gradi":8906,"Ġapplied":8907,"2012":8908,"Ġtokenizer":8909,"äº¤":8910,"åŃĲ":8911,"LOCATION":8912,"ighbors":8913,"XT":8914,"bp":8915,"oper":8916,"ĠSwitch":8917,"ĠLink":8918,"getcwd":8919,"ĠPoint":8920,"Ġconflict":8921,"Remote":8922,"ĠGu":8923,"ĠOption":8924,"pretrained":8925,"Ġformats":8926,"Ġheap":8927,"AddField":8928,"Ġconnected":8929,"BatchNorm":8930,"Integration":8931,"æ³ķ":8932,"åŀĭ":8933,":\")<":8934,"Benchmark":8935,"Pos":8936,"VT":8937,"ĠPart":8938,"ĠFROM":8939,"runer":8940,"legacy":8941,"identifier":8942,"AX":8943,"Fake":8944,"Sum":8945,"such":8946,"æ¯":8947,"iline":8948,"ĠCover":8949,"Ġcodes":8950,"clus":8951,"ĠExp":8952,"encrypt":8953,"Ġlex":8954,"Transl":8955,"platforms":8956,"svg":8957,"releases":8958,"ĠMetric":8959,"REQUI":8960,"ĠVisual":8961,"((\"":8962,"/*":8963,"Router":8964,"hint":8965,"wal":8966,"Ġremain":8967,"ĠIdent":8968,"futures":8969,"Ġloads":8970,"quirement":8971,"ĠGraphene":8972,"indsdb":8973,"Sync":8974,"Syntax":8975,"Ġ}}":8976,"Ġcapture":8977,"izations":8978,"Ġstar":8979,"Ġ::":8980,"angles":8981,"Ġ%%":8982,"locals":8983,"ĠManagement":8984,"WARNING":8985,"ĠCreated":8986,"PA":8987,"stable":8988,"tras":8989,"Repository":8990,"lying":8991,"Ġscm":8992,"Ġbehave":8993,"Ġgeneric":8994,"CEP":8995,"leton":8996,"Redirect":8997,"Ġexecuted":8998,"variance":8999,"levant":9000,"ĠMeson":9001,">'<":9002,"Multiple":9003,"Scan":9004,"TOP":9005,"retry":9006,"ĠTree":9007,"classifier":9008,"ĠPower":9009,"Ġdeserializer":9010,"ĠFeature":9011,"listen":9012,"Ġorg":9013,"rown":9014,"poll":9015,"Ġlooking":9016,"Ġdropout":9017,"ĠFlowResult":9018,"hy":9019,"ners":9020,"zh":9021,"heap":9022,"construction":9023,"backup":9024,"aily":9025,"OPTIONS":9026,"authentic":9027,"Ġmanage":9028,"tuples":9029,"visit":9030,"æľ¬":9031,"digits":9032,"Ġhighlight":9033,"ĠArgumentParser":9034,"/'<":9035,"hr":9036,"vim":9037,"Ġservices":9038,"animation":9039,"Ġunknown":9040,"ypedDict":9041,"sca":9042,"shipping":9043,"Ġenc":9044,"Parameters":9045,"detection":9046,"\"^":9047,"IPE":9048,"mnist":9049,"Ġut":9050,"ĠStop":9051,"libx":9052,"Ġchildren":9053,"edges":9054,"duces":9055,"LEVEL":9056,"Segment":9057,"broadcast":9058,"ipython":9059,"ku":9060,"ric":9061,"viz":9062,"retrie":9063,"enate":9064,"Ġprocesses":9065,"ports":9066,"readline":9067,"prepare":9068,"egacy":9069,"ĠParameter":9070,"PPING":9071,"ACCOUNT":9072,"Scheduler":9073,"\"},":9074,"kes":9075,"lice":9076,"Ġ])<":9077,"arwin":9078,"mesh":9079,"strategies":9080,"Ġhapp":9081,"Ġlaz":9082,"forecast":9083,"ĠDesc":9084,"rise":9085,"riate":9086,"observation":9087,"ĠWhether":9088,"workspace":9089,"logits":9090,"calling":9091,"need":9092,"wraps":9093,"propriate":9094,"ifacts":9095,"dom":9096,"lens":9097,"paper":9098,"decoding":9099,"Ġ\"$":9100,"ĠLiteral":9101,"initialize":9102,"ĠExternal":9103,"integr":9104,"Ġpairs":9105,"kt":9106,"negative":9107,"analytics":9108,"entropy":9109,"resolver":9110,"take":9111,"ĠRUN":9112,"ĠDataLoader":9113,"hosts":9114,"ĠCollection":9115,"ĠTimedelta":9116,"armup":9117,"sigma":9118,"äºİ":9119,"åŃĹ":9120,"ABCMeta":9121,"Ġaioclient":9122,"avier":9123,"microsoft":9124,"pn":9125,"tility":9126,"Ġaverage":9127,"unpack":9128,"idence":9129,"versed":9130,"Ġdetermin":9131,"Ġpytorch":9132,"scrapy":9133,"Ins":9134,"pires":9135,"COMP":9136,"connector":9137,"SM":9138,"Top":9139,"olo":9140,"venv":9141,"Ġ]":9142,"atype":9143,"Ġbug":9144,"ĠCore":9145,"ĠSn":9146,"ocus":9147,"Ġdetail":9148,"ĠFore":9149,"compose":9150,"prev":9151,"STER":9152,"ĠExpectation":9153,"legate":9154,"IBUT":9155,"amount":9156,")],<":9157,"Fairseq":9158,"NULL":9159,"bt":9160,"eff":9161,"iloc":9162,"syntax":9163,"onal":9164,"Ġaio":9165,"Ġcmake":9166,"Ġsr":9167,"Ġ\"*":9168,"Ġxy":9169,"Ġsess":9170,"lobals":9171,"ALLOW":9172,"graphics":9173,"lette":9174,"Define":9175,"TeX":9176,"Ġfollows":9177,"COMMA":9178,"Cloud":9179,"Drop":9180,"Ġtol":9181,"ully":9182,"etree":9183,"combin":9184,"questions":9185,"house":9186,"ĠSimTypeInt":9187,"PLAY":9188,"Ġglobals":9189,"Ð¾Ð":9190,"SYSTEM":9191,"Vim":9192,"[<":9193,"clock":9194,"java":9195,"uation":9196,"ĠAb":9197,"contin":9198,"Ġgt":9199,"scr":9200,"Ġproduce":9201,"Ġcols":9202,"Ġrefresh":9203,"Ġregistered":9204,"speech":9205,"BytesIO":9206,"planes":9207,"AlterField":9208,")],":9209,"^{":9210,"sam":9211,"å¿":9212,"ora":9213,"uting":9214,"peech":9215,"strument":9216,"odb":9217,"References":9218,"Controller":9219,"ĠProxy":9220,"Ġannotation":9221,"zerver":9222,"cases":9223,"ä»¶":9224,"LOCAL":9225,"Ġcycle":9226,"WINDO":9227,"Draw":9228,"Popen":9229,"pa":9230,"ti":9231,"Ġcs":9232,"anit":9233,"Ġrec":9234,"Ġssh":9235,"Ġbits":9236,"Ġhit":9237,"ReLU":9238,"ĠHow":9239,"organ":9240,"weet":9241,"tsa":9242,"Ġlibrosa":9243,"Arg":9244,"Ġscripts":9245,"Soup":9246,"sur":9247,"zones":9248,"Ġdescriptor":9249,"Ġ+<":9250,"ĠUSER":9251,"indb":9252,"Ġzi":9253,"ĠBaseModel":9254,"Ġcupyx":9255,"ĠAlso":9256,"tracker":9257,"Ġaws":9258,"ĠCommunication":9259,"xxxxxxxx":9260,"quivalent":9261,"'}":9262,"TURN":9263,"aug":9264,"ball":9265,"ni":9266,"suggest":9267,"analysis":9268,"urnal":9269,"ĠDist":9270,"anshou":9271,"='+":9272,"ĠContent":9273,"Ġ2010":9274,"bins":9275,"MAPPING":9276,"bee":9277,"POS":9278,"visioning":9279,"handles":9280,"Ġblue":9281,"Asset":9282,"Ġperiods":9283,"Security":9284,"ĠPossible":9285,"Ġtkinter":9286,"ç¤º":9287,"Language":9288,"TENT":9289,"hparams":9290,"Ġadapt":9291,"urable":9292,"urther":9293,"STM":9294,"Ġalert":9295,"ESSION":9296,"Ġrecords":9297,"Ġexecutable":9298,"symbols":9299,"âķĲ":9300,"mic":9301,"rename":9302,"ĠGe":9303,"ĠRender":9304,"ĠWrap":9305,"Resolver":9306,"iterable":9307,"2014":9308,"ĠPathManager":9309,"structures":9310,"spection":9311,"SOCK":9312,"sigmoid":9313,"pairs":9314,"chaindb":9315,"!\"<":9316,"Category":9317,"GRO":9318,"stand":9319,"Ġtick":9320,"ĠCC":9321,"Ġlang":9322,"forandroid":9323,"ety":9324,"numeric":9325,"ĠSimTypeFunction":9326,"Ġtaken":9327,"ĠQtWidgets":9328,"certificate":9329,"glyph":9330,"ForeignKey":9331,"DeprecationWarning":9332,".\",":9333,"Linux":9334,"ev":9335,"anc":9336,"emit":9337,"ERY":9338,"Ġsequences":9339,"Ġappropriate":9340,"Ġchallenge":9341,"heads":9342,"ANS":9343,"GEX":9344,"Register":9345,"Ġmarkdown":9346,"Ġscalar":9347,"VimTest":9348,")\",":9349,"800":9350,"CES":9351,"Iq":9352,"Scal":9353,"unicorn":9354,"ĠTra":9355,"SED":9356,"ĠCONFIG":9357,"signals":9358,"blems":9359,"threading":9360,"crypto":9361,"ĠWRITEME":9362,".\"":9363,"Limit":9364,"èĩ":9365,"Ġflatten":9366,"ĠSca":9367,"Ġstrategy":9368,"Expect":9369,"ĠKnown":9370,"Listener":9371,"olds":9372,"Checker":9373,"IORITY":9374,"World":9375,"regs":9376,"Ġtx":9377,"isinstance":9378,"chool":9379,"ĠTop":9380,"Ġ[],<":9381,"ĠPost":9382,"ĠFu":9383,"Ġmaybe":9384,"Licensed":9385,"Art":9386,"Events":9387,"Ġcounts":9388,"ĠNamespace":9389,"predictor":9390,"clusive":9391,":])<":9392,"AttributeError":9393,"Find":9394,"GIN":9395,"Ġmagic":9396,"Ġtogether":9397,"conversion":9398,"ĠNormal":9399,"Ġ[{\"":9400,"ĠButton":9401,"minor":9402,"equals":9403,"Ġdisabled":9404,"MODULE":9405,"ĠDiscovery":9406,"Defaults":9407,">###":9408,"receive":9409,"Ġchoice":9410,"ucceeded":9411,"PG":9412,"UUID":9413,"_.":9414,"hist":9415,"rices":9416,"rmtree":9417,"zoo":9418,"å§":9419,"Ġcorpus":9420,"losing":9421,"defer":9422,"Ġinp":9423,"Ġdue":9424,"ĠSingle":9425,"ĠLazy":9426,"Ġ[{":9427,"ased":9428,"ĠImplement":9429,"Ġ----------------------------------------------------------------------------<":9430,"...<":9431,"ARGET":9432,"parsed":9433,"splitlines":9434,"datasource":9435,"Ġframes":9436,"Ġcallbacks":9437,"Ġarchive":9438,"duo":9439,"éĩı":9440,"both":9441,"follow":9442,"tb":9443,"Ġbold":9444,"isation":9445,"Ġisn":9446,"resolved":9447,"notation":9448,"Procedure":9449,"alect":9450,"ĠSetup":9451,"ĠMAX":9452,"ĠDatetime":9453,"today":9454,"Global":9455,"Kind":9456,"ycle":9457,"deserialize":9458,"ĠSyntax":9459,"getter":9460,"ocore":9461,"Ġgzip":9462,"ĠUsage":9463,"spawn":9464,"ConfigFlow":9465,"Ġable":9466,"ĠUnicode":9467,"DIRECT":9468,"Ġadjust":9469,"Ġtransformer":9470,"Ġslug":9471,"ĠQtGui":9472,"Ġkitty":9473,"HUB":9474,"Operator":9475,"Patch":9476,"ĠMult":9477,"traceback":9478,"Ġdebu":9479,"Ġnotification":9480,"ĠUsed":9481,"ĠWith":9482,"reamer":9483,"ereal":9484,"builds":9485,"ĠSimLibrary":9486,"Ġready":9487,"ViewSet":9488,"ĠMatplotlib":9489,"stages":9490,"Ġlatest":9491,"Choice":9492,"MB":9493,"categorical":9494,"family":9495,"reactor":9496,"orth":9497,"Ġcp":9498,"Ġmix":9499,"ĠCH":9500,"ading":9501,"ĠLesser":9502,"uper":9503,"ĠFI":9504,"Ġnotify":9505,"initializer":9506,"Ġclassification":9507,"ANY":9508,"Ġmarker":9509,"BINARY":9510,"Ġprecision":9511,"Raw":9512,"SING":9513,"Step":9514,"XY":9515,"]}<":9516,"hdf":9517,"wig":9518,"health":9519,">#-----------------------------------------------------------------------------<":9520,"Ġ'')<":9521,"ĠNet":9522,"\"])":9523,"submit":9524,"DOWN":9525,"Ġspaces":9526,"Ġidle":9527,"Ġmonitor":9528,"cycle":9529,"ĠLocation":9530,"ĠLearning":9531,"ĠSimCCStd":9532,"ĠSimCCStdcall":9533,"Ab":9534,"knowledge":9535,"}/{":9536,"åĻ":9537,"sess":9538,"accuracy":9539,"Ġwrong":9540,"codec":9541,"Ġfilesystem":9542,"ĠSettings":9543,"Ġserialize":9544,"grep":9545,"\\.)?":9546,"protocols":9547,"ĠPeriod":9548,"contiguous":9549,"çłģ":9550,"pick":9551,"walk":9552,"Ġ^":9553,"Ġmpl":9554,"sel":9555,"desk":9556,"Ġperson":9557,"Ġnyan":9558,"Ġmut":9559,"Ġmail":9560,"ĠTer":9561,"Ġ'\"":9562,"=\"/":9563,"angr":9564,"Ġtemporary":9565,"masked":9566,"catalog":9567,"Ġwebhook":9568,"Ġhandlers":9569,"æĺĵ":9570,"Ġrdfvalue":9571,"å¤§":9572,"ĠDeprec":9573,"Ġprobability":9574,"Iterator":9575,"Decimal":9576,"Received":9577,"OO":9578,"]{":9579,"crop":9580,"gc":9581,"}',":9582,"asgi":9583,"Ġfew":9584,"ĠLinux":9585,"ĠMutable":9586,"rian":9587,"pointer":9588,"attrib":9589,"Ġurls":9590,"transaction":9591,"Ġstarted":9592,"ificant":9593,"Ġstreams":9594,"feat":9595,"Ġreplacement":9596,"Utils":9597,"stimator":9598,"CY":9599,"Cross":9600,"[\\":9601,"built":9602,"áĪ":9603,"legram":9604,"chanis":9605,"perf":9606,"person":9607,"Ġgateway":9608,"mous":9609,"REGEX":9610,"Ġnoise":9611,"xyz":9612,"Ġtransformation":9613,"ĠSimTypePointer":9614,"findall":9615,"Ġprimary":9616,"differ":9617,"Finder":9618,"Ġtianshou":9619,",)":9620,"slow":9621,"develop":9622,"queries":9623,"()])<":9624,"poses":9625,"assertContains":9626,"Ġ300":9627,"Ġclassifier":9628,"Configured":9629,"aks":9630,"Ġpatches":9631,"Ġ--------<":9632,"Initial":9633,"ĠAssert":9634,"Ġsnippets":9635,"è¡¨":9636,"NUMBER":9637,"MicrosoftAMD":9638,"ĠSimCCMicrosoftAMD":9639,"FixedSize":9640,"'ll":9641,":.":9642,"=\\":9643,"hicle":9644,"ple":9645,"tot":9646,"onym":9647,"Ġtune":9648,"Ġimpl":9649,"Ġconcurrent":9650,"Ġconsumer":9651,"Ġstock":9652,"ITS":9653,"FileSystem":9654,"Ġbackbone":9655,"transformers":9656,"PPR":9657,"Ġplots":9658,"åĲİ":9659,"å®ļ":9660,"ĠCharacter":9661,"Ġseveral":9662,"(\"<":9663,"ii":9664,"arily":9665,"Ġcome":9666,"Ġdid":9667,"Ġlaunch":9668,"perform":9669,"Ġadding":9670,"letter":9671,"ĠSimTypeChar":9672,"ĠARMPipelineClient":9673,"ĠfastNLP":9674,"assertRaisesRegex":9675,"smart":9676,"selected":9677,"rammar":9678,"Ġpowerline":9679,"ĠBeautiful":9680,")\"":9681,"ç¨":9682,"ĠON":9683,"İ·":9684,"apes":9685,"Ġgamma":9686,"Ġpretty":9687,"9999":9688,"flax":9689,"ĠAsyncHttpResponse":9690,"completion":9691,"Matrix":9692,"Ġqual":9693,"Ġenter":9694,"star":9695,"Ġcm":9696,"Ġpers":9697,"Ġfh":9698,"converter":9699,"ĠPDF":9700,"ĠFirst":9701,"ĠRange":9702,"Ġord":9703,"ENABLED":9704,"funcs":9705,"optuna":9706,"192":9707,"Ġapplications":9708,"Edge":9709,"ĠCaseInsensitiveEnumMeta":9710,"Close":9711,"LIGHT":9712,"éĺ":9713,"Ġquestion":9714,"ĠLa":9715,"contact":9716,"imate":9717,"Ġgam":9718,"ĠFa":9719,"energy":9720,"pending":9721,"Ġpercent":9722,"Compiler":9723,"Ġanything":9724,"Ġ\"\".":9725,"confirm":9726,"ĠSimTypeBottom":9727,"ĠNotes":9728,"EntityDescription":9729,"dater":9730,"Ġconnections":9731,"ĠretVal":9732,"Bytes":9733,"bindings":9734,");<":9735,">--------":9736,"AUT":9737,"DNS":9738,"EMP":9739,"PON":9740,"udent":9741,"Ġcpu":9742,"ashes":9743,"Ġrepeat":9744,"Ġninja":9745,"liases":9746,"Reactor":9747,"emb":9748,"modeling":9749,"ĠSimStruct":9750,"queryset":9751,"while":9752,"Metrics":9753,"RuntimeError":9754,"Ġ'./":9755,"Ġprobably":9756,"ĠInstall":9757,"Ġbusiness":9758,"'},<":9759,"GAN":9760,"Tools":9761,"å»":9762,"exact":9763,"coll":9764,"ĠCSV":9765,"Ġ--------------------------------------------------------":9766,"STOP":9767,"MAIL":9768,"Ġchecking":9769,"transfer":9770,"Ġ.....":9771,"Ġemit":9772,"ĠHTTPStatus":9773,"æľĢ":9774,"Dependency":9775,"deepcopy":9776,"ĠSimTypeLongLong":9777,"basket":9778,"crawler":9779,"æĢ":9780,"èĢ":9781,"ories":9782,"asc":9783,"Ġsin":9784,"Ġmenu":9785,"ĠTag":9786,"ĠView":9787,"clone":9788,"ĠDevelopment":9789,"Ġprevent":9790,"Ġobjective":9791,"authentication":9792,"Ġlearn":9793,"')))<":9794,"Seq":9795,"Ġcreates":9796,"ĠWARNING":9797,"QtCore":9798,"Ġmmdet":9799,"è¿Ļ":9800,"è®¡":9801,"æĪ·":9802,")')<":9803,"Cookie":9804,"Mon":9805,"Machine":9806,"MChallengeAuthenticationPolicy":9807,"atural":9808,"ĠShould":9809,"apis":9810,"Revision":9811,"ĠSegment":9812,"ĠSimTypeShort":9813,"ĠARMChallengeAuthenticationPolicy":9814,"ĠAsyncARMChallengeAuthenticationPolicy":9815,"åı¯ä»¥":9816,"Ġfrozenset":9817,"Ge":9818,"ãĤ":9819,"Ġns":9820,"three":9821,"Representation":9822,"ĠGlobals":9823,"ĠEng":9824,"ĠWidget":9825,"ä¸Ĭ":9826,"ĠSimTypeFloat":9827,"ĠSimTypeDouble":9828,"ĠSimTypeFixedSize":9829,"polate":9830,"SCAN":9831,"ĠSignal":9832,"between":9833,"åıĤæķ°":9834,"ĠSimTypeFixedSizeArray":9835,"Public":9836,"Volume":9837,"dk":9838,"Ġicon":9839,"Ġnative":9840,"Ġbo":9841,"acle":9842,"ĠSchema":9843,"ĠPass":9844,"Ġgensim":9845,"Ġrouter":9846,"ĠSimUnion":9847,"')]<":9848,"lengths":9849,"choices":9850,"509":9851,"autouse":9852,"plications":9853,"ĉĉĉ":9854,"å®ŀ":9855,"ĠCommon":9856,"ĠAsyncARMPipelineClient":9857,"ä¼ļ":9858,"CN":9859,"Rect":9860,"Ġreferences":9861,"Ġss":9862,"Ġinference":9863,"Ġoauth":9864,"Consumer":9865,"ĠUnsupported":9866,"general":9867,"cluded":9868,"ĠSimTypeBool":9869,"ĠParser":9870,"shares":9871,"Ġdestination":9872,")}":9873,")\"\"\"<":9874,"xaxis":9875,"sem":9876,"readed":9877,"Ġtty":9878,"Ġrevision":9879,"Ġsil":9880,"ĠSV":9881,"ensemb":9882,"Ġdeprec":9883,"ĠFrame":9884,"Ġsupp":9885,"Ġshlex":9886,"Services":9887,"ĠJson":9888,"ä»¬":9889,"Ġinstructions":9890,"ginx":9891,"hls":9892,"Ġtp":9893,"__,<":9894,"ĠMon":9895,"ITLE":9896,"Ġsender":9897,"Ġcoordinates":9898,"serving":9899,"objective":9900,"\"))":9901,"Ġzope":9902,"Ġvalidator":9903,"Credentials":9904,"Ġquick":9905,"connections":9906,"ĠTimeout":9907,"secdev":9908,"protected":9909,"Cell":9910,"æĭ":9911,"alone":9912,"Ġpacket":9913,"ctree":9914,"Ġneg":9915,"Ġbr":9916,"ĠCar":9917,"ĠFix":9918,"Console":9919,"Ġarbitrary":9920,"aching":9921,"Fields":9922,"news":9923,"Ġqlib":9924,"Ġsigned":9925,"Ġ90":9926,"(\"\")<":9927,"WITCH":9928,"ĠMemory":9929,"dpath":9930,"inline":9931,"Ġreally":9932,"quick":9933,"fork":9934,"proj":9935,"Ġseen":9936,"Ġcoverage":9937,"clusters":9938,"Ġencrypt":9939,"started":9940,"Ġmocked":9941,"Ġbuilding":9942,"goal":9943,"æĪĳ":9944,"Ġnetmiko":9945,"åįķ":9946,"Expression":9947,"Ġpyqtgraph":9948,"Cannot":9949,"Title":9950,"WAY":9951,"cmap":9952,"palette":9953,"yes":9954,"Ġest":9955,"ľĢ":9956,"arc":9957,"Ġwx":9958,"ĠCache":9959,"ĠIs":9960,"Decode":9961,"udwig":9962,"Ġstatistics":9963,"lected":9964,"))))<":9965,"TEMP":9966,"Subscription":9967,"ĠIPv":9968,"Ġmisc":9969,"mixins":9970,"onymous":9971,"WA":9972,"XML":9973,"aiohttp":9974,"Ġtb":9975,"Ġdy":9976,"Ġmuch":9977,"ĠSET":9978,"omic":9979,"poetry":9980,"cla":9981,"Ġlistener":9982,"Ġalignment":9983,"2015":9984,"Observer":9985,"Ġqs":9986,"Ġopens":9987,"Ġevaluation":9988,"(\"-\",":9989,"åĻ¨":9990,"hankcs":9991,"tls":9992,"vectors":9993,"çķ":9994,"anh":9995,"anner":9996,"Ġprior":9997,"terms":9998,"Ġhuman":9999,"Ġ*=":10000,"ĠGenerate":10001,"preprocessing":10002,"Ġzlib":10003,"Ġnever":10004,"orders":10005,"Ġtokenize":10006,"8601":10007,"good":10008,"Ġzeros":10009,"ĠDefaults":10010,"Ġembeddings":10011,"Ġchoices":10012,"ĠInteger":10013,"Ġvirtualenv":10014,"Face":10015,"Post":10016,"agg":10017,"bz":10018,"dating":10019,"gamma":10020,"Ġrecursive":10021,"ĠSSL":10022,"endog":10023,"Ġstrict":10024,"ĠBuilder":10025,"Ġ:=":10026,"ffff":10027,"levels":10028,"ĠInstance":10029,"Unable":10030,"Ġtensorpack":10031,"tensorflow":10032,"ĠTOKEN":10033,"æĸ°":10034,"HandleUrl":10035,"CanHandleUrl":10036,"Main":10037,"NIST":10038,"àª":10039,"Ġdc":10040,"pem":10041,"ĠTq":10042,"ĠPe":10043,"ERT":10044,"pretty":10045,"prime":10046,"Ġupdates":10047,"bars":10048,"Ġtransaction":10049,"ordinate":10050,"distutils":10051,"RESO":10052,"Ġlegal":10053,"claration":10054,"]\")<":10055,"gcc":10056,"late":10057,"Ġcwd":10058,"Ġrecipe":10059,"Ġsizes":10060,"ĠDIS":10061,"ĠFind":10062,"Ġvectors":10063,"Ġsep":10064,"iou":10065,"ĠServices":10066,"Ġreduction":10067,"Ġbotocore":10068,"Switch":10069,"gluon":10070,"Ã¡":10071,"eration":10072,"Ġam":10073,"also":10074,"thumbnail":10075,"Ġev":10076,"ipes":10077,"structured":10078,"TODO":10079,"Ġfinished":10080,"AVAILABLE":10081,"RI":10082,"audit":10083,"dtemp":10084,"han":10085,"Ġol":10086,"ĠTool":10087,"Ġlst":10088,"=\"#":10089,"Ġdataframe":10090,"ificates":10091,"conftest":10092,"cannot":10093,"Ġreflection":10094,"Accept":10095,"Ġrequirements":10096,"å§ĭ":10097,"Gre":10098,"Root":10099,"WITHOUT":10100,"break":10101,"inference":10102,"erical":10103,"reload":10104,"Ġtgt":10105,"ley":10106,"ctime":10107,"iles":10108,"ĠMatch":10109,"Ġconan":10110,"ĠOpt":10111,"Ġgetpass":10112,"Ġroom":10113,"playlist":10114,"temperature":10115,"sessions":10116,"ĠAND":10117,"ootstrap":10118,"Attention":10119,"Ġretrieve":10120,"Current":10121,"losses":10122,"oucher":10123,"riendly":10124,"IqProtocolEntity":10125,"ĠBeautifulSoup":10126,"Json":10127,"LA":10128,"Tom":10129,"]],<":10130,"fx":10131,"swagger":10132,"vised":10133,"ç´":10134,"stit":10135,"Ġpriority":10136,"ĠDash":10137,"Ġgithub":10138,"outs":10139,"Ġresolution":10140,"ises":10141,"opener":10142,"ĠHE":10143,"openssl":10144,"Ġ['_":10145,"Ġinitialization":10146,"äºĨ":10147,"Ġdays":10148,"icipant":10149,"è¿Ľè¡Į":10150,"./":10151,"Na":10152,"PACK":10153,"Ġtxt":10154,"Ġtimer":10155,"razer":10156,"ĠTorch":10157,"Ġ'',":10158,"ays":10159,"scroll":10160,"configured":10161,"Ġwhose":10162,"song":10163,"Ġadds":10164,"ĠREAD":10165,"mutable":10166,"ĠRedis":10167,"Ġpaddlehub":10168,"smoke":10169,"Trial":10170,")\",<":10171,"BLOCK":10172,"CI":10173,"PH":10174,"TASK":10175,"jpeg":10176,"Ġ\":":10177,"ĠSY":10178,"ĠLayer":10179,"Ġdeleted":10180,"toml":10181,"ritten":10182,"works":10183,"Ġpreprocess":10184,"Ġaddresses":10185,"Many":10186,"Collector":10187,"WORDS":10188,"%%":10189,"Ġfun":10190,"Ġnone":10191,"ĠSanic":10192,"Ġconstructor":10193,"Ġexog":10194,"ĠRL":10195,"ARM":10196,"ards":10197,"Ġlogits":10198,"Setup":10199,"Ġ\"\",<":10200,"digit":10201,"cells":10202,"ĠAssistant":10203,"CURR":10204,"Ġsqrt":10205,"Ġgluoncv":10206,"ĠWSGI":10207,"ensemble":10208,")'<":10209,"FOL":10210,"cassette":10211,"dy":10212,"gallery":10213,"passes":10214,"sid":10215,"ĠÂ":10216,"ota":10217,"ĠTry":10218,"Ġ123":10219,"ĠET":10220,"ntil":10221,"opidy":10222,"ffi":10223,"REF":10224,"Encoding":10225,"ĠDefine":10226,"Ġnormalized":10227,"TARGET":10228,"jac":10229,"ato":10230,"leet":10231,"Ġpush":10232,"unded":10233,"igma":10234,"Ġdarts":10235,"ĠSentence":10236,"challenge":10237,"ĠAut":10238,"Ġ10000":10239,"()),":10240,"Ġapprox":10241,"pkl":10242,"åĬ¨":10243,"vestreamer":10244,"/\"":10245,"402":10246,"Click":10247,"NER":10248,"TAG":10249,"VO":10250,"average":10251,"tas":10252,"erial":10253,"Ġmid":10254,"chdir":10255,"ĠAbu":10256,"\"]]<":10257,"ĠĠĠĠĠĠĠĠĠĠĠĠĠĠĠĠĠĠĠĠĠĠĠĠĠĠĠĠĠĠĠĠĠĠĠ":10258,"Ġpythonforandroid":10259,"Chat":10260,"registered":10261,"Ġportfolio":10262,"Ġrenderer":10263,"ANDARD":10264,"README":10265,"integrations":10266,"Sql":10267,"iam":10268,"à²":10269,"reward":10270,"Ġfire":10271,"oted":10272,"gettext":10273,"ĠOut":10274,"shuffle":10275,"Ġaltern":10276,"Ġworkers":10277,"assertIsNone":10278,"WORK":10279,"èĩª":10280,"ĠScapy":10281,"Estimator":10282,"MOT":10283,"hard":10284,"vacc":10285,"é¡":10286,"Ġradius":10287,"allo":10288,"Ġresize":10289,"Ġversionadded":10290,"Ġcomparison":10291,"Ġclients":10292,"tsv":10293,"ildcard":10294,"Ġlevels":10295,"speak":10296,"ValidationError":10297,"Ġmaps":10298,"basicConfig":10299,"Ġtracker":10300,"ĠApplicationGateway":10301,"Ġdigest":10302,"desktop":10303,"403":10304,"DY":10305,"Private":10306,"Ð²":10307,"ĠERR":10308,"ĠEnsure":10309,"envs":10310,"ENCO":10311,"IGH":10312,"servers":10313,"KeyError":10314,"FIEL":10315,"ĠConfigEntryState":10316,"SETTINGS":10317,"Ġviews":10318,"Ġconsoleme":10319,"destroy":10320,"Bo":10321,"Future":10322,"TLS":10323,"flip":10324,"ham":10325,"mc":10326,"tre":10327,"thers":10328,"iming":10329,"ĠElement":10330,"Ġorganization":10331,"LETE":10332,"avig":10333,"[::-":10334,"ä»·":10335,"ĠAssertionError":10336,"globals":10337,"Ġcomputed":10338,"Ġepisode":10339,"BOT":10340,"Factor":10341,"sandbox":10342,"recv":10343,"Ġtrunc":10344,"Ġcat":10345,"rase":10346,"####<":10347,"Ġ*,<":10348,"maxsize":10349,"Running":10350,"è®¾":10351,"Ġurlopen":10352,"Ġwidgets":10353,"éĢļ":10354,"Ġscheduler":10355,"bnb":10356,"mixed":10357,"pic":10358,"wrong":10359,"roi":10360,"asm":10361,"Ġinverse":10362,"Ġom":10363,"Ġtoday":10364,"conan":10365,"Ġecho":10366,"ĠBig":10367,"...\")<":10368,"ĠCond":10369,"Ġplan":10370,"sourceforge":10371,"2011":10372,"Analytics":10373,"different":10374,"SHA":10375,"uplicates":10376,"versation":10377,"BN":10378,"TCP":10379,"eos":10380,"toc":10381,"wers":10382,"éĻ":10383,"Ġcuda":10384,"Ġsqu":10385,"ĠMask":10386,"Ġhour":10387,"ĠPopen":10388,"Ġproducer":10389,"Ġvs":10390,"Ġgets":10391,"ĠAnalysis":10392,"mann":10393,"')[":10394,"matching":10395,"ĠUserProfile":10396,"evaluation":10397,"ç¨ĭ":10398,">'":10399,"Gen":10400,"Hyper":10401,"Summary":10402,"cmp":10403,"yte":10404,"replay":10405,"replic":10406,"Ġfurther":10407,"Ġborder":10408,"country":10409,"rastructure":10410,"Ġ({":10411,":`.":10412,"Ġmember":10413,"PROTO":10414,"Show":10415,"Authorization":10416,"Orig":10417,"Ġbigchaindb":10418,"vanced":10419,"GN":10420,"repos":10421,"stub":10422,"Ġdeps":10423,"keywords":10424,"via":10425,"readlines":10426,"Ġenough":10427,"Ġgenerating":10428,"Ġ2009":10429,"Ġgoal":10430,"Ġissues":10431,"ĠLOGGER":10432,"åīį":10433,"Ġzipline":10434,"MAR":10435,"TV":10436,"gather":10437,"half":10438,"rstrip":10439,"sym":10440,"åŁ":10441,"å¦Ĥ":10442,"Ġdual":10443,"perl":10444,"prod":10445,"Ġpyplot":10446,"ĠEVENT":10447,"ITION":10448,"coming":10449,"softmax":10450,"DataUpdateCoordinator":10451,"queues":10452,"maximum":10453,"Ġlinewidth":10454,"Ġhashes":10455,"locator":10456,"Ġlivestreamer":10457,"Ġidentifiers":10458,"åĲĪ":10459,"éĹ´":10460,"GROUP":10461,"İ·åıĸ":10462,"(...":10463,")\\":10464,"FD":10465,"Should":10466,"Until":10467,"punct":10468,"æĬ":10469,"union":10470,"tok":10471,"ĠEl":10472,"ĠEmpty":10473,"ĠBoolean":10474,"ĠReference":10475,"ĠerrMsg":10476,"precision":10477,"autodoc":10478,"å¤Ħ":10479,"NamedTuple":10480,"TemporaryFile":10481,"SUPPORTED":10482,"Power":10483,"zA":10484,"éĽ":10485,"urations":10486,"ĠSmart":10487,"ulary":10488,"acking":10489,"Ġlarg":10490,"Ġdedent":10491,"Ġstuff":10492,"Ġunpack":10493,"ĠBit":10494,"Ġchk":10495,"Ġdateutil":10496,"Ġpublish":10497,"Ġsentinel":10498,"Ġuniquely":10499,"ĠDependency":10500,"ĠAccount":10501,"kovid":10502,"Ġlazagne":10503,"*<":10504,"Given":10505,"ny":10506,"reid":10507,"Ġten":10508,"ently":10509,"Ġothers":10510,"ĠNow":10511,"ayes":10512,"Ġ_('":10513,"processes":10514,"Ġxs":10515,"pectral":10516,"runs":10517,"Counter":10518,"disk":10519,"'][":10520,"Ġgeneration":10521,"ObjectType":10522,"Ġautogenerated":10523,"Ġqueries":10524,"decimal":10525,"Ġtarfile":10526,"ä¿¡":10527,"ĠRaises":10528,"LF":10529,"ipt":10530,"ients":10531,"è±":10532,"ħį":10533,"ĠGiven":10534,"ĠOP":10535,"Ġsec":10536,"STREAM":10537,"DataSet":10538,"minutes":10539,"Deferred":10540,"FACT":10541,"LIMIT":10542,"InfoType":10543,"Ġlonger":10544,"CREATE":10545,"decay":10546,"finished":10547,"initialized":10548,"gradient":10549,"âķĲâķĲ":10550,"CD":10551,"Direct":10552,"Smo":10553,"vaex":10554,"ye":10555,"decomp":10556,"Ġsol":10557,"ĠLambda":10558,"ĠPEP":10559,"touch":10560,"Ġeq":10561,"Ġosp":10562,"ĠVAL":10563,"pended":10564,"BaseTestCase":10565,"orskip":10566,"riteria":10567,"Ġmanip":10568,"Ġplatforms":10569,"Cluster":10570,"sqlalchemy":10571,"ientation":10572,"snippets":10573,"Ġbounds":10574,"When":10575,"DISCOVER":10576,"@:":10577,"Effect":10578,"TT":10579,"kg":10580,"packet":10581,"sts":10582,"stem":10583,"itype":10584,"ĠCU":10585,"ĠHere":10586,"irectories":10587,"Ġ`.":10588,"Props":10589,"TROL":10590,"Ġinteractive":10591,"Ġdifference":10592,"customer":10593,"predictions":10594,"shortcut":10595,"ĠTrainer":10596,"Ġconflicts":10597,"=__":10598,"NEL":10599,"fqon":10600,"nobs":10601,"ining":10602,"atched":10603,"Ġbroadcast":10604,"Ġmindsdb":10605,"abet":10606,"istence":10607,"ftmax":10608,"ĠRFC":10609,"previous":10610,"PEG":10611,"aripy":10612,"overflow":10613,"Ġsignals":10614,"Ġinitialized":10615,"ucceed":10616,"HERE":10617,"Ġconsidered":10618,"Ġstarlette":10619,"ĠDiscoveryInfoType":10620,"ĠLaTeX":10621,"CAS":10622,"Tab":10623,"tqdm":10624,"edModel":10625,"Analy":10626,"Ġautodoc":10627,"frac":10628,"Ġglyph":10629,"âĸĪâĸĪâķ":10630,"ĠStatus":10631,"IMAGE":10632,"å¼ı":10633,"ĠBlueprint":10634,"bundle":10635,"cam":10636,"sas":10637,"Ġfallback":10638,"apsed":10639,"keyvault":10640,"artist":10641,"Ġrespect":10642,"Ġsem":10643,"Forward":10644,"Ġserialized":10645,"limitations":10646,"ĠZero":10647,"Dispatcher":10648,"activation":10649,"Adam":10650,"Detector":10651,"received":10652,"PLATFORMS":10653,"ĠCluster":10654,"ĠPLATFORMS":10655,"criterion":10656,"gain":10657,"ournal":10658,"tcp":10659,"ãĥ":10660,"åİ":10661,"ĠâĢ":10662,"Ġcrop":10663,"ĠSched":10664,"truth":10665,"ĠPIPE":10666,"monotonic":10667,"LEAR":10668,"serialized":10669,"DOC":10670,"Ġstarts":10671,"ĠSTOP":10672,"DATASET":10673,"RESPON":10674,"translate":10675,"highlight":10676,"çİ°":10677,"ľĢè¦ģ":10678,"Ġopensfm":10679,"LIC":10680,"Panel":10681,"cu":10682,"ij":10683,"jar":10684,"pix":10685,"tions":10686,"ua":10687,"éĿ":10688,"aring":10689,"Ġok":10690,"ravel":10691,"ising":10692,"ĠSupport":10693,"updates":10694,"Ġtestmodels":10695,"Ġconverter":10696,"ĠBad":10697,"software":10698,"ĠExit":10699,"Ġshuffle":10700,"discriminator":10701,"Ġtrace":10702,"OperationsMixin":10703,"wrappers":10704,"General":10705,"ĠTransaction":10706,"Scene":10707,"Ġdigits":10708,"eled":10709,"kill":10710,"moth":10711,"Ð»":10712,"Ġcapt":10713,"Ġrev":10714,"Ġdialog":10715,"acked":10716,"Ġstmt":10717,"commun":10718,"Ġjs":10719,"ĠControl":10720,"Ġprojects":10721,"checker":10722,"=[<":10723,"ĠServiceBus":10724,"ĠFunctions":10725,"mota":10726,"æĿ¥":10727,"Kit":10728,"Site":10729,"dic":10730,"ython":10731,"Ã¶":10732,"seen":10733,"routes":10734,"arket":10735,"ĠTV":10736,"Ġlru":10737,"Ġ199":10738,"prog":10739,"Ġpygments":10740,"maint":10741,"coroutine":10742,"Ġurlencode":10743,"environments":10744,"ILINE":10745,"later":10746,"Ġtflearn":10747,"ĠĠĠĠĠĠĠĠĠĠĠĠĠĠĠĠĠĠĠĠĠĠĠĠĠĠĠĠĠĠĠĠĠ":10748,"QUERY":10749,"Ġsystems":10750,"duced":10751,"estimator":10752,"experimental":10753,"è±¡":10754,"Print":10755,"uck":10756,"icit":10757,"loit":10758,"ĠCF":10759,"Ġ'../":10760,"Ġdesigned":10761,"pardir":10762,"argtypes":10763,"subdir":10764,"Ġfunctional":10765,"RequestHandler":10766,"æľŁ":10767,"Ġlanguages":10768,"annotation":10769,"Ġowner":10770,"implementation":10771,"Car":10772,"First":10773,"nms":10774,"enet":10775,"\"\"<":10776,"Ġimporting":10777,"Ġsong":10778,"Ġ'+":10779,"ima":10780,"ggers":10781,"Ġequivalent":10782,"ĠBoost":10783,"locked":10784,"BaseTest":10785,"positive":10786,"Ġparents":10787,"ĠMySQL":10788,"ĠAllow":10789,"Ġblack":10790,"********************************":10791,"ĠModified":10792,"Attributes":10793,"DATE":10794,"bes":10795,"nu":10796,"}_":10797,"Ġws":10798,"Ġtested":10799,"have":10800,"Ġprocessed":10801,"libc":10802,"ITER":10803,"Ġ:]<":10804,"([],":10805,"formatted":10806,"Ġencodings":10807,"Ġ/=":10808,"ASSI":10809,"beat":10810,"Ġ|<":10811,"Ġmanagement":10812,"Ġvolume":10813,"AGES":10814,"Login":10815,"ĠPerl":10816,"Ġcapsys":10817,"trast":10818,"Ġprotobuf":10819,"ĠAirbnb":10820,"è¾ĵåħ¥":10821,"(\",":10822,"DD":10823,"Pair":10824,"border":10825,"bidden":10826,"tml":10827,"Å½":10828,"Ĥ¡":10829,"Ġcc":10830,"umb":10831,"Ġdep":10832,"('<":10833,"ĠWord":10834,"spired":10835,"veloper":10836,"myjit":10837,"toolbar":10838,"Ġcontextvars":10839,"HOLD":10840,"ĠBaseTestCase":10841,"(*,":10842,"viding":10843,"è¿ĩ":10844,"ĠRegistry":10845,"CRIPT":10846,"WITH":10847,"PLATFORM":10848,"/')<":10849,"[(":10850,"nor":10851,"à¤":10852,"Ġcent":10853,"coef":10854,"():":10855,"ĠSelect":10856,"coded":10857,"preprocess":10858,"ĠOpenSSL":10859,"datas":10860,"GroupPreparer":10861,"jitter":10862,"keypoint":10863,"åºı":10864,"å°ı":10865,"Ġsimply":10866,"Cleanup":10867,"SIGN":10868,"mr":10869,"ini":10870,"erts":10871,"least":10872,"already":10873,"Ġrecent":10874,"Ġbins":10875,"ceed":10876,"icture":10877,"ĠUnless":10878,"Ġbackward":10879,"Ġstdin":10880,"Ġpredicted":10881,"products":10882,"cognizer":10883,"Does":10884,"æİ¥":10885,"å»º":10886,"ĠÂ©":10887,">################################################################":10888,"RF":10889,"WID":10890,"rypoint":10891,"saved":10892,"}_{":10893,"èĥ½":10894,"ĶåĽŀ":10895,"Ġfamily":10896,"ĠMissing":10897,"ĠMetadata":10898,"Ġdelimiter":10899,"ĠBert":10900,"ponent":10901,"Ġalph":10902,"Provides":10903,"lineno":10904,"COMPLE":10905,"ĠWorkflow":10906,"MSG":10907,"PROP":10908,"Ġlimitations":10909,"tracking":10910,"Ġauthenticate":10911,"REQUIRED":10912,"Å½Å½":10913,"(\"\"\"":10914,"Bad":10915,"Vec":10916,"[_":10917,"]})<":10918,"_%":10919,"ylabel":10920,"}-":10921,"}\",<":10922,"Ġmb":10923,"Ġassets":10924,"\",\"":10925,"ipv":10926,"Exist":10927,"ardown":10928,"Ġcanvas":10929,"Ġupgrade":10930,"splits":10931,"ĠSerial":10932,"offer":10933,"witter":10934,"Ġmouse":10935,"Graphics":10936,"variants":10937,"expanduser":10938,"AILED":10939,"Ġdescribed":10940,"UNKNOWN":10941,"ä¾ĭ":10942,"æĪĳä»¬":10943,"/?":10944,"lb":10945,"pur":10946,"à°":10947,"arsh":10948,"utions":10949,"Ġbaz":10950,"ĠCPU":10951,"ĠUI":10952,"########################":10953,"spiders":10954,"Ġcompression":10955,"weak":10956,"(_):<":10957,"è¿ĶåĽŀ":10958,"periments":10959,"Signature":10960,"Software":10961,"FILES":10962,"Ġentire":10963,"Ġpackaging":10964,"æĸĩä»¶":10965,"WaitUntil":10966,"PPRINT":10967,"808":10968,">.<":10969,"GPL":10970,"PACE":10971,"Success":10972,"aro":10973,"bing":10974,"asy":10975,"Ġpen":10976,"Ġrestore":10977,"Ġtheta":10978,"ĠPRE":10979,"vehicle":10980,"Ġgooey":10981,"havior":10982,"ssue":10983,"Ġear":10984,"anging":10985,"Ġappro":10986,"([(":10987,"Ġpretrained":10988,"Ġperf":10989,"rtd":10990,"Constant":10991,"ĠScript":10992,"Connector":10993,"Twins":10994,"ĠConstant":10995,"maybe":10996,"Insights":10997,"chanism":10998,"Enc":10999,"_)<":11000,"aggreg":11001,"den":11002,"yellow":11003,"edger":11004,"Ġops":11005,"ils":11006,"ĠCSS":11007,"Ġrc":11008,"ĠVocab":11009,"Ġoutside":11010,"note":11011,"Ġ404":11012,"Ġalign":11013,"Ġspan":11014,"Ġtrained":11015,"EXCEP":11016,"aaaa":11017,"MetricProvider":11018,"Datetime":11019,"SimProcedure":11020,"Ġexplicitly":11021,"estionAnswer":11022,"äº¤æĺĵ":11023,"GD":11024,"hatch":11025,"hance":11026,"attention":11027,"Ġcla":11028,"Ġna":11029,"Ġnor":11030,"Ġwave":11031,"ĠSC":11032,"ĠLR":11033,"hael":11034,"iving":11035,"ĠHLS":11036,"ĠUUID":11037,"compression":11038,"Ġkafka":11039,"Ġintended":11040,"Ġsubset":11041,"Ġ[\"_":11042,"Enabled":11043,"grr":11044,"Ġ\"./":11045,"QtWidgets":11046,"AssertionError":11047,"ç»ĵ":11048,"Ġsamtranslator":11049,"losure":11050,"Offset":11051,"ĠIncrementalEncoder":11052,"Ġexactly":11053,"Lex":11054,"MON":11055,"|<":11056,"ancy":11057,"Ġomeg":11058,"importorskip":11059,"chr":11060,"ĠALL":11061,"verbosity":11062,"Ġeth":11063,"Ġmeant":11064,"aste":11065,"Ġsubclasses":11066,"assertEquals":11067,"Ġcomments":11068,"presents":11069,"ĠModels":11070,"Perl":11071,"Training":11072,"scaler":11073,"ĠPRIORITY":11074,"IntegerField":11075,"estionAnswering":11076,"Bert":11077,"crawl":11078,"prun":11079,"prise":11080,"ranges":11081,"ges":11082,"Ġsound":11083,"loom":11084,"Ġnan":11085,"ilers":11086,"ulates":11087,"Ġefficient":11088,"preprocessor":11089,"Ġintent":11090,"Ġplain":11091,"Ġrequested":11092,"Ġinteract":11093,"Present":11094,"FlowHandler":11095,"Ġconvolution":11096,"SERIAL":11097,"ĠIncrementalDecoder":11098,"METHOD":11099,"CENT":11100,"band":11101,"mx":11102,"alive":11103,"anded":11104,"Ġfrequency":11105,"Ġrelevant":11106,"ĠMap":11107,"iris":11108,"Internal":11109,"Ġabort":11110,"ASH":11111,"uffers":11112,"sensors":11113,"restype":11114,"3333":11115,"Raised":11116,"ĠĠĠĠĠĠĠĠĠĠĠĠĠĠĠĠĠĠĠĠĠĠĠĠĠĠĠĠĠĠĠĠĠĠĠĠ":11117,"Structure":11118,"TeacherTest":11119,"ĠNumPy":11120,"ĠAxes":11121,"å¤ĦçĲĨ":11122,">========":11123,"Free":11124,"Ł¥":11125,"rogram":11126,"descriptor":11127,"Ġnpt":11128,"()),<":11129,"ĠRob":11130,"team":11131,"ĠPyPy":11132,"Ġupload":11133,"Ġinterpolation":11134,"(\"/\",":11135,"Ġbackup":11136,"Timestamp":11137,"Ġrealm":11138,"æł¼":11139,"TimeoutError":11140,"Feed":11141,"WER":11142,"].<":11143,"brightness":11144,"pag":11145,"ena":11146,"Ġcred":11147,"icket":11148,"Ġwheel":11149,"assignment":11150,"ĠSend":11151,"idle":11152,"Ġtouch":11153,"ĠFortran":11154,"ATING":11155,"Ġunderlying":11156,"\")))<":11157,"minimum":11158,"URI":11159,"eye":11160,"nginx":11161,"downloads":11162,"PROJECT":11163,"snippet":11164,"preds":11165,"åĿĹ":11166,"?://(?:":11167,"éĽĨ":11168,"AMP":11169,"Ð´":11170,"Ðº":11171,"èĤ¡":11172,"Ġsing":11173,"ĠTP":11174,"ĠTarget":11175,"idata":11176,"problem":11177,"Ġ----------------------------------------":11178,"Ġscikit":11179,"conditions":11180,"latin":11181,"HOOK":11182,"Entropy":11183,"offsets":11184,"Ġgreater":11185,"ĠDEV":11186,"ĠMODE":11187,"æĹ¥":11188,"æīĢ":11189,"FOLDER":11190,"maintain":11191,"brid":11192,"oice":11193,"erc":11194,"ico":11195,"Ġnginx":11196,"Ġaspect":11197,"Ġdefinitions":11198,"trl":11199,"ĠIot":11200,"ĠEmail":11201,"ĠUsing":11202,"oinspection":11203,"Names":11204,"covered":11205,"WEB":11206,"ĠMethods":11207,"199":11208,"Calc":11209,"Certificate":11210,"Django":11211,"EMAIL":11212,"UAL":11213,"VC":11214,"fingerprint":11215,"mid":11216,"zzy":11217,"asca":11218,"Ġfobj":11219,"Ġinplace":11220,"Ġdd":11221,"Ġdr":11222,"Ġ\"\"\",<":11223,"ĠGrid":11224,"ypass":11225,"lling":11226,"indic":11227,"usted":11228,"clientsession":11229,">>>>":11230,"ledger":11231,"mitted":11232,"Ġcurr":11233,"ADATA":11234,"letters":11235,"lified":11236,"skipIf":11237,"partitions":11238,"RESET":11239,"limits":11240,"ĠManager":11241,"attach":11242,"åĽ¾åĥı":11243,"WH":11244,"east":11245,"since":11246,"lee":11247,"Ġfour":11248,"Ġrestrict":11249,"ptime":11250,"idential":11251,"iry":11252,"Ġwhole":11253,"ĠDelete":11254,"argparse":11255,"PDF":11256,"mapper":11257,"Ġstatement":11258,"Framework":11259,"ĠStruct":11260,"ä½ľ":11261,"}.{":11262,"PARAM":11263,"Ġ::=":11264,".+":11265,"GPU":11266,"gpus":11267,"xlabel":11268,"secrets":11269,"intrins":11270,"describe":11271,"Ġnoinspection":11272,"ĠPrint":11273,"ENAME":11274,"Expected":11275,"subset":11276,"Ġparsers":11277,"prefixes":11278,"Ġprices":11279,"Ġfnmatch":11280,"Ġletter":11281,"ĠGood":11282,"(.*":11283,"Card":11284,"VM":11285,"Vari":11286,"bob":11287,"eer":11288,"npy":11289,"oct":11290,"rnn":11291,"coin":11292,"ĠAlembic":11293,"pygments":11294,"illing":11295,"Ġ2011":11296,"Ġ{}'.":11297,"completer":11298,"igitalTwins":11299,"Ġdebugging":11300,"Actor":11301,"Pick":11302,"aud":11303,"cing":11304,"mall":11305,"pin":11306,"ionaries":11307,"ĠCertificate":11308,"()}<":11309,"Ġproviding":11310,"ĠEd":11311,"kwds":11312,"Exists":11313,"Ġintro":11314,"modify":11315,"fails":11316,"assertIsNot":11317,"Ġeverything":11318,"\"}}<":11319,"åŃĺ":11320,"builtins":11321,"ĠConanFileReference":11322,"MEDIA":11323,"Criterion":11324,"Diag":11325,"SF":11326,"ftp":11327,"functools":11328,"land":11329,"nv":11330,"uge":11331,"Ġ00":11332,"Ġcha":11333,"Ġpalette":11334,"isy":11335,"ĠSH":11336,"ombu":11337,"()`":11338,"Ġunified":11339,"owns":11340,"comments":11341,"Ġwhite":11342,"clients":11343,"Ġreads":11344,"Ġtensors":11345,"gov":11346,"tutorials":11347,"(%":11348,"Packet":11349,"ood":11350,"inherit":11351,"\"\",":11352,"Ġcategories":11353,"asn":11354,"quad":11355,"Ġhankcs":11356,"ĠFigure":11357,"002":11358,"Progress":11359,"constraint":11360,"trols":11361,"modified":11362,"gitlab":11363,"prediction":11364,"Permissions":11365,"aconf":11366,"Ġderiv":11367,"ENCODING":11368,".\".":11369,"Last":11370,"OAuth":11371,"nam":11372,"pent":11373,"èµ":11374,"representation":11375,"ĠTLS":11376,"Ġhopper":11377,"izard":11378,"().<":11379,"ibly":11380,"TestModel":11381,"Ġrout":11382,"ĠVideo":11383,"ARGS":11384,"BaseIE":11385,"statement":11386,"UNIT":11387,"Validate":11388,"DEVICES":11389,"å¯¹è±¡":11390,"CUDA":11391,"Ġcertain":11392,"fuse":11393,"iot":11394,"publish":11395,"sb":11396,"udf":11397,"Ã¼":11398,"åģ":11399,"research":11400,"stuff":11401,"ann":11402,"###":11403,"jection":11404,"Ġbeam":11405,"spatial":11406,"Producer":11407,"UTC":11408,"Ġinterpreter":11409,"Plan":11410,"Groups":11411,"normalized":11412,"Ġmonth":11413,"freeze":11414,"å°Ĩ":11415,"Expand":11416,"Ġpsutil":11417,"ĠPATH":11418,"COMMAND":11419,")**":11420,"Sort":11421,"Zone":11422,"dpi":11423,"inet":11424,"rea":11425,"Ġtamp":11426,"###<":11427,"Ġbi":11428,"Ġ([":11429,"ulating":11430,"verity":11431,"strftime":11432,"ĠIMA":11433,"()[\"":11434,"ĠEnd":11435,"urlparse":11436,"Ġxf":11437,"Ġmembers":11438,"angular":11439,"pectrogram":11440,"mouse":11441,"mongo":11442,"Could":11443,"Ġaffect":11444,"ä»£":11445,"ĠSpider":11446,"å¤ļ":11447,"mutation":11448,"ĠInterval":11449,"Ġthemes":11450,"ĠOrganization":11451,"}:{":11452,"^^^^":11453,"ĠGenie":11454,"Ġidlelib":11455,"112":11456,"Pose":11457,"Zero":11458,"fla":11459,"fortran":11460,"kl":11461,"prior":11462,"ĠåĪ":11463,"retty":11464,"Ġclock":11465,"Ġsampling":11466,"([(\"":11467,"Ġpassing":11468,"Ġnumeric":11469,"erelease":11470,"reflection":11471,"Ġgenerates":11472,"Ġminim":11473,"itories":11474,"CADE":11475,"GRR":11476,"Ġbounding":11477,"Ġlegacy":11478,"Ġattach":11479,"ĠComplex":11480,"Ġtamper":11481,"\">":11482,"BR":11483,"MIS":11484,"SWITCH":11485,"TITLE":11486,"battery":11487,"Ġ99":11488,"Ġsampler":11489,"ĠMobile":11490,"ĠPr":11491,"utilities":11492,"Ġroute":11493,"nums":11494,"ICON":11495,"MAN":11496,"ĠProfile":11497,"joinpath":11498,"Ġurljoin":11499,"Ġcombine":11500,"flows":11501,"Ġextend":11502,"Ġmatrices":11503,"Ġtrio":11504,"Ġsmart":11505,"ĠOtherwise":11506,"leetspeak":11507,"125":11508,"456":11509,"mv":11510,"sudo":11511,"voc":11512,"Ġce":11513,"ĠSpark":11514,"constructor":11515,"ocal":11516,"Ġthing":11517,"Ġequ":11518,"ĠBL":11519,"addons":11520,"='/":11521,"Ġcov":11522,"DEX":11523,"ĠAdditional":11524,"ĠAzureKeyCredential":11525,"Ġposix":11526,"ATTRIBUT":11527,"cython":11528,"overrides":11529,"ElementTree":11530,"åĬł":11531,"Ġindicating":11532,"recognition":11533,"Route":11534,"catalogue":11535,"'m":11536,"=(\"":11537,"_[":11538,"bpe":11539,"city":11540,"eck":11541,"jp":11542,"å±":11543,"Ġcd":11544,"Ġfully":11545,"Ġdense":11546,"peated":11547,"Ġassigned":11548,"ages":11549,"Ġ2000":11550,"ĠDynamic":11551,"Ġgive":11552,"Repo":11553,"Ġpyarrow":11554,"Ġextended":11555,"')])<":11556,"Pretrained":11557,"ĠSTANDARD":11558,"CSV":11559,"Ġappear":11560,"ĠDescription":11561,"Bind":11562,"augmentation":11563,"rink":11564,"éľĢè¦ģ":11565,"Ġpanel":11566,"Ġslot":11567,"Ġbook":11568,"Ġ')<":11569,"trunc":11570,"into":11571,"ims":11572,"ĠFAILED":11573,"TestBase":11574,"ĠRaw":11575,"='',":11576,"ICAL":11577,"notifications":11578,"Ġworkspace":11579,"Ġplayer":11580,"levelname":11581,"ĠKe":11582,"blas":11583,"ĠHTTPResponse":11584,"CONTENT":11585,"osef":11586,"Display":11587,"Ġphase":11588,"ĠManaged":11589,"Secret":11590,"Ġdiagnostics":11591,"Ġanalyze":11592,".%":11593,".\\":11594,"102":11595,">\")<":11596,"EB":11597,"Game":11598,"Mix":11599,"RT":11600,"darwin":11601,"mos":11602,"Ġpot":11603,"elnet":11604,"ĠMode":11605,"Retrie":11606,"communication":11607,"://{":11608,"ĠgetLogger":11609,"ĠRel":11610,"Ġchoose":11611,"argmax":11612,"\"):":11613,"dialect":11614,"grpc":11615,"Ġmanifest":11616,"ĠEventHub":11617,"Ġconfirm":11618,"åºĶ":11619,">---<":11620,"FUNCT":11621,"MF":11622,"bash":11623,"bridge":11624,"yu":11625,"seudo":11626,"onts":11627,"Ġtq":11628,"ana":11629,"Ġpunct":11630,"Ġsco":11631,"Ġinspired":11632,"Ġbisect":11633,"__:<":11634,"Ġwatch":11635,"andb":11636,"Ġgtk":11637,"scapy":11638,"httpbin":11639,"STANT":11640,"Ġspot":11641,"solve":11642,"Ġ2008":11643,"Ġflows":11644,"CONTROL":11645,"THRES":11646,"difference":11647,"Ġmovie":11648,"ticker":11649,"enticator":11650,"calculate":11651,"Ġhooks":11652,"NEW":11653,"Ġjupyter":11654,"ĠGoyal":11655,"ĠHEAD":11656,"/(?":11657,":],":11658,"Ph":11659,"fairseq":11660,"atar":11661,"remo":11662,"anchor":11663,"Ġsymbolic":11664,"Ġmnist":11665,"Ġ(?":11666,"ĠShared":11667,"things":11668,"Ġhref":11669,"Ġ------------------------------------------------------------------------------<":11670,"ponential":11671,"Ġknowledge":11672,"ĠExport":11673,"managed":11674,"Ġatexit":11675,"URCES":11676,"MPORT":11677,"servicebus":11678,"ĠParlai":11679,"authorized":11680,"rivile":11681,"lastic":11682,"ProtocolTreeNode":11683,"Ġcompletion":11684,"TIM":11685,"éĢī":11686,"Canvas":11687,"Ġpixels":11688,"MULTILINE":11689,"organization":11690,"CB":11691,"Del":11692,"DAT":11693,"HEL":11694,"History":11695,"Pod":11696,"æĥ":11697,"Ġ----------------":11698,"Ġcatch":11699,"__\",":11700,"Ġwalk":11701,"ĠCross":11702,"ĠDrop":11703,"ĠGaussian":11704,"ĠOK":11705,"Ġvault":11706,"ffine":11707,"Ġcolour":11708,"Ġtech":11709,"Ġspecs":11710,"Obj":11711,"Ġiteration":11712,"goyal":11713,"nonzero":11714,"ĠClientError":11715,"ä½į":11716,"BOX":11717,"ĠDeployment":11718,"IGNORE":11719,"Ġsymbols":11720,"ĠIntegration":11721,"ĠBackend":11722,"Editor":11723,"Lookup":11724,"Player":11725,"Rank":11726,"Word":11727,"Wave":11728,"bla":11729,"inplace":11730,"robot":11731,"lflow":11732,"Ġflat":11733,"Ġbp":11734,"ĠNUM":11735,"perm":11736,"Ġ_(\"":11737,"Requirement":11738,"ffe":11739,"additional":11740,"Ġ31":11741,"ORCH":11742,"ĠProperty":11743,"statistics":11744,"subtype":11745,"ĠKovid":11746,"Ġclaripy":11747,"Ġflush":11748,"witches":11749,"inspect":11750,"Ġfastreid":11751,"Ġdetected":11752,"sence":11753,"Ġcookies":11754,"è®¡ç®Ĺ":11755,")})<":11756,"Less":11757,"Pickle":11758,"]['":11759,"tgt":11760,"æĽ":11761,"è·":11762,"heat":11763,"ĠSparse":11764,"conch":11765,"Ġha":11766,"Ġconven":11767,"Ġunload":11768,"INET":11769,"\"]))<":11770,"Ġzig":11771,"ĠJava":11772,"Ġneural":11773,"Ġuint":11774,"Mean":11775,"phase":11776,"depends":11777,"great":11778,"384":11779,"encoders":11780,"builders":11781,"çī¹":11782,"ĠCurrent":11783,":,":11784,"=.":11785,"Capture":11786,"LAB":11787,"Payload":11788,"SCRIPTION":11789,"leting":11790,"Ġcriterion":11791,"mel":11792,"asctime":11793,"Ġmixin":11794,"ĠTitle":11795,"Ġludwig":11796,"Ġ150":11797,"ĠDirectory":11798,"ĠDistribution":11799,"resolution":11800,"Ġ09":11801,"soup":11802,"Ġproduction":11803,"ARE":11804,"working":11805,"plots":11806,"Ġargv":11807,"Analysis":11808,"character":11809,"phone":11810,"ĠURLs":11811,"ĠTransl":11812,"...)":11813,"lru":11814,"Tracker":11815,"Creating":11816,"Attr":11817,"ĠCreates":11818,"SPEED":11819,"ConanFile":11820,"Diff":11821,"NX":11822,"RATE":11823,"TES":11824,"hc":11825,"histogram":11826,"inventory":11827,"ansion":11828,"Ġpb":11829,"Ġwon":11830,"ĠAD":11831,"ĠAttribute":11832,"ĠNULL":11833,"Ġhparams":11834,"Ġ-<":11835,"ĠFIX":11836,"former":11837,"produce":11838,"ĠEmbed":11839,"ĠWill":11840,"Ġobservations":11841,"Program":11842,"ClientOperationsMixin":11843,"primary":11844,"Ġclone":11845,"Ġseealso":11846,"There":11847,"AzureMgmt":11848,"SUCCESS":11849,"limate":11850,"RandomState":11851,"warns":11852,"Ġindicates":11853,"Forecast":11854,"Term":11855,"CASCADE":11856,"drf":11857,"ridden":11858,"vax":11859,"selint":11860,"elcome":11861,"ĠNull":11862,"ĠDon":11863,"Ġdeal":11864,"Ġgunicorn":11865,"Release":11866,"ĠConf":11867,"Expectation":11868,"ANSI":11869,"startup":11870,"conditional":11871,"overlap":11872,"Extract":11873,"Ġhandled":11874,"decrypt":11875,"ĠInterface":11876,"ĠSqlmapUnsupported":11877,"Camera":11878,"GP":11879,"Ops":11880,"SW":11881,"cxx":11882,"sns":11883,"wx":11884,"å¥":11885,"Ġrecorded":11886,"Ġreturning":11887,"ĠPort":11888,"(\"[":11889,"ssaging":11890,"poisson":11891,"notes":11892,"\")),<":11893,"ongo":11894,"111":11895,"Unicode":11896,"ĠKeyword":11897,"ĠABu":11898,"Iteration":11899,"Ġtranslation":11900,"Ġvertical":11901,"Schedule":11902,"analyze":11903,"Ġsupplied":11904,"ĠERROR":11905,"ĠHLSStream":11906,"/#":11907,"/_":11908,"Git":11909,"]\"},<":11910,"hold":11911,"qr":11912,"Ġfraction":11913,"esting":11914,"gevent":11915,"pet":11916,"isk":11917,"Ġgetting":11918,"ĠRealm":11919,"curr":11920,"maps":11921,"Ġattention":11922,"metic":11923,"discount":11924,"Ġfilled":11925,"fluid":11926,"authorization":11927,"Ġfreeze":11928,"Ġtracking":11929,"existent":11930,"FeatureException":11931,">[^":11932,"SPEC":11933,"PROTOCOL":11934,"ĠSqlmapUnsupportedFeatureException":11935,"-\\":11936,">\",":11937,"Fit":11938,"TED":11939,"ein":11940,"zlib":11941,"Ġ?":11942,"recursive":11943,"illi":11944,"ĠActor":11945,"ĠPayload":11946,"Ġrather":11947,"Ġ./":11948,"ĠOff":11949,"ĠESP":11950,"Ġvenv":11951,"ĠWAF":11952,"axs":11953,"DataParallel":11954,"markers":11955,"Ġattrib":11956,"Ġoptimize":11957,">====================":11958,"UMENT":11959,"Redis":11960,"Ġcells":11961,"=\"\",":11962,"ĠPolygon":11963,")|":11964,"224":11965,"8000":11966,"{<":11967,"áĬ":11968,"memoize":11969,"Ġmaking":11970,"changes":11971,"ĠNAME":11972,"testcase":11973,"Ġhaving":11974,"Ġground":11975,"ONT":11976,"ĠHO":11977,"bases":11978,"Ġpreferred":11979,"))],<":11980,"schemas":11981,"boto":11982,"ĠNotification":11983,"tensors":11984,"Ġkeepdims":11985,"Ġansiblelint":11986,"Ġdecorated":11987,"Utilities":11988,"SKIP":11989,"Ġreplaced":11990,"IDE":11991,"Using":11992,"_):<":11993,"catch":11994,"ç¼":11995,"coord":11996,"Ġassemb":11997,"Ġ27":11998,"Ġunsupported":11999,"ĠOperation":12000,"Ġchat":12001,"ĠJS":12002,"ĠStore":12003,"Ġimpro":12004,"Ġplotting":12005,"çĶŁ":12006,"mproperly":12007,"Ġextraction":12008,"ĠDisplay":12009,"Autom":12010,"Constraint":12011,"ĠTOKENIZER":12012,"WIDTH":12013,"mproperlyConfigured":12014,"\"'":12015,"/~":12016,"DK":12017,"Soot":12018,"SESSION":12019,"mw":12020,"saf":12021,"tlen":12022,"zulip":12023,"Ñĥ":12024,"inct":12025,"Ġcss":12026,"__)":12027,"concurrent":12028,"Ġhalf":12029,"\"\"\")<":12030,"jecture":12031,"scp":12032,"ĠWritten":12033,"company":12034,"Ġjump":12035,"lices":12036,"marks":12037,"Ġextractor":12038,"ATEG":12039,"nearest":12040,"completed":12041,"ORDIN":12042,"è¯·":12043,"Ġmonkey":12044,"Ġprotocols":12045,"Ġcookiecutter":12046,"Activ":12047,"ĠInitialize":12048,"Exporter":12049,"Ġcombined":12050,"ĠTrial":12051,"tleneck":12052,"PK":12053,"]\"<":12054,"four":12055,"rant":12056,"sses":12057,"tgz":12058,"iny":12059,"Ġcircle":12060,"Ġimportant":12061,"Ġfacade":12062,"Ġ\"+":12063,"extras":12064,"ĠSIG":12065,"Ġguess":12066,"umption":12067,"collector":12068,"Ġ`~":12069,"Ġplaces":12070,"quiet":12071,"Ġcoming":12072,"subscribe":12073,"Ġsoup":12074,"Ġdoing":12075,"Ġshouldn":12076,"Runtime":12077,"Validation":12078,"EPS":12079,"ĠABCMeta":12080,"ĠDeviceInfo":12081,"piece":12082,"/\",<":12083,"Copy":12084,"Pattern":12085,"Utility":12086,"bust":12087,"elf":12088,"ius":12089,"zoom":12090,"ðŁ":12091,"roke":12092,"Ġcum":12093,"meson":12094,"Ġreplic":12095,"Ġsocial":12096,"Ġinline":12097,"Ġml":12098,"adjust":12099,"ĠIE":12100,"filehandle":12101,"fileencoding":12102,"Ġeig":12103,"ĠRad":12104,"Inf":12105,"utoff":12106,"week":12107,"Ġprecondition":12108,"ucer":12109,"``.":12110,"Upload":12111,"ĠDataUpdateCoordinator":12112,"dataloader":12113,"096":12114,"Ġlimits":12115,"IFY":12116,"freedesktop":12117,"scanner":12118,"rotation":12119,"Ġexpressions":12120,"warded":12121,"ĠInitial":12122,"concatenate":12123,"Reporter":12124,"forecasting":12125,"è®¾ç½®":12126,"Called":12127,"Publisher":12128,"slider":12129,"æģ":12130,"atty":12131,"deli":12132,"Ġcard":12133,"Ġslight":12134,"Ġasynchronous":12135,"chors":12136,"ĠTH":12137,"elery":12138,"Ġ{},<":12139,"libraries":12140,"ĠBuffer":12141,"ipient":12142,"ewee":12143,"spot":12144,"corr":12145,"ĠProgress":12146,"OPTION":12147,"lipse":12148,"grees":12149,"signalprocessing":12150,"Ġdecrypt":12151,"attn":12152,"METADATA":12153,"è½½":12154,"hours":12155,">######################################<":12156,"Ġmajor":12157,"containers":12158,"CURRENT":12159,"shortcuts":12160,"ascade":12161,"CCE":12162,"ZONE":12163,"directories":12164,"ulo":12165,"æı":12166,"segments":12167,"erta":12168,"Ġcut":12169,"Ġpure":12170,"Ġbrightness":12171,"ĠCL":12172,"ĠTotal":12173,"ĠMore":12174,"Ġdeserialize":12175,"Ġstrategies":12176,"DEP":12177,"250":12178,"These":12179,"locations":12180,"restore":12181,"webio":12182,"ĠWebhook":12183,"IGNED":12184,"Headers":12185,"aneous":12186,"è½¬":12187,"QUEUE":12188,"Ġrespons":12189,">########################################################################":12190,"EK":12191,"]')<":12192,"`)":12193,"cnn":12194,"hue":12195,"Ð¼":12196,"Ġdates":12197,"ulations":12198,"ĠLegacy":12199,"andres":12200,"Ġgra":12201,"('../":12202,"Recorded":12203,"reduction":12204,"ICT":12205,"ĠReport":12206,"Ġchalice":12207,"CHO":12208,"PECT":12209,"Ġbasename":12210,"Managed":12211,"[:]":12212,"ĠRuntime":12213,"åĲį":12214,"isticsTypes":12215,"Ġdumps":12216,"tours":12217,"Activity":12218,"squared":12219,"éĿ¢":12220,")`.<":12221,">',":12222,"CAL":12223,"FROM":12224,"NOR":12225,"lit":12226,"tts":12227,"ufunc":12228,"ç«":12229,"ĠçļĦ":12230,"Ġnx":12231,"Ġdpi":12232,"__)),":12233,"ĠMedia":12234,"trim":12235,"Ġhmac":12236,"Ġhorizontal":12237,"Ġlosses":12238,"ATES":12239,"architecture":12240,"dbt":12241,"ĠAuthentication":12242,"TESTS":12243,"Functions":12244,"åĲĳ":12245,"mkdtemp":12246,"ĠLOAD":12247,"Partition":12248,"ĠROOT":12249,"ierarchy":12250,"assertIsNotNone":12251,"Aggreg":12252,"DUL":12253,"Icon":12254,"dx":12255,"usion":12256,"Ġalembic":12257,"Ġpod":12258,"Ġft":12259,"geo":12260,"Ġsolver":12261,"urser":12262,"Ġdx":12263,"ilename":12264,"ĠTEMP":12265,"ĠPos":12266,"ĠPredict":12267,"imm":12268,"plash":12269,"Ġvcr":12270,"assertExcel":12271,"Ġsen":12272,"ĠDeep":12273,"Ġperformed":12274,"Ġtransfer":12275,"))]<":12276,"blocking":12277,"Defines":12278,"ĠsetUpClass":12279,"Ġconstraints":12280,"ĠNOTICE":12281,"cursively":12282,"macro":12283,"partitioned":12284,"BLUE":12285,"Ġabsltest":12286,"ç½ĳ":12287,"Robot":12288,"scape":12289,"WINDOWS":12290,"quickstart":12291,"LEARN":12292,"Ġomegaconf":12293,"Ġtqsdk":12294,"assertExcelEqual":12295,"GRE":12296,"Ro":12297,"Rate":12298,"Vi":12299,"dark":12300,"xpath":12301,"Ġ=================================":12302,"Ġinfer":12303,"Ġmargin":12304,"ĠCalc":12305,"#####<":12306,"olar":12307,"ĠMS":12308,"Ġlm":12309,"artbeat":12310,"ERO":12311,"Ġnameko":12312,"ATT":12313,"ATURE":12314,"pytestmark":12315,"ĠUnknown":12316,"Ġinstanti":12317,"Ġ['-":12318,"KeyVault":12319,"Ġtrim":12320,"åıĺ":12321,"amplers":12322,"ĠSpan":12323,"Interrupt":12324,"cognitive":12325,"paddle":12326,"deprecate":12327,"PerlPackage":12328,"GG":12329,"Pop":12330,"Zip":12331,"elif":12332,"gcp":12333,"symbolic":12334,"xavier":12335,"|\\":12336,"Ġcare":12337,"Ġcancel":12338,"Ġflip":12339,"Ġdl":12340,"__[":12341,"ĠSSH":12342,"ĠAlert":12343,"tran":12344,"Ġelem":12345,"ffmpeg":12346,"Ġarctic":12347,"Ġparagraph":12348,"Execute":12349,"fileno":12350,"DataLoader":12351,"Ġspecification":12352,"NotImplementedError":12353,"ï¼Ī":12354,"Annotation":12355,"Ġinstallation":12356,"ĠWorker":12357,"Ġdbt":12358,"Ġtrials":12359,"Ġnetworks":12360,"PREC":12361,"databases":12362,"pipelines":12363,"Ġ-----------------------------------------------------<":12364,"uitable":12365,"vuln":12366,"Ġmkdirp":12367,"ĠDatetimeIndex":12368,"ĠFILE":12369,">')<":12370,"HIGH":12371,"Pers":12372,"RPC":12373,"Turn":12374,"]}":12375,"candidates":12376,"pal":12377,"sampling":12378,"symlink":12379,"yun":12380,"icles":12381,"Ġfr":12382,"Ġreload":12383,"importlib":12384,"pep":12385,"cean":12386,"ĠAv":12387,"Ġranges":12388,"addCallback":12389,"transition":12390,"Ġ...,":12391,"tributor":12392,"ï¼ī":12393,"what":12394,"Almost":12395,"Ġretval":12396,"Ġpredictor":12397,"ĠMove":12398,"ĠHelp":12399,"çŃĸ":12400,")+":12401,",'":12402,"Oper":12403,"hit":12404,"rd":12405,"tile":12406,"Ġcandidate":12407,"Ġpub":12408,"ĠShape":12409,"ĠSwagger":12410,"ĠTypedDict":12411,"ĠNOR":12412,"ĠNONE":12413,"Ġhistogram":12414,"ONLY":12415,"INIT":12416,"ĠĠĠĠĠĠĠĠĠĠĠĠĠĠĠĠĠĠĠĠĠĠĠĠĠĠĠĠĠĠĠĠĠĠĠĠĠĠĠĠ":12417,"spread":12418,"DET":12419,"ĠXXX":12420,"mocks":12421,"Param":12422,"Ġshares":12423,"generation":12424,"tokenize":12425,"Setting":12426,"ranches":12427,"Ġimplementing":12428,"Static":12429,"Help":12430,"ĠNameError":12431,"ConnectionError":12432,"Ġmarkup":12433,"Byte":12434,"Ġphone":12435,"Health":12436,"Methods":12437,"ĠRegression":12438,"çĽ¸":12439,"ĠIOError":12440,"ĠStatic":12441,"PROCESS":12442,"åĨħ":12443,"ĠPandasExecutionEngine":12444,"Ġattempt":12445,"ĠTemporary":12446,"Evaluator":12447,"scratch":12448,")',":12449,"AST":12450,"UES":12451,"]])":12452,"hanlp":12453,"mal":12454,"ya":12455,"Ġfc":12456,"urk":12457,"ĠTk":12458,"places":12459,"INVALID":12460,"ĠSequential":12461,"Ġmemo":12462,"Ġkombu":12463,"Ġbases":12464,"ĠDataSet":12465,"FAIL":12466,"transformations":12467,"ĠHTTPError":12468,"ĠAzureMgmt":12469,"SAMPLE":12470,"parents":12471,"Ġoffsets":12472,"ENDING":12473,"Span":12474,"ApiClient":12475,"reporter":12476,"networks":12477,"DateTime":12478,"Ġestimate":12479,"FILENAME":12480,"æ¨¡åŀĭ":12481,"ĠOptimization":12482,"Ġcalendar":12483,"Ġdeployment":12484,"riancho":12485,"RecordedTestCase":12486,"]_":12487,"åĳ":12488,"ongs":12489,"recorder":12490,"untries":12491,"expl":12492,"Ġmiddleware":12493,"ĠML":12494,"ĠFrozen":12495,"ĠIns":12496,"Ġstores":12497,"ibo":12498,"ĠHost":12499,"viation":12500,"METR":12501,"ĠProblem":12502,"minimize":12503,"Ġcommun":12504,"120":12505,"creen":12506,"Ġspatial":12507,"xxx":12508,"installer":12509,"Ġtoolbar":12510,"Ġskipped":12511,"ooter":12512,"Ġcalculation":12513,"WARE":12514,"ĠHelper":12515,"pmf":12516,"auge":12517,"ĠMutableMapping":12518,"ĠAutom":12519,"CNN":12520,"Opt":12521,"Sentence":12522,"UME":12523,"xlim":12524,"yaxis":12525,"áī":12526,"Ġtail":12527,"leaf":12528,"Ġcrawler":12529,"ctc":12530,"isolation":12531,"ĠSK":12532,"ENCE":12533,"Ġcountry":12534,"packaging":12535,"mlab":12536,"coro":12537,"cors":12538,"Provide":12539,"positional":12540,"oked":12541,"objs":12542,"2010":12543,"Ġoverlap":12544,"offline":12545,"Implements":12546,"ĠANSI":12547,"ĠĠĠĠĠĠĠĠĠĠĠĠĠĠĠĠĠĠĠĠĠĠĠĠĠĠĠĠĠĠĠĠĠĠ":12548,"Sphinx":12549,"TaskSet":12550,"Ġoverrides":12551,"Iterable":12552,"expressions":12553,"powerline":12554,"deleted":12555,"OrderedDict":12556,"icipants":12557,"Ġpurposes":12558,"balance":12559,"CHANGE":12560,"Ġrmse":12561,"omentum":12562,"Ġhappen":12563,"Greater":12564,"Analyzer":12565,"ĠParlaiParser":12566,"IUS":12567,"IZE":12568,"Math":12569,"`:":12570,"gym":12571,"gba":12572,"jax":12573,"mg":12574,"syn":12575,"arrange":12576,"icol":12577,"__(\"":12578,"Ġ'\\\\":12579,"ĠBug":12580,"Ġxarray":12581,"ĠRole":12582,"ĠHub":12583,"prep":12584,"wee":12585,"minal":12586,"BaseCommand":12587,"chest":12588,"aves":12589,"mocker":12590,"PLACE":12591,"Ġdivis":12592,"Ġautogen":12593,"Region":12594,"lexa":12595,"destination":12596,"ĠTraining":12597,"Ġchainer":12598,"automation":12599,"ç¬¦":12600,"aliases":12601,"DecodeError":12602,"EDED":12603,"Full":12604,"HAND":12605,"QN":12606,"]):":12607,"pil":12608,"stone":12609,"geom":12610,"Ġdistributions":12611,"Ġ(_":12612,"Ġ180":12613,"ĠGot":12614,"Ġproblems":12615,"ometric":12616,"Ġmechanism":12617,"fox":12618,"ifiable":12619,"ĠRepo":12620,"Ġlisten":12621,"Approval":12622,"168":12623,"Ġvalidators":12624,"Ġminutes":12625,"Ġfiltered":12626,"likelihood":12627,"AGENT":12628,"going":12629,"optimization":12630,"Regressor":12631,"QUAL":12632,"Detection":12633,"probability":12634,"Ġestimator":12635,"Ġenvironments":12636,"oooooooo":12637,"æĥħ":12638,">###############################################################################<":12639,"BRIGHT":12640,"FFIX":12641,"YAML":12642,"gift":12643,"Ġcereal":12644,"peer":12645,"ĠSame":12646,"ĠMultiple":12647,"isters":12648,"party":12649,"Ġcoords":12650,"Ġalgo":12651,"Ġprojection":12652,"Ġshutdown":12653,"Ġtransition":12654,"ĠArch":12655,")))":12656,"Ġnonlocal":12657,"PluginCanHandleUrl":12658,"Ġgoing":12659,"Ġsnippet":12660,"ĠExprId":12661,"Member":12662,"alettes":12663,"rotate":12664,"Ġcommented":12665,"çĽ®":12666,"Ġfixtures":12667,"ĠHeader":12668,"åĿĩ":12669,"ç¬¬":12670,"$',":12671,"(('":12672,"/'":12673,"HR":12674,"Virtual":12675,"mtime":12676,"tip":12677,"Ġgs":12678,"deque":12679,"Ġca":12680,"Ġcirc":12681,"Ġsns":12682,"Ġinc":12683,"ĠSync":12684,"Ġls":12685,"approx":12686,"backbone":12687,"**:":12688,"12345678":12689,"Listing":12690,"Ġbackends":12691,"Ġservers":12692,"åĪ¶":12693,"Ġfinish":12694,"Ġplaylist":12695,"Ġspecifying":12696,"Cursor":12697,"Ġvertex":12698,"æĸ¹æ³ķ":12699,"Dropout":12700,"Ġalternative":12701,"Directive":12702,"Ġnginxproxy":12703,")-":12704,"BGR":12705,"DAY":12706,"MC":12707,"Scope":12708,"Variant":12709,"\\\"":12710,"elem":12711,"gcs":12712,"noop":12713,"sequences":12714,"Ġ(...)":12715,"umid":12716,"ĠMAN":12717,"ĠMike":12718,"ĠPER":12719,"0002":12720,"Ġstaff":12721,"ĠHigh":12722,"intersection":12723,"csrf":12724,"disconnect":12725,"']))<":12726,"Ġacc":12727,"Ġindexes":12728,"NotExist":12729,"errno":12730,"tempfile":12731,"åı£":12732,"ultiplier":12733,"catter":12734,"Ġquad":12735,"aaa":12736,"multipart":12737,"kernels":12738,"Ġsnapshot":12739,"ĠRegister":12740,"Ġpoly":12741,"Ġpurpose":12742,"Ġreproduc":12743,"Ġvulner":12744,"RESPONSE":12745,"Ġslightly":12746,"Db":12747,"TK":12748,"TXT":12749,"egg":12750,"rp":12751,"è£":12752,"rott":12753,"armon":12754,"Ġcandidates":12755,"utt":12756,"Ġintern":12757,"Ġtox":12758,"ĠNE":12759,"ĠPAR":12760,"Rev":12761,"ĠBO":12762,"pective":12763,"ĠTestModel":12764,"ĠArt":12765,"Ġindexing":12766,"compatibility":12767,"Preprocessor":12768,"SUFFIX":12769,"Period":12770,"åĲĮ":12771,"ãĢģ":12772,"Advisor":12773,"Ġsuccessfully":12774,"ierarchical":12775,"AUTO":12776,"FIELD":12777,"DISCOVERY":12778,"*=\\":12779,"Dump":12780,"Safe":12781,"WRITE":12782,"cus":12783,"dog":12784,"your":12785,"Ġvec":12786,"---":12787,"mpath":12788,"algo":12789,"Ġpp":12790,"Ġbandit":12791,"ĠSize":12792,"ĠShare":12793,"pyyaml":12794,"Ġ[('":12795,"imod":12796,"Ġproselint":12797,"\"]),<":12798,"Ġcoe":12799,"ARI":12800,"monkeypatch":12801,"IGIN":12802,"Ġimmediate":12803,"BaseException":12804,"IDD":12805,"avicon":12806,"LOAT":12807,"rowd":12808,"ĠUnit":12809,"KeyList":12810,"{}.":12811,"flask":12812,"ItShould":12813,"åıª":12814,"2001":12815,"Ġeditor":12816,"estimators":12817,"ĠStreamWriter":12818,"ĠGitHub":12819,"Predictor":12820,"vaccin":12821,"AlmostEqual":12822,"CALL":12823,"LES":12824,"Slot":12825,"Shape":12826,"]\\":12827,"hide":12828,"joint":12829,"lyph":12830,"atypes":12831,"dead":12832,"always":12833,"Ġct":12834,"Ġfg":12835,"loudf":12836,"Ġbg":12837,"Ġforecast":12838,"ulum":12839,"odo":12840,"testation":12841,"typeStr":12842,"ENER":12843,"ARG":12844,"Ġconfigparser":12845,"Ġscatter":12846,"rained":12847,"Ġcompress":12848,"webdriver":12849,">\"\"\".":12850,"Ġchars":12851,"riding":12852,"Left":12853,"Learning":12854,"Ġconftest":12855,"Ġreleased":12856,"æį¢":12857,"})\"<":12858,"Ġarchitecture":12859,"ĠStreamReader":12860,"Ġmanimlib":12861,"Deprecated":12862,"RDFProto":12863,"RUNNING":12864,"Ġvisualization":12865,"AlchemyExecutionEngine":12866,"avigation":12867,"ĠCUDA":12868,"Driver":12869,"Edit":12870,"Kw":12871,"Os":12872,"klass":12873,"éĥ":12874,"ino":12875,"station":12876,"Ġagg":12877,"alty":12878,"ancer":12879,"Ġfac":12880,"Ġmopidy":12881,"pector":12882,"ĠTCP":12883,"ulative":12884,"tester":12885,"Ġexpl":12886,"Reason":12887,"ĠSecret":12888,"ĠTheme":12889,"SECON":12890,"spans":12891,"metac":12892,"Ġinstantiate":12893,"')),<":12894,"345":12895,"ĠParam":12896,"ECTORS":12897,"Ġmetaclass":12898,"Creates":12899,"Ġstrides":12900,"NotificationService":12901,"hrmann":12902,"NL":12903,"Share":12904,"cisco":12905,"fellow":12906,"simp":12907,"ustr":12908,"erce":12909,"reh":12910,"ashed":12911,"Ġpress":12912,"Ġbridge":12913,"ĠScan":12914,"ĠLif":12915,"ĠtestItShould":12916,"Ġdecomp":12917,"ĠFuture":12918,"ĠFÃ¤":12919,"Ġpytz":12920,"ĠBU":12921,"ĠBY":12922,"Ġresolver":12923,"Ġdatapath":12924,"Ġvi":12925,"assertAlmostEqual":12926,"ĠRB":12927,"ysical":12928,"readme":12929,"APIView":12930,"Ġimplementer":12931,"Ġminor":12932,"ordering":12933,"modes":12934,"QtGui":12935,"Ġpopulation":12936,"ĠPermission":12937,"ĠIndexError":12938,"Ġmerged":12939,"directive":12940,"ĠMarkdown":12941,"Details":12942,"Ġcrash":12943,"ĠGoodfellow":12944,"æģ¯":12945,"ĠFÃ¤hrmann":12946,")},<":12947,"Alias":12948,"Mutation":12949,"bra":12950,"wo":12951,"ybrid":12952,"Ġcf":12953,"Ġclf":12954,"unlink":12955,"ĠCircle":12956,"ĠShell":12957,"ileaks":12958,"Ġanchor":12959,"ĠMic":12960,"(\"__":12961,"Ġdead":12962,"Ġgrammar":12963,"Ġvo":12964,"ĠRT":12965,"apple":12966,"ĠVirtual":12967,"sizeof":12968,"Ġshift":12969,"quet":12970,"'])":12971,"projection":12972,"oku":12973,"Ġ2007":12974,"Ġagents":12975,"Ġserialization":12976,"Ġlengths":12977,"limited":12978,"HTTPError":12979,"Ġways":12980,"Ġactivity":12981,"ociation":12982,"~~~~~~~~~~~~~~~~":12983,"Move":12984,"æ¨¡åĿĹ":12985,"Ġsheets":12986,"æĮĩ":12987,"Ġtoler":12988,"Ġzigpy":12989,"RDFProtoStruct":12990,"Sorted":12991,"Timer":12992,"fold":12993,"migration":12994,"arp":12995,"assemble":12996,"Ġprom":12997,"Ġsanit":12998,"ĠCI":12999,"ĠTimer":13000,"ĠLive":13001,"quux":13002,"concurrency":13003,"ĠMac":13004,"formula":13005,"Ġsecurity":13006,"adding":13007,"mong":13008,"Ġspecifies":13009,"DOM":13010,"creator":13011,"posals":13012,"Ġendpoints":13013,"Arn":13014,"median":13015,"Ġfaster":13016,"snap":13017,"Ġblueprint":13018,"Character":13019,"Ġlooks":13020,"Ġevaluating":13021,"propag":13022,"ä¹ĭ":13023,"Ġeasier":13024,"çīĩ":13025,"lidean":13026,"Verify":13027,"VIDIA":13028,"metacpan":13029,"*:":13030,"UST":13031,"gold":13032,"sequ":13033,"reens":13034,"relay":13035,"Ġfragment":13036,"Ġrecur":13037,"Ġbatches":13038,"Ġbroken":13039,"Ġmach":13040,"ĠOUT":13041,"Ġvd":13042,"ĠUtil":13043,"Ġscroll":13044,"ĠTestObject":13045,"Stock":13046,"Ġcanonical":13047,"Ġkeyboard":13048,"Ġkeywords":13049,"akeover":13050,"filing":13051,"ĠPygments":13052,"sheetView":13053,"Ġtrying":13054,"vertical":13055,"filtered":13056,"slash":13057,"charge":13058,"Ġsignificant":13059,"ĠZulip":13060,"AzureCredential":13061,"ĠTimeSeries":13062,">================================================":13063,"æĪĸ":13064,"TrainedModel":13065,"Ġfontsize":13066,"Decorator":13067,"=\"\")<":13068,"ĠPYTHON":13069,"ImportError":13070,"ĠOverride":13071,"Ġbeginning":13072,"'\",":13073,"Audio":13074,"BA":13075,"Cmd":13076,"Dynamic":13077,"bul":13078,"iData":13079,"rv":13080,"áĭ":13081,"æ±":13082,"ī²":13083,"uttle":13084,"Ġpm":13085,"ĠSave":13086,"ĠMY":13087,"Ġru":13088,"Ġstub":13089,"agers":13090,"Ġ%}<":13091,"Ġ45":13092,"DELETE":13093,"ĠExpect":13094,"Ġdispatch":13095,"interpolate":13096,"Ġdictionaries":13097,"Ġusually":13098,"Ġhttpie":13099,"Definitions":13100,"Ġlocals":13101,"doctest":13102,"EXEC":13103,"ĠAddress":13104,"Interval":13105,"Assert":13106,"detector":13107,"Ġstages":13108,"Ġincrement":13109,"bboxes":13110,"Ġbindings":13111,"ĠThreadPool":13112,"adapter":13113,"ĠHowever":13114,"Cipher":13115,"Ray":13116,"RAD":13117,"hop":13118,"lan":13119,"lication":13120,"youtube":13121,"dee":13122,"Ġsv":13123,"Ġdcc":13124,"ila":13125,"ĠScal":13126,"ĠSummary":13127,"apse":13128,"ĠFull":13129,"Ġthird":13130,"iration":13131,"hai":13132,"Ġxr":13133,"addCleanup":13134,"appings":13135,"dbms":13136,"interactive":13137,"uclidean":13138,"eventhub":13139,"Ġugettext":13140,"slack":13141,"ĠNotImplemented":13142,"generators":13143,"masks":13144,"CPU":13145,"ĠDisk":13146,"factors":13147,"Primitive":13148,"Ġeasily":13149,"Ġdownloaded":13150,"Matcher":13151,"Ġderived":13152,"Ġlineno":13153,"separator":13154,"deprecation":13155,"éĥ¨":13156,"Dot":13157,"Dagster":13158,"FR":13159,"Ian":13160,"around":13161,"hallo":13162,"mach":13163,"oi":13164,"tm":13165,"}`":13166,"Ġesc":13167,"ente":13168,"ention":13169,"Ġnlp":13170,"ĠMust":13171,"Ġunused":13172,"Err":13173,"Ġec":13174,"ĠBASE":13175,"Ġseem":13176,"ĠRect":13177,"Ġcoordinate":13178,"ĠUP":13179,"ĠUTC":13180,"**<":13181,"PED":13182,"104":13183,"ĠXorg":13184,"opengl":13185,"enced":13186,"Assigned":13187,"Ġdirs":13188,"SOFT":13189,"è¯į":13190,"ĠExtract":13191,"reports":13192,"fuzzable":13193,"Ġindicate":13194,"zzableRequest":13195,"launcher":13196,"incremental":13197,"PAY":13198,"Ta":13199,"YY":13200,"friendly":13201,"ior":13202,"mdi":13203,"will":13204,"inery":13205,"attemp":13206,"arded":13207,"ĠCRE":13208,"ĠSw":13209,"ĠSplit":13210,"ĠMay":13211,"Ġrer":13212,"Ġgives":13213,"ĠFailure":13214,"Ġstand":13215,"sound":13216,"Ġuniform":13217,"ibyte":13218,"Testing":13219,"osp":13220,"ĠRegex":13221,"untu":13222,"Ġkv":13223,"Stub":13224,"paramtype":13225,"matic":13226,"ĠProvides":13227,"Ġpreprocessor":13228,"aleor":13229,"Ġendog":13230,"Ġuv":13231,"=[],":13232,"Ġprincipal":13233,"radients":13234,"Ġdirective":13235,"Ġhigher":13236,"cookiecutter":13237,"Ready":13238,"Trigger":13239,"finder":13240,"Ġseparator":13241,"éĩĳ":13242,"ĠPLATFORM":13243,"Dataclass":13244,"MOTE":13245,">----------------":13246,"CSS":13247,"Gu":13248,"batches":13249,"cz":13250,"rfc":13251,"roguard":13252,"hetic":13253,"Ġpull":13254,"Ġfan":13255,"Ġnargs":13256,"ĠCR":13257,"Ġ(%":13258,"adb":13259,"ĠTune":13260,"ĠAdapt":13261,"Ġhi":13262,"apers":13263,"resume":13264,"Ġvoid":13265,"assertLess":13266,"ĠHtml":13267,"ĠDeferred":13268,"regentry":13269,"mini":13270,"positions":13271,"Ġmakefile":13272,"gtk":13273,"Ġtrailing":13274,"shapes":13275,"rmse":13276,"Expectations":13277,"Ġolder":13278,"ĠDEVICE":13279,"NONE":13280,"gaussian":13281,"migrate":13282,"pwd":13283,"ĠÃ":13284,"Ġair":13285,"asr":13286,"Ġ\"\\\\":13287,"unce":13288,"liers":13289,"Ġ'..":13290,"imgs":13291,"ĠFunc":13292,"kwarg":13293,"'))":13294,"Ġreadline":13295,"Ġ\\\"":13296,"Nodes":13297,"Ġ\"/\")<":13298,"Ġcharset":13299,"layouts":13300,"ĠEvents":13301,"Ġdirectives":13302,"Disabled":13303,"fusion":13304,"Reflected":13305,"Ġeffects":13306,"LIBR":13307,"ACTION":13308,"BooleanField":13309,"ĠSnippet":13310,"ascript":13311,"FrameworkException":13312,"+<":13313,"5000":13314,"Bin":13315,"DT":13316,"Den":13317,"Pen":13318,"`_":13319,"aemon":13320,"bas":13321,"micro":13322,"sil":13323,"xFF":13324,"ylim":13325,"éħį":13326,"Ġâ":13327,"Ġ-----<":13328,"information":13329,"Ġdtypes":13330,"people":13331,"pter":13332,"ĠDat":13333,"Ġdet":13334,"ĠFire":13335,"ubic":13336,"paration":13337,"Ġunion":13338,"urlpatterns":13339,"Ġgetregentry":13340,"Ġsecrets":13341,"regions":13342,"ASC":13343,"constraints":13344,"ĠJust":13345,"Ġcurve":13346,"upytext":13347,"Ġtemperature":13348,"Ġstreamreader":13349,"Ġstreamwriter":13350,"errMsg":13351,"DFExecutionEngine":13352,"FOUND":13353,"ç»ĥ":13354,"RAME":13355,"åĬ¡":13356,"LATITUDE":13357,"å¼Ģ":13358,"Ġplaceholder":13359,"ĠAccessToken":13360,"ĠwarnMsg":13361,"Ġcalib":13362,"Ġincrementalencoder":13363,"Ġincrementaldecoder":13364,"LONGITUDE":13365,"structuredtext":13366,")'":13367,"*,":13368,"DC":13369,"Grr":13370,"Next":13371,"SCRIPT":13372,"[~":13373,"eon":13374,"every":13375,"sio":13376,"online":13377,"Ġmicro":13378,"pyarrow":13379,"tracing":13380,"ocation":13381,"ĠFixed":13382,"Ġproper":13383,"orkel":13384,"spk":13385,"interpreter":13386,"avascript":13387,"ä¸İ":13388,"door":13389,"Ġcolored":13390,"INTE":13391,"Ġwebpage":13392,"ĠĠĠĠĠĠĠĠĠĠĠĠĠĠĠĠĠĠĠĠĠĠĠĠĠĠĠĠĠĠĠĠĠĠĠĠĠĠ":13393,"Ġcustomer":13394,"payloads":13395,"Descri":13396,"ĠDepends":13397,"CodecInfo":13398,"TAIN":13399,"CHANNEL":13400,"çķ¥":13401,"ĠSYSTEM":13402,"ursery":13403,"Revises":13404,"High":13405,"WR":13406,"focus":13407,"yl":13408,"yaw":13409,"Ġub":13410,"atives":13411,"Ġide":13412,"Ġocr":13413,"Ġmixed":13414,"Ġtom":13415,"quotes":13416,"Ġhue":13417,"ints":13418,"005":13419,"Ġbecome":13420,"Ġunquote":13421,"Ġprotect":13422,"ĠHandler":13423,"STD":13424,"arios":13425,"argins":13426,"PyTorch":13427,"Ġsizeof":13428,"Ġ75":13429,"Ġsummarizer":13430,"allest":13431,"armer":13432,"protocolentities":13433,"è®Ń":13434,"finish":13435,"Ġpolynomial":13436,"HEADERS":13437,"ĠContainerRegistry":13438,"Ġvariance":13439,"11111111":13440,"pixels":13441,"................":13442,"ĠFactory":13443,"ç´ł":13444,"Ġcaptured":13445,"PECTED":13446,"imodal":13447,"ĠXorgPackage":13448,"Bit":13449,"Paged":13450,"Position":13451,"Shared":13452,"Succeeded":13453,"Tags":13454,"cx":13455,"iro":13456,"rnl":13457,"vox":13458,"enarios":13459,"arant":13460,"Ġpal":13461,"uni":13462,"Ġask":13463,"about":13464,"Ġtester":13465,"ĠDomain":13466,"ĠENA":13467,"Conanfile":13468,"withdraw":13469,"dbus":13470,"ĠKeys":13471,"TRANS":13472,"Ġmatched":13473,"COOK":13474,"Ġcontained":13475,"ResponseError":13476,"aze":13477,"Ġacts":13478,"EntityFeature":13479,"Ġunicodedata":13480,"literal":13481,"Ġrendered":13482,"Ġfeaturetools":13483,"Ġpolygon":13484,"buckets":13485,"Visual":13486,"Ġffmpeg":13487,"amila":13488,"Correct":13489,"dimensional":13490,"æ¯ı":13491,"authenticated":13492,"Variational":13493,"Corpus":13494,"FN":13495,"LSTM":13496,"dn":13497,"duplicate":13498,"human":13499,"Ġclosing":13500,"utter":13501,"Ġsymlink":13502,"ceeded":13503,"aph":13504,"ĠPattern":13505,"ĠGET":13506,"ssibly":13507,"Ġ34":13508,"Ġjitter":13509,"Ġklass":13510,"Ġkovid":13511,"Ġcompiled":13512,"csr":13513,"neighbors":13514,"actors":13515,"population":13516,"Ġimpacket":13517,"8859":13518,"Ġmasks":13519,"homekit":13520,"Ġsorting":13521,"(\"\",":13522,"è´¦":13523,"LOBAL":13524,"è®Ńç»ĥ":13525,":'":13526,"Bucket":13527,"Parent":13528,"UNA":13529,"Watch":13530,"_/":13531,"gf":13532,"hp":13533,"jwt":13534,"jupyter":13535,"lz":13536,"reply":13537,"Ġsio":13538,"Ġinventory":13539,"Ġ(:":13540,"ĠAC":13541,"Ġhist":13542,"Ġlab":13543,"andra":13544,"Ġ120":13545,"ets":13546,"ĠDiv":13547,"Ġgray":13548,"ables":13549,"yped":13550,"ypdf":13551,"userguide":13552,"ecause":13553,"ĠReferences":13554,"048":13555,"Ġquotes":13556,"Ġstructures":13557,"CALE":13558,"writing":13559,"Arguments":13560,"PRETRAIN":13561,".*')":13562,"Ġboundary":13563,"certbot":13564,"Ġinvoke":13565,"AutoTeacherTest":13566,"Ġdigit":13567,"Ġcomputation":13568,"Ġexecfile":13569,"ĠBlobServiceClient":13570,"HomeAssistant":13571,"Ġencryption":13572,"=\"\"\"<":13573,"?\\":13574,"Mis":13575,"Press":13576,"TABLE":13577,"WW":13578,"aiter":13579,"frequency":13580,"kafka":13581,"tell":13582,"Î±":13583,"lear":13584,"Ġcipher":13585,"Ġreconstruction":13586,"Ġbootstrap":13587,"acu":13588,"Ġmanticore":13589,"olding":13590,"ĠGUI":13591,"ĠRot":13592,"addHandler":13593,"ENABLE":13594,"Ġwho":13595,"Ġjwt":13596,"DELAY":13597,"processors":13598,"123456":13599,"ĠJosef":13600,"ĠStack":13601,"CTION":13602,"Composite":13603,"polynomial":13604,"ĠFileNotFoundError":13605,"Ġrepresented":13606,"Ġvisidata":13607,"bounding":13608,"ĠDocumentation":13609,"Ġexecutor":13610,"Track":13611,"éĩį":13612,"FILTER":13613,"å½¢":13614,"ĠSortedKeyList":13615,"$\",":13616,"Categorical":13617,"Features":13618,"Google":13619,"Pack":13620,"jump":13621,"ki":13622,"satisf":13623,"well":13624,"æ¬":13625,"è°":13626,"Ġage":13627,"hemat":13628,"Ġpause":13629,"Ġreversed":13630,"entest":13631,"Ġsolve":13632,"acf":13633,"Ġdefining":13634,"ĠSigma":13635,"Ġliteral":13636,"(\"{":13637,"Ġ224":13638,"004":13639,"Ġnotifications":13640,"tailed":13641,"Ġprog":13642,"Ġxx":13643,"Ġsegments":13644,"ĠRNN":13645,"ĠWIN":13646,"ensive":13647,"CHR":13648,"103":13649,"calendar":13650,"rowse":13651,"Ġlogged":13652,"Ġlibs":13653,"ĠResNet":13654,"PLU":13655,"789":13656,"datatype":13657,"polator":13658,"Ġconverting":13659,"enders":13660,"è¯ģ":13661,"ĠModuleInfo":13662,"ĠDoes":13663,"ä¸ŃçļĦ":13664,"attack":13665,"Ġzeroconf":13666,"\"/></":13667,"Ġepsilon":13668,"Available":13669,"Flag":13670,"Ġremaining":13671,"ĠTopic":13672,"ĠFuzzableRequest":13673,"ĠToolkit":13674,"Ġscopes":13675,"CCEEDED":13676,">.":13677,"Ensure":13678,"GH":13679,"LANG":13680,"Mac":13681,"NG":13682,"Total":13683,"horizontal":13684,"margin":13685,"music":13686,"pw":13687,"warmup":13688,"éĶ":13689,"Ġutc":13690,"Ġpie":13691,"Ġpwd":13692,"Ġbas":13693,"Ġmiddle":13694,"ĠClock":13695,"ĠCython":13696,"choose":13697,"Ġfork":13698,"ithmetic":13699,"intypes":13700,"()``":13701,"Ġxlsx":13702,"ICK":13703,"istries":13704,"awx":13705,"Ġshapes":13706,"acts":13707,"udnn":13708,"Ġspawn":13709,"gzip":13710,"PATTERN":13711,"ServiceException":13712,"Prefix":13713,"polygon":13714,"earer":13715,"Ġdisplayed":13716,"ĠCommandError":13717,">========================":13718,"cards":13719,"Supported":13720,"Ġphi":13721,"ĠCOCO":13722,"Labels":13723,"Ġsuccessful":13724,"Active":13725,"Ġretrieved":13726,"watcher":13727,"membership":13728,"Changed":13729,"weepy":13730,"*(":13731,":\"":13732,"Live":13733,"Small":13734,"WX":13735,"bobs":13736,"guess":13737,"hap":13738,"kiz":13739,"kits":13740,"wildcard":13741,"yt":13742,"Ġ))<":13743,"Ġci":13744,"mes":13745,"Ġredd":13746,"ĠStep":13747,"Ġ'*":13748,"ĠASC":13749,"ĠLast":13750,"quit":13751,"processed":13752,"article":13753,"ixmap":13754,"viour":13755,"mostat":13756,"MEM":13757,"berta":13758,"ĠKernel":13759,"ModelSerializer":13760,"Users":13761,"Align":13762,"Ġmypy":13763,"2008":13764,"æľº":13765,"multiprocessing":13766,"Ġvars":13767,"è¯ķ":13768,"MPLES":13769,"warnMsg":13770,"emonstr":13771,"Ġlatex":13772,"lapack":13773,"Ġmetavar":13774,"ĠpyqtSignal":13775,"ORDINATOR":13776,")}\")<":13777,"]\",":13778,"cgit":13779,"draft":13780,"fragment":13781,"va":13782,"Ġtax":13783,"alic":13784,"Ġreplay":13785,"Ġrecorder":13786,"Ġsucceed":13787,"Ġmag":13788,"lips":13789,"Ġ(`":13790,"adam":13791,"ĠSem":13792,"ĠTIME":13793,"ethe":13794,"amaz":13795,"ĠImp":13796,"ableFile":13797,"ĠBut":13798,"\"]),":13799,"Ġ33":13800,"material":13801,"ĠPyS":13802,"lare":13803,"ĠBaseCommand":13804,"Authors":13805,"medium":13806,"ĠThen":13807,"Ġmasked":13808,"Ġgeometry":13809,"Perform":13810,"ĠPerkt":13811,"binding":13812,"Ġdecoded":13813,"hexdigest":13814,"Ġpoll":13815,"ynchronized":13816,"SPACE":13817,"ĠConanException":13818,"ĠScrapy":13819,"çĽ´":13820,"âĸĪâĸĪâĸĪâĸĪ":13821,"iversal":13822,"å½ĵ":13823,"Ġsegmentation":13824,"ĠAWSFacade":13825,"Ġseverity":13826,"ARCHIVE":13827,"ticket":13828,"é¢Ħ":13829,"ĠSwitchEntity":13830,"ĠExpression":13831,"ĠREADME":13832,"ĠPerktold":13833,",-":13834,"Large":13835,"MI":13836,"Med":13837,"OLS":13838,"closure":13839,"gate":13840,"kely":13841,"mf":13842,"wid":13843,"restructuredtext":13844,"alerts":13845,"aspect":13846,"Ġpraw":13847,"Ġflex":13848,"adow":13849,"idf":13850,"('[":13851,"ĠImproperlyConfigured":13852,"Ġexpires":13853,"scikit":13854,"vention":13855,"binux":13856,"ĠDataContext":13857,"playlists":13858,"beam":13859,"ĠĠĠĠĠĠĠĠĠĠĠĠĠĠĠĠĠĠĠĠĠĠĠĠĠĠĠĠĠĠĠĠĠĠĠĠĠĠĠ":13860,"Ġbackwards":13861,"Ġpositional":13862,"ResourceGroupPreparer":13863,"\\.\\":13864,"è¯Ń":13865,"tzinfo":13866,"LongTensor":13867,"Ġstacklevel":13868,"Ġheads":13869,"Ġpeople":13870,"ĠBinarySensorEntity":13871,"IFIER":13872,"ĠRUNNING":13873,"ĠDistutils":13874,"ĠPeter":13875,"Ġtenant":13876,"ĠSchedule":13877,"Eval":13878,"kr":13879,"rsa":13880,"uer":13881,"xorg":13882,"~<":13883,"æŁ¥":13884,"èī²":13885,"remain":13886,"Ġmirror":13887,"ĠCalled":13888,"ĠSpe":13889,"ĠSocket":13890,"chrom":13891,"atever":13892,"abi":13893,"Ġlinux":13894,"Ġrs":13895,"rier":13896,"Ġunless":13897,"pret":13898,"Ġchecked":13899,"vertex":13900,"Ġextends":13901,"150":13902,"Ġvals":13903,"Ġsummar":13904,"ORDER":13905,"WSGI":13906,"loops":13907,"svm":13908,"åħĥ":13909,"subscriptions":13910,"pkgconfig":13911,"ugmentor":13912,"\"/><":13913,"Ġabspath":13914,"Weight":13915,"å½ķ":13916,"Ġdaemon":13917,"BinarySensor":13918,"ĠBinarySensorDeviceClass":13919,"ĠIdentity":13920,"TOPIC":13921,"Ġadapted":13922,"Ġapproach":13923,"Ġceil":13924,"æĽ´":13925,"Ġkovidgoyal":13926,"!')<":13927,".,<":13928,"BATCH":13929,"fallback":13930,"gp":13931,"hopper":13932,"rum":13933,"tun":13934,"west":13935,"atively":13936,"routing":13937,"Ġadapter":13938,"Ġaliases":13939,"ctl":13940,"esome":13941,"exchange":13942,"expires":13943,"ĠTom":13944,"ĠLookup":13945,"Ġanimation":13946,"through":13947,"Ġlxml":13948,"probs":13949,"ĠGRR":13950,"Apps":13951,"ĠUnix":13952,"Components":13953,"0000000":13954,"ĠYO":13955,"Ġopener":13956,"GRAY":13957,"ĠAuthorization":13958,"ĠWebSocket":13959,"respondent":13960,"Ġaccepts":13961,"TagTransformer":13962,"Ġsmaller":13963,"Ġ###":13964,"ANGO":13965,"postgresql":13966,"Installer":13967,"ĠENT":13968,"wallet":13969,"ĠExpectationConfiguration":13970,"DoesNotExist":13971,"EXCEPTIONS":13972,"ĠFIXME":13973,"ApiClientMixin":13974,"etheus":13975,"=\"<":13976,"Agg":13977,"Audit":13978,"BV":13979,"Dim":13980,"HH":13981,"IMPORT":13982,"Mut":13983,"Ren":13984,"Tick":13985,"gif":13986,"oscar":13987,"vor":13988,"was":13989,"rout":13990,"arches":13991,"Ġ\"@":13992,"Ġduplicate":13993,"Ġband":13994,"coordinates":13995,"ĠScha":13996,"Ġtok":13997,"absl":13998,"Ġ101":13999,"combine":14000,"ĠRED":14001,"ĠVM":14002,"scriber":14003,"Ġimgs":14004,"infos":14005,"erepo":14006,"cally":14007,"udp":14008,"Filesystem":14009,"ĠStage":14010,"Ġhttpbin":14011,"Ġreadable":14012,"okemon":14013,"filterwarnings":14014,"devtools":14015,"flake":14016,"Ġgraphics":14017,"Ġconfidence":14018,"radio":14019,"ĠFlax":14020,"Ġawxkit":14021,"IMAL":14022,"Ġpeewee":14023,"________":14024,"Override":14025,"Ġguide":14026,"å¹¶":14027,"ĠHashable":14028,"DULES":14029,":{":14030,">/":14031,"RST":14032,"Tk":14033,"Win":14034,"Width":14035,"lc":14036,"qp":14037,"tColor":14038,"delegate":14039,"Ġcpp":14040,"icates":14041,"Ġsym":14042,"Ġbroker":14043,"assandra":14044,"isnan":14045,"ĠDocker":14046,"ITIES":14047,"undo":14048,"\")):<":14049,"321":14050,"avid":14051,"cluding":14052,"Ġmanaged":14053,"USD":14054,"DIM":14055,"PLICATION":14056,"reqs":14057,"EventType":14058,"hasattr":14059,"379":14060,"CASE":14061,"autos":14062,"ĠLogging":14063,"åĲ¦":14064,"ä½ł":14065,"chunked":14066,"ĠRoss":14067,"analyses":14068,"frontend":14069,"amilies":14070,"RESOURCE":14071,"ASSISTANT":14072,"keypoints":14073,"ĠASCII":14074,"amazon":14075,"ĠSchaul":14076,"\"',":14077,"(',":14078,"DL":14079,"More":14080,"Pole":14081,"WT":14082,"rw":14083,"wn":14084,"}]":14085,"Ŀå§ĭ":14086,"onnx":14087,"reat":14088,"retries":14089,"enes":14090,"ength":14091,"lets":14092,"hey":14093,"Ġpdb":14094,"Ġregs":14095,"##<":14096,"Ġindependent":14097,"iggers":14098,"Ġbel":14099,"Ġmi":14100,"Ġmysql":14101,"ĠCMake":14102,"ĠAlias":14103,"ĠMixed":14104,"Ġhold":14105,"iment":14106,"ĠDraw":14107,"Ġgradients":14108,"ubble":14109,"Ġxorg":14110,"[:]<":14111,"Selection":14112,"Ġaxs":14113,"Ġoverriding":14114,"784":14115,"åı·":14116,"PreTrainedModel":14117,"feats":14118,"inside":14119,"StreamHandler":14120,"Ġhosts":14121,"OLD":14122,"ĠDefaultAzureCredential":14123,"recipes":14124,"digital":14125,"Ġauthorization":14126,"ãģĨ":14127,"ĠTraceback":14128,"âĶĢ":14129,"Ġrotation":14130,"Ġfeat":14131,"ĠSciPy":14132,"æĢ§":14133,"Launch":14134,"ODE":14135,"Wal":14136,"cron":14137,"ga":14138,"pragma":14139,"sink":14140,"samplers":14141,"çŁ":14142,"inverse":14143,"Ġdag":14144,"explicit":14145,"ĠAm":14146,"Ġrhs":14147,"artifacts":14148,"ĠRich":14149,"composite":14150,"Ġresulting":14151,"REE":14152,"weather":14153,"ĠPyUn":14154,"minimal":14155,"toolkits":14156,"avor":14157,"discrete":14158,"newaxis":14159,"Requests":14160,"Ġdims":14161,"downloader":14162,"longest":14163,"ĠThat":14164,"Ġ&&":14165,"ĠLoader":14166,"ĠUseful":14167,"Ġrestplus":14168,"Ġsimulation":14169,"atalog":14170,"scaling":14171,"Webhook":14172,"namedtuple":14173,"âĢĻ":14174,"Likelihood":14175,"çİĩ":14176,"æĮģ":14177,"JANGO":14178,"Other":14179,"PING":14180,"TON":14181,"WD":14182,"]`":14183,"hang":14184,"mn":14185,"tor":14186,"secs":14187,"Ġfft":14188,"ĠCrypt":14189,"otify":14190,"Ġ''.":14191,"pyqt":14192,"Ġconcrete":14193,"Ġgh":14194,"ĠFin":14195,"Represents":14196,"ĠEvalu":14197,"Ġemp":14198,"=\"{{":14199,"Ġwhitespace":14200,"xticks":14201,"clang":14202,"pectrum":14203,"Ġtimeit":14204,"LEAN":14205,"LEASE":14206,"Ġnums":14207,"\")],<":14208,"rectangle":14209,"IDENT":14210,"Ġstartup":14211,"filenames":14212,"blur":14213,"Ġavg":14214,"Ġcompleted":14215,"Ġwrites":14216,"åħ³":14217,"simulate":14218,"terminate":14219,"Ġreporter":14220,"FLAG":14221,">`_.<":14222,"LINES":14223,"ilinear":14224,"Ġestab":14225,"Origin":14226,".'":14227,">])<":14228,"Dash":14229,"Folder":14230,"Sklearn":14231,"Sku":14232,"blog":14233,"candidate":14234,"dynam":14235,"plex":14236,"uan":14237,"}-{":14238,"deg":14239,"acquire":14240,"ada":14241,"ĠSy":14242,"ĠSimp":14243,"ĠAES":14244,"elastic":14245,"ĠMIME":14246,"Ġstrftime":14247,"ritz":14248,"Ġwhy":14249,"ignored":14250,"Ġ403":14251,"docformat":14252,"Ġacme":14253,":`(*,":14254,"tokenizers":14255,"[::":14256,"floats":14257,"Ġ|=":14258,"Ġbuilds":14259,"ĠBaseFrameworkException":14260,"Chart":14261,"Ġtruth":14262,"180":14263,"cvtColor":14264,"Ġprocessor":14265,"ĠIDs":14266,"Ġmarkers":14267,"ĠMultiApiClientMixin":14268,"trader":14269,"Ġconditional":14270,"Ġipaddress":14271,"motion":14272,"åĮħ":14273,"IVATE":14274,"abcdefg":14275,"ĠDownloadableFile":14276,"ĠSETTINGS":14277,"ereleases":14278,"Ġmoviepy":14279,"è´¦æĪ·":14280,"absltest":14281,".',<":14282,"Figure":14283,"Iot":14284,"Play":14285,"PART":14286,"gal":14287,"hid":14288,"sf":14289,"tanh":14290,"Ġsyn":14291,"ung":14292,"ĠCla":14293,"ĠCelery":14294,"ĠSIGN":14295,"ĠSUB":14296,"oll":14297,"ĠMNIST":14298,"ĠNVIDIA":14299,"applications":14300,"Ġgui":14301,"ĠIssue":14302,"ĠGateway":14303,"ansi":14304,"External":14305,"PIL":14306,"LEFT":14307,"Ġ[\"--":14308,"ĠChat":14309,"Ġ-->":14310,"EXA":14311,"ĠHTTPS":14312,"ĠautoTester":14313,"ĠKeyboard":14314,"DBus":14315,"solids":14316,"aired":14317,"ç»Ħ":14318,"Ġwaiting":14319,"Ġconsistent":14320,"Ġchosen":14321,"Ġexpectation":14322,"ĠProtocolTreeNode":14323,"HOMEASSISTANT":14324,"Ġepochs":14325,"Ġrandint":14326,"assertNotIn":14327,"Ġèİ·åıĸ":14328,"ĠForeignKey":14329,"ä¿¡æģ¯":14330,")[\"":14331,"*[":14332,"After":14333,"Chain":14334,"FRAME":14335,"Sent":14336,"faster":14337,"hd":14338,"prom":14339,"sz":14340,"èĬ":14341,"reme":14342,"Ġpayment":14343,"__))":14344,"ĠSort":14345,"Ġ'[":14346,"ĠGL":14347,"ĠEnc":14348,"INDEX":14349,"addresses":14350,"curve":14351,"Exec":14352,"cepts":14353,"\")),":14354,"Ġpreserve":14355,"').<":14356,"returncode":14357,"ublished":14358,"KEYS":14359,"Helpers":14360,"Ġrelationship":14361,"ĠValues":14362,"Ġdashboard":14363,"Ġseparated":14364,"Ġtzinfo":14365,"implementer":14366,"Ġattempts":14367,"SyntaxError":14368,"needs":14369,"CrossEntropy":14370,"ĠCondition":14371,"ExistsError":14372,"ownsample":14373,"çŃĸçķ¥":14374,"'\"<":14375,"BC":14376,"CURE":14377,"Pruner":14378,"Speech":14379,"aled":14380,"broker":14381,"href":14382,"sms":14383,"Ġfooter":14384,"Ġretain":14385,"Ġspark":14386,"urg":14387,"Ġ\".\")<":14388,"Ġdro":14389,"ola":14390,"vey":14391,"uby":14392,"Retry":14393,"ĠGithub":14394,"Ġmeson":14395,"Ġmesh":14396,"ĠRout":14397,"Information":14398,"Ġtyped":14399,"Ġappended":14400,"Ġregions":14401,"OPER":14402,"ĠConfigSpace":14403,"ABS":14404,"inality":14405,"abcd":14406,"Ġordering":14407,"smos":14408,"Ġgoes":14409,"Communication":14410,"=\"\"):<":14411,"Two":14412,"recognizer":14413,"mega":14414,"ĠPOST":14415,"ĠNaT":14416,"ĠMetricsAdvisor":14417,"Ġoccurred":14418,"meshgrid":14419,"ĠPassword":14420,"PRETRAINED":14421,"'\"":14422,"BUS":14423,"Cert":14424,"bulk":14425,"sites":14426,"salt":14427,"invert":14428,"references":14429,"asmota":14430,"entific":14431,"Ġsatisf":14432,"ĠLE":14433,"Ġtoml":14434,"abb":14435,"ĠMPI":14436,"testclient":14437,"Ġhide":14438,"imag":14439,"maz":14440,"ritical":14441,
[...]
